<unk>	0
<s>	0
</s>	0
\n	0
<INDENT>	0
<DEDENT>	0
<BOS>	0
<EOS>	0
▁(	-0
▁)	-1
se	-2
▁.	-3
▁,	-4
de	-5
▁:	-6
on	-7
in	-8
st	-9
re	-10
▁de	-11
▁=	-12
te	-13
▁se	-14
▁def	-15
lf	-16
▁self	-17
..	-18
▁...	-19
th	-20
ti	-21
▁a	-22
en	-23
or	-24
er	-25
▁'	-26
▁c	-27
al	-28
ar	-29
tion	-30
me	-31
le	-32
▁f	-33
▁p	-34
at	-35
▁i	-36
▁re	-37
ge	-38
▁n	-39
▁_	-40
ra	-41
▁t	-42
▁in	-43
▁th	-44
ec	-45
un	-46
▁s	-47
▁d	-48
▁o	-49
▁b	-50
ic	-51
""	-52
ur	-53
lo	-54
▁[	-55
ame	-56
ing	-57
▁]	-58
li	-59
▁the	-60
one	-61
▁m	-62
an	-63
ate	-64
ce	-65
▁N	-66
ue	-67
ss	-68
ro	-69
ser	-70
▁te	-71
▁w	-72
▁e	-73
it	-74
▁None	-75
▁st	-76
co	-77
get	-78
ver	-79
la	-80
ction	-81
he	-82
ve	-83
▁1	-84
fi	-85
ut	-86
ri	-87
▁test	-88
ent	-89
ke	-90
▁T	-91
ter	-92
pe	-93
▁as	-94
▁-	-95
val	-96
ad	-97
mp	-98
▁to	-99
id	-100
urn	-101
qu	-102
turn	-103
il	-104
sert	-105
unction	-106
"""	-107
▁0	-108
si	-109
▁get	-110
▁"""	-111
eng	-112
hec	-113
ength	-114
ul	-115
heck	-116
▁for	-117
--	-118
ata	-119
▁assert	-120
▁of	-121
ol	-122
ict	-123
ype	-124
as	-125
name	-126
▁con	-127
▁is	-128
ath	-129
ch	-130
list	-131
▁str	-132
Function	-133
es	-134
ode	-135
▁if	-136
▁an	-137
am	-138
der	-139
Length	-140
ma	-141
um	-142
key	-143
Check	-144
▁lo	-145
FunctionLength	-146
ts	-147
ot	-148
▁g	-149
▁val	-150
▁__	-151
▁return	-152
ef	-153
ed	-154
▁F	-155
up	-156
xt	-157
▁l	-158
ist	-159
od	-160
bj	-161
ation	-162
Se	-163
put	-164
to	-165
ity	-166
par	-167
ac	-168
ini	-169
Def	-170
el	-171
is	-172
▁->	-173
ect	-174
00	-175
ment	-176
▁*	-177
dict	-178
▁ex	-179
nt	-180
gs	-181
▁h	-182
inition	-183
ror	-184
ith	-185
time	-186
▁fi	-187
Definition	-188
con	-189
ay	-190
type	-191
alse	-192
▁be	-193
▁2	-194
▁par	-195
▁A	-196
ran	-197
code	-198
▁u	-199
oc	-200
om	-201
CheckDefinition	-202
ble	-203
▁res	-204
▁value	-205
ure	-206
▁or	-207
qual	-208
▁{	-209
ta	-210
▁False	-211
ted	-212
ct	-213
▁data	-214
▁R	-215
age	-216
bject	-217
ult	-218
__	-219
Sever	-220
Severity	-221
▁and	-222
ds	-223
rom	-224
file	-225
▁input	-226
▁name	-227
▁en	-228
and	-229
rue	-230
sion	-231
di	-232
▁==	-233
pp	-234
▁me	-235
lass	-236
ption	-237
▁C	-238
▁log	-239
ase	-240
Equal	-241
ig	-242
que	-243
▁P	-244
str	-245
set	-246
▁ar	-247
pec	-248
``	-249
mat	-250
res	-251
▁set	-252
▁ne	-253
ms	-254
▁}	-255
▁I	-256
est	-257
▁assertEqual	-258
ader	-259
vel	-260
▁+	-261
int	-262
▁co	-263
param	-264
ort	-265
po	-266
ray	-267
quest	-268
▁he	-269
▁path	-270
ust	-271
ze	-272
ast	-273
ph	-274
ly	-275
▁ma	-276
----	-277
bo	-278
▁k	-279
▁v	-280
▁y	-281
for	-282
mo	-283
ht	-284
▁D	-285
uth	-286
▁ad	-287
unt	-288
us	-289
▁file	-290
▁key	-291
▁j	-292
▁not	-293
▁S	-294
▁True	-295
ance	-296
path	-297
▁ra	-298
▁3	-299
ire	-300
▁al	-301
ken	-302
reate	-303
ise	-304
pon	-305
▁int	-306
▁po	-307
umb	-308
▁with	-309
ord	-310
date	-311
ine	-312
rror	-313
level	-314
url	-315
▁new	-316
ry	-317
cal	-318
▁Re	-319
Error	-320
▁M	-321
▁r	-322
▁object	-323
▁**	-324
able	-325
fig	-326
▁list	-327
ff	-328
art	-329
▁pro	-330
▁The	-331
args	-332
ub	-333
error	-334
▁class	-335
read	-336
per	-337
▁x	-338
low	-339
vi	-340
>>	-341
ls	-342
ho	-343
▁L	-344
▁bo	-345
fo	-346
ines	-347
ponse	-348
▁node	-349
mage	-350
ule	-351
sed	-352
tem	-353
way	-354
rent	-355
pt	-356
ty	-357
ice	-358
rans	-359
ash	-360
ameter	-361
arcode	-362
▁pa	-363
▁kw	-364
dex	-365
data	-366
▁fil	-367
ename	-368
ory	-369
fe	-370
ault	-371
▁string	-372
▁'/	-373
uil	-374
▁np	-375
test	-376
▁la	-377
all	-378
ind	-379
▁from	-380
▁add	-381
▁''	-382
▁request	-383
if	-384
▁ver	-385
▁that	-386
▁format	-387
ature	-388
▁type	-389
ex	-390
ptional	-391
mple	-392
▁pre	-393
▁wh	-394
▁time	-395
▁error	-396
astq	-397
umber	-398
▁kwargs	-399
ne	-400
▁on	-401
aders	-402
pected	-403
ustom	-404
end	-405
sc	-406
ack	-407
tp	-408
init	-409
ssi	-410
ary	-411
RE	-412
tain	-413
▁el	-414
ore	-415
pi	-416
lient	-417
▁rep	-418
atch	-419
loat	-420
▁col	-421
▁Test	-422
tic	-423
▁text	-424
text	-425
ow	-426
▁create	-427
tr	-428
ssage	-429
turns	-430
ren	-431
▁sa	-432
ile	-433
pro	-434
ks	-435
tes	-436
▁expected	-437
ding	-438
py	-439
▁array	-440
▁``	-441
cur	-442
ten	-443
ger	-444
pa	-445
▁custom	-446
und	-447
ator	-448
our	-449
▁U	-450
▁date	-451
▁start	-452
▁user	-453
value	-454
▁4	-455
from	-456
dir	-457
ock	-458
▁di	-459
update	-460
▁5	-461
▁app	-462
▁param	-463
ck	-464
move	-465
et	-466
out	-467
cl	-468
▁O	-469
▁else	-470
roup	-471
▁E	-472
▁raise	-473
CheckDefinitionA	-474
.0	-475
ill	-476
pre	-477
ther	-478
▁un	-479
▁dict	-480
gra	-481
▁%	-482
▁pass	-483
vice	-484
▁ser	-485
▁ch	-486
array	-487
odule	-488
▁we	-489
▁auth	-490
ener	-491
thod	-492
▁len	-493
ting	-494
▁by	-495
▁V	-496
ww	-497
tent	-498
▁ran	-499
▁max	-500
▁function	-501
▁`	-502
▁out	-503
▁are	-504
stance	-505
:`	-506
tri	-507
ssion	-508
by	-509
lat	-510
com	-511
quire	-512
▁float	-513
▁qu	-514
▁number	-515
▁H	-516
Buil	-517
bel	-518
cess	-519
size	-520
▁check	-521
ery	-522
son	-523
ments	-524
▁barcode	-525
▁will	-526
Builder	-527
ip	-528
ize	-529
count	-530
▁config	-531
of	-532
▁url	-533
bu	-534
sition	-535
▁Returns	-536
▁result	-537
pr	-538
▁optional	-539
▁W	-540
io	-541
ree	-542
▁ro	-543
ir	-544
▁"	-545
▁fastq	-546
not	-547
Test	-548
▁mode	-549
Be	-550
▁filename	-551
ody	-552
ource	-553
ked	-554
rite	-555
▁response	-556
word	-557
rst	-558
▁all	-559
▁If	-560
length	-561
In	-562
▁B	-563
▁doc	-564
ha	-565
entic	-566
▁-----	-567
Below	-568
▁G	-569
bove	-570
uple	-571
tif	-572
ress	-573
▁item	-574
▁default	-575
▁index	-576
Re	-577
gn	-578
▁this	-579
red	-580
ameters	-581
ER	-582
▁>>	-583
ps	-584
quen	-585
token	-586
▁comp	-587
class	-588
ify	-589
pli	-590
auth	-591
▁spec	-592
▁cur	-593
▁Se	-594
rence	-595
ache	-596
▁im	-597
eld	-598
fil	-599
rig	-600
ven	-601
im	-602
ON	-603
▁com	-604
line	-605
▁os	-606
ark	-607
ard	-608
▁contain	-609
PE	-610
form	-611
zone	-612
ude	-613
arget	-614
ies	-615
coding	-616
arch	-617
▁trans	-618
▁base	-619
http	-620
lace	-621
uld	-622
log	-623
▁run	-624
object	-625
uct	-626
▁>>>	-627
//	-628
▁image	-629
▁token	-630
▁at	-631
▁no	-632
▁headers	-633
ink	-634
action	-635
▁valid	-636
▁req	-637
▁bool	-638
▁update	-639
BelowSeverity	-640
Path	-641
pen	-642
▁find	-643
▁it	-644
▁params	-645
ign	-646
we	-647
▁load	-648
rame	-649
string	-650
▁Ar	-651
▁method	-652
ong	-653
ET	-654
add	-655
lete	-656
plit	-657
▁parse	-658
ated	-659
ail	-660
quence	-661
_1	-662
▁exce	-663
▁read	-664
\\	-665
▁10	-666
▁version	-667
def	-668
▁dist	-669
ers	-670
▁can	-671
▁cer	-672
ration	-673
://	-674
ab	-675
▁id	-676
▁sho	-677
▁code	-678
mb	-679
▁values	-680
atus	-681
base	-682
ok	-683
▁py	-684
ag	-685
▁List	-686
mail	-687
',	-688
tive	-689
tific	-690
▁content	-691
▁An	-692
ST	-693
lay	-694
lib	-695
with	-696
50	-697
che	-698
▁gi	-699
wash	-700
old	-701
ual	-702
Id	-703
OR	-704
ml	-705
ded	-706
▁module	-707
▁<	-708
gist	-709
node	-710
tems	-711
tit	-712
▁ac	-713
gment	-714
iction	-715
▁>	-716
fix	-717
▁match	-718
lip	-719
mand	-720
ints	-721
▁imp	-722
▁0.	-723
Pathway	-724
▁target	-725
ics	-726
▁args	-727
lan	-728
max	-729
sco	-730
late	-731
adata	-732
▁query	-733
boveSeverity	-734
ument	-735
ight	-736
ifi	-737
mpty	-738
yn	-739
▁X	-740
▁@	-741
):	-742
ste	-743
Con	-744
▁first	-745
enticate	-746
port	-747
lock	-748
user	-749
ning	-750
▁dire	-751
▁server	-752
ns	-753
ample	-754
ations	-755
▁Args	-756
gest	-757
).	-758
cre	-759
info	-760
▁group	-761
▁mas	-762
TT	-763
ak	-764
ference	-765
ux	-766
ws	-767
▁/	-768
ari	-769
▁cal	-770
▁used	-771
app	-772
▁client	-773
yp	-774
als	-775
ave	-776
▁100	-777
ctory	-778
ome	-779
▁end	-780
ref	-781
xtra	-782
own	-783
▁gener	-784
▁fastqread	-785
01	-786
▁obj	-787
oin	-788
▁encoding	-789
▁should	-790
▁given	-791
scri	-792
ap	-793
his	-794
▁setting	-795
ear	-796
igh	-797
For	-798
▁sub	-799
IN	-800
▁model	-801
load	-802
▁count	-803
return	-804
▁cls	-805
YPE	-806
map	-807
min	-808
struct	-809
cale	-810
vo	-811
ump	-812
like	-813
headers	-814
peration	-815
alue	-816
sing	-817
Lines	-818
current	-819
unc	-820
▁require	-821
▁password	-822
tils	-823
barcode	-824
True	-825
ffer	-826
ich	-827
Name	-828
client	-829
tadata	-830
▁min	-831
▁year	-832
▁range	-833
▁6	-834
▁typ	-835
▁message	-836
ellip	-837
darray	-838
cer	-839
ll	-840
act	-841
lif	-842
vent	-843
▁header	-844
tificate	-845
▁This	-846
▁save	-847
With	-848
idth	-849
▁Con	-850
order	-851
raph	-852
inter	-853
509	-854
uri	-855
Par	-856
▁bu	-857
▁per	-858
▁append	-859
▁output	-860
valid	-861
No	-862
ayment	-863
params	-864
mux	-865
col	-866
obj	-867
1'	-868
ci	-869
eature	-870
graph	-871
Data	-872
▁Any	-873
title	-874
▁diction	-875
▁lines	-876
instance	-877
_2	-878
mit	-879
▁try	-880
unter	-881
nec	-882
latz	-883
▁which	-884
cs	-885
▁mock	-886
▁report	-887
dom	-888
bels	-889
default	-890
▁filter	-891
▁except	-892
▁typing	-893
hape	-894
ron	-895
uration	-896
ach	-897
oly	-898
ges	-899
▁ht	-900
▁mo	-901
▁Par	-902
▁replace	-903
12	-904
▁join	-905
▁delete	-906
▁pathway	-907
op	-908
▁le	-909
▁level	-910
ix	-911
ute	-912
▁has	-913
▁collatz	-914
IL	-915
lob	-916
ults	-917
river	-918
0000	-919
▁incl	-920
▁make	-921
▁tuple	-922
▁remove	-923
gu	-924
ulti	-925
ial	-926
enter	-927
▁mark	-928
▁size	-929
message	-930
▁dataset	-931
filename	-932
gan	-933
▁split	-934
▁elif	-935
▁word	-936
▁use	-937
right	-938
create	-939
By	-940
UT	-941
gram	-942
AT	-943
▁dis	-944
▁+=	-945
AL	-946
item	-947
▁tra	-948
Le	-949
xy	-950
ids	-951
ork	-952
image	-953
▁last	-954
comp	-955
▁Value	-956
▁assertTrue	-957
ler	-958
▁sen	-959
▁username	-960
pace	-961
ellipse	-962
▁ent	-963
AR	-964
MS	-965
parse	-966
▁ndarray	-967
md	-968
os	-969
den	-970
Level	-971
ptions	-972
elds	-973
▁conver	-974
len	-975
ull	-976
EN	-977
TTP	-978
dist	-979
feature	-980
position	-981
▁only	-982
▁feature	-983
▁specifi	-984
▁directory	-985
rip	-986
▁json	-987
▁graph	-988
64	-989
IT	-990
Type	-991
▁when	-992
oo	-993
www	-994
20	-995
lic	-996
pher	-997
▁extra	-998
▁session	-999
stra	-1000
ream	-1001
fastq	-1002
ganis	-1003
▁inter	-1004
request	-1005
tSeverity	-1006
▁Function	-1007
▁table	-1008
▁pytest	-1009
▁one	-1010
▁items	-1011
▁buffer	-1012
▁---------	-1013
lines	-1014
version	-1015
▁position	-1016
ft	-1017
back	-1018
▁8	-1019
▁do	-1020
write	-1021
▁post	-1022
▁ValueError	-1023
AM	-1024
fa	-1025
orm	-1026
▁In	-1027
▁whe	-1028
.'	-1029
raw	-1030
▁pathwayId	-1031
orted	-1032
lose	-1033
File	-1034
▁ali	-1035
config	-1036
cy	-1037
sg	-1038
}'	-1039
are	-1040
ive	-1041
▁call	-1042
index	-1043
tra	-1044
once	-1045
▁http	-1046
wer	-1047
▁sy	-1048
olve	-1049
▁random	-1050
its	-1051
ner	-1052
▁ed	-1053
bose	-1054
temp	-1055
start	-1056
ek	-1057
bin	-1058
▁HTTP	-1059
response	-1060
UL	-1061
▁9	-1062
doc	-1063
▁regist	-1064
▁line	-1065
▁link	-1066
ices	-1067
mode	-1068
▁num	-1069
▁-------	-1070
operation	-1071
▁----------	-1072
▁Parameters	-1073
pth	-1074
▁empty	-1075
▁current	-1076
▁metadata	-1077
▁web	-1078
limit	-1079
off	-1080
do	-1081
▁z	-1082
amp	-1083
▁ob	-1084
▁digest	-1085
▁dictionary	-1086
ises	-1087
▁wra	-1088
json	-1089
poch	-1090
tera	-1091
▁func	-1092
▁reference	-1093
▁su	-1094
▁api	-1095
names	-1096
hand	-1097
▁cor	-1098
▁other	-1099
ariable	-1100
▁datetime	-1101
Ex	-1102
▁tri	-1103
▁body	-1104
vision	-1105
▁barcodedict	-1106
men	-1107
seq	-1108
▁Dict	-1109
▁cache	-1110
Co	-1111
`,	-1112
my	-1113
no	-1114
▁pr	-1115
isto	-1116
istogram	-1117
▁specified	-1118
ask	-1119
require	-1120
ound	-1121
tial	-1122
▁instance	-1123
0'	-1124
cle	-1125
Body	-1126
ects	-1127
lation	-1128
▁isinstance	-1129
ErrorLevel	-1130
mi	-1131
wd	-1132
ION	-1133
xture	-1134
▁keys	-1135
▁masked	-1136
St	-1137
nection	-1138
▁include	-1139
conf	-1140
▁temp	-1141
ID	-1142
led	-1143
ple	-1144
thon	-1145
muxed	-1146
▁FunctionBody	-1147
imp	-1148
nect	-1149
▁ele	-1150
arning	-1151
ched	-1152
▁write	-1153
su	-1154
▁email	-1155
▁generate	-1156
SS	-1157
fer	-1158
▁pod	-1159
ganism	-1160
▁secon	-1161
UR	-1162
so	-1163
anti	-1164
()	-1165
og	-1166
mon	-1167
▁must	-1168
check	-1169
group	-1170
lable	-1171
▁search	-1172
!=	-1173
Ke	-1174
rid	-1175
▁nu	-1176
nail	-1177
trans	-1178
umbnail	-1179
hash	-1180
▁width	-1181
cc	-1182
:`~	-1183
▁any	-1184
▁dec	-1185
▁verbose	-1186
ribu	-1187
▁Optional	-1188
logy	-1189
▁Set	-1190
guage	-1191
ket	-1192
uild	-1193
▁arg	-1194
structor	-1195
CT	-1196
▁7	-1197
ext	-1198
▁calc	-1199
lection	-1200
inal	-1201
sent	-1202
▁exist	-1203
WW	-1204
Key	-1205
▁Def	-1206
▁init	-1207
sche	-1208
istory	-1209
process	-1210
AN	-1211
▁!=	-1212
iz	-1213
▁hand	-1214
function	-1215
▁segment	-1216
▁ign	-1217
▁msg	-1218
▁status	-1219
api	-1220
gle	-1221
ient	-1222
tern	-1223
▁into	-1224
▁repe	-1225
module	-1226
Not	-1227
ords	-1228
▁shape	-1229
▁length	-1230
timezone	-1231
tension	-1232
▁height	-1233
▁payment	-1234
va	-1235
run	-1236
▁day	-1237
▁Trans	-1238
ug	-1239
frame	-1240
tology	-1241
ception	-1242
ribution	-1243
FunctionLengths	-1244
ging	-1245
rigger	-1246
",	-1247
2'	-1248
NoL	-1249
▁db	-1250
stem	-1251
lobal	-1252
▁MA	-1253
▁each	-1254
▁import	-1255
▁source	-1256
ries	-1257
vate	-1258
▁tag	-1259
▁where	-1260
terator	-1261
ni	-1262
▁align	-1263
List	-1264
ital	-1265
new	-1266
serv	-1267
▁rec	-1268
▁lower	-1269
ca	-1270
pk	-1271
result	-1272
muxeddict	-1273
="	-1274
dms	-1275
')	-1276
1.	-1277
ob	-1278
ild	-1279
▁have	-1280
▁while	-1281
features	-1282
sure	-1283
state	-1284
ackage	-1285
ik	-1286
idd	-1287
▁ax	-1288
▁over	-1289
▁parent	-1290
▁repeat	-1291
interval	-1292
ep	-1293
pu	-1294
cert	-1295
face	-1296
stamp	-1297
▁event	-1298
Ter	-1299
ards	-1300
ipher	-1301
▁print	-1302
▁service	-1303
▁variable	-1304
els	-1305
fter	-1306
▁sup	-1307
aults	-1308
▁long	-1309
italics	-1310
authenticate	-1311
iddle	-1312
rest	-1313
▁sign	-1314
da	-1315
other	-1316
verage	-1317
cri	-1318
sub	-1319
▁ws	-1320
TYPE	-1321
▁loc	-1322
lease	-1323
ormal	-1324
format	-1325
scounter	-1326
Dec	-1327
ite	-1328
num	-1329
lect	-1330
▁returns	-1331
ick	-1332
▁sco	-1333
▁frame	-1334
▁newname	-1335
Parameter	-1336
IP	-1337
On	-1338
rop	-1339
tag	-1340
table	-1341
▁chan	-1342
▁nucl	-1343
▁title	-1344
▁address	-1345
▁allow	-1346
▁repeatscounter	-1347
KE	-1348
ield	-1349
post	-1350
match	-1351
cision	-1352
▁descri	-1353
▁driver	-1354
▁certificate	-1355
ld	-1356
▁Ex	-1357
cache	-1358
ffi	-1359
oto	-1360
asic	-1361
aises	-1362
assert	-1363
sequence	-1364
▁revision	-1365
▁transaction	-1366
link	-1367
▁exp	-1368
attern	-1369
▁resource	-1370
ili	-1371
row	-1372
print	-1373
ateway	-1374
▁encode	-1375
▁bold	-1376
sh	-1377
▁J	-1378
var	-1379
▁sh	-1380
▁mon	-1381
▁logger	-1382
▁context	-1383
99	-1384
ou	-1385
ical	-1386
rase	-1387
▁``'	-1388
equal	-1389
dition	-1390
▁field	-1391
fre	-1392
▁ts	-1393
status	-1394
▁proper	-1395
▁color	-1396
ba	-1397
Res	-1398
med	-1399
▁bit	-1400
▁ret	-1401
recurrent	-1402
files	-1403
▁open	-1404
▁cipher	-1405
distance	-1406
▁Transaction	-1407
'``	-1408
org	-1409
sms	-1410
week	-1411
viron	-1412
▁parameters	-1413
▁bc	-1414
▁ge	-1415
▁pe	-1416
play	-1417
▁Type	-1418
▁Request	-1419
sen	-1420
▁--	-1421
▁using	-1422
▁'-	-1423
▁12	-1424
▁fa	-1425
▁state	-1426
rix	-1427
phrase	-1428
▁database	-1429
foo	-1430
last	-1431
▁axis	-1432
▁cert	-1433
actory	-1434
method	-1435
number	-1436
contain	-1437
▁document	-1438
ant	-1439
tar	-1440
utf	-1441
▁up	-1442
arge	-1443
mbda	-1444
▁Str	-1445
▁pri	-1446
field	-1447
prefix	-1448
▁names	-1449
':	-1450
ose	-1451
pri	-1452
olic	-1453
rect	-1454
▁Ser	-1455
icode	-1456
tologyTer	-1457
▁demuxeddict	-1458
day	-1459
ony	-1460
vers	-1461
denti	-1462
remove	-1463
▁depth	-1464
▁label	-1465
dd	-1466
▁FIL	-1467
▁poly	-1468
▁transform	-1469
Bad	-1470
Ser	-1471
ETYPE	-1472
tents	-1473
▁zone	-1474
▁parsed	-1475
fastqread	-1476
▁FILETYPE	-1477
▁container	-1478
▁authenticate	-1479
GG	-1480
iss	-1481
dent	-1482
umpy	-1483
void	-1484
mount	-1485
▁orig	-1486
▁send	-1487
▁point	-1488
EF	-1489
▁act	-1490
▁sched	-1491
Pathways	-1492
ses	-1493
▁1.0	-1494
▁uri	-1495
trics	-1496
barcodedict	-1497
be	-1498
wo	-1499
arts	-1500
range	-1501
▁edge	-1502
labels	-1503
▁files	-1504
▁center	-1505
8'	-1506
meth	-1507
cript	-1508
first	-1509
tuple	-1510
▁root	-1511
CheckA	-1512
▁actual	-1513
▁command	-1514
▁returned	-1515
iki	-1516
lar	-1517
▁pi	-1518
cret	-1519
▁lat	-1520
▁cont	-1521
fields	-1522
mation	-1523
▁ensure	-1524
),	-1525
man	-1526
ppl	-1527
pplint	-1528
▁labels	-1529
10	-1530
PI	-1531
attr	-1532
card	-1533
lack	-1534
rees	-1535
▁strip	-1536
mension	-1537
▁logging	-1538
25	-1539
ird	-1540
▁pkey	-1541
▁then	-1542
▁multi	-1543
▁insert	-1544
▁'%	-1545
ming	-1546
▁prefix	-1547
▁second	-1548
notations	-1549
▁thumbnail	-1550
GB	-1551
▁top	-1552
ocket	-1553
price	-1554
tribu	-1555
ynony	-1556
header	-1557
▁timeout	-1558
msBuilder	-1559
▁required	-1560
NT	-1561
Dict	-1562
call	-1563
olicy	-1564
orter	-1565
service	-1566
▁ignore	-1567
▁warning	-1568
olu	-1569
▁dest	-1570
▁device	-1571
▁verify	-1572
OT	-1573
▁UR	-1574
▁seq	-1575
pping	-1576
▁char	-1577
SE	-1578
TR	-1579
umns	-1580
▁race	-1581
▁scal	-1582
respon	-1583
serial	-1584
only	-1585
ccess	-1586
amming	-1587
▁Config	-1588
▁requests	-1589
▁provi	-1590
▁settings	-1591
▁passphrase	-1592
2.	-1593
ous	-1594
ches	-1595
dius	-1596
lain	-1597
▁ref	-1598
items	-1599
secon	-1600
▁contains	-1601
ULT	-1602
lean	-1603
sets	-1604
ties	-1605
float	-1606
ility	-1607
point	-1608
filter	-1609
▁month	-1610
▁headername	-1611
KEY	-1612
MET	-1613
utc	-1614
ves	-1615
ync	-1616
keys	-1617
▁'/'	-1618
▁200	-1619
orage	-1620
▁also	-1621
▁hash	-1622
▁some	-1623
▁tree	-1624
termin	-1625
▁randomer	-1626
▁register	-1627
Do	-1628
`.	-1629
ait	-1630
fol	-1631
bytes	-1632
score	-1633
▁bytes	-1634
loc	-1635
unds	-1636
▁pas	-1637
▁runs	-1638
Get	-1639
REC	-1640
▁but	-1641
verse	-1642
▁info	-1643
▁objects	-1644
▁parameter	-1645
AME	-1646
email	-1647
▁diff	-1648
▁trim	-1649
▁wrap	-1650
)'	-1651
_3	-1652
ason	-1653
wise	-1654
▁bin	-1655
▁Check	-1656
▁patch	-1657
straint	-1658
▁raises	-1659
Al	-1660
ax	-1661
ped	-1662
▁PO	-1663
Blan	-1664
sive	-1665
▁mask	-1666
Declar	-1667
▁correspon	-1668
CheckDeclar	-1669
CheckDeclaration	-1670
abc	-1671
dis	-1672
til	-1673
▁sp	-1674
:`~.	-1675
Base	-1676
reak	-1677
▁safe	-1678
DataFile	-1679
('	-1680
des	-1681
sor	-1682
uto	-1683
▁'{	-1684
▁note	-1685
▁nonce	-1686
WithNoL	-1687
VER	-1688
hold	-1689
ired	-1690
▁dump	-1691
▁process	-1692
reference	-1693
▁argument	-1694
-0	-1695
1_	-1696
To	-1697
eval	-1698
tree	-1699
▁MAX	-1700
▁raw	-1701
▁var	-1702
build	-1703
alance	-1704
ayload	-1705
▁strings	-1706
gin	-1707
lot	-1708
▁18	-1709
▁md	-1710
most	-1711
▁two	-1712
Utils	-1713
▁dtype	-1714
▁nodes	-1715
▁convert	-1716
formation	-1717
▁sequence	-1718
FParameter	-1719
▁interface	-1720
▁so	-1721
alid	-1722
ixels	-1723
model	-1724
▁work	-1725
▁scale	-1726
ression	-1727
OM	-1728
▁|	-1729
RGB	-1730
cast	-1731
▁For	-1732
False	-1733
close	-1734
▁more	-1735
histogram	-1736
▁validate	-1737
▁TypeError	-1738
ain	-1739
ces	-1740
main	-1741
▁ass	-1742
▁boo	-1743
▁mat	-1744
Image	-1745
▁Data	-1746
▁close	-1747
example	-1748
▁observ	-1749
▁tokens	-1750
▁schedule	-1751
AC	-1752
yle	-1753
chan	-1754
▁months	-1755
notation	-1756
De	-1757
ie	-1758
ote	-1759
▁ab	-1760
tail	-1761
unts	-1762
▁tmp	-1763
import	-1764
▁https	-1765
▁recur	-1766
▁Trigger	-1767
▁TriggerLines	-1768
::	-1769
lus	-1770
RENT	-1771
tach	-1772
itial	-1773
query	-1774
ulate	-1775
URRENT	-1776
▁resolve	-1777
40	-1778
▁16	-1779
utes	-1780
▁0.0	-1781
▁lon	-1782
inate	-1783
▁rows	-1784
report	-1785
versal	-1786
Request	-1787
setting	-1788
▁package	-1789
certificate	-1790
**	-1791
.1	-1792
META	-1793
TRAN	-1794
ific	-1795
root	-1796
▁del	-1797
label	-1798
voked	-1799
ordinate	-1800
▁Sequence	-1801
PathwaysBy	-1802
cu	-1803
na	-1804
tw	-1805
."""	-1806
teger	-1807
▁fore	-1808
essage	-1809
regist	-1810
▁entry	-1811
requirements	-1812
GT	-1813
PEM	-1814
aml	-1815
▁It	-1816
NAME	-1817
▁opt	-1818
pochs	-1819
▁prefer	-1820
▁importer	-1821
3'	-1822
ava	-1823
edge	-1824
over	-1825
▁env	-1826
delete	-1827
▁child	-1828
▁found	-1829
session	-1830
▁containing	-1831
EL	-1832
rv	-1833
DMS	-1834
``.	-1835
doy	-1836
wiki	-1837
edges	-1838
layer	-1839
apping	-1840
erence	-1841
tokens	-1842
fixture	-1843
terable	-1844
▁sample	-1845
RECURRENT	-1846
▁Defaults	-1847
long	-1848
rypt	-1849
arker	-1850
exist	-1851
▁rate	-1852
▁same	-1853
▁unit	-1854
▁numpy	-1855
Is	-1856
bug	-1857
ants	-1858
term	-1859
▁ind	-1860
▁you	-1861
▁addr	-1862
▁meta	-1863
seconds	-1864
lication	-1865
template	-1866
vironment	-1867
▁elements	-1868
▁organism	-1869
entication	-1870
reads	-1871
trace	-1872
insert	-1873
middle	-1874
parser	-1875
▁order	-1876
▁train	-1877
▁exists	-1878
.5	-1879
/'	-1880
An	-1881
OL	-1882
Rec	-1883
wra	-1884
▁De	-1885
509_	-1886
uber	-1887
▁hel	-1888
▁ids	-1889
efore	-1890
context	-1891
OK	-1892
-8'	-1893
eve	-1894
uid	-1895
ither	-1896
stead	-1897
ython	-1898
▁left	-1899
▁seed	-1900
▁than	-1901
output	-1902
▁starts	-1903
▁gateway	-1904
eb	-1905
ING	-1906
down	-1907
width	-1908
values	-1909
▁const	-1910
▁inner	-1911
▁repre	-1912
▁decode	-1913
▁forecast	-1914
▁template	-1915
tologyTerm	-1916
OC	-1917
UN	-1918
df	-1919
arn	-1920
nel	-1921
▁St	-1922
scheme	-1923
secret	-1924
▁yield	-1925
▁global	-1926
▁passed	-1927
▁initial	-1928
":	-1929
bar	-1930
err	-1931
ycle	-1932
▁mod	-1933
ready	-1934
▁grid	-1935
▁seri	-1936
▁multiple	-1937
▁assertEquals	-1938
Ch	-1939
Or	-1940
EFA	-1941
ness	-1942
seed	-1943
ters	-1944
multi	-1945
netes	-1946
EFAULT	-1947
agraph	-1948
matrix	-1949
▁marker	-1950
▁quanti	-1951
ubernetes	-1952
▁location	-1953
Up	-1954
▁Y	-1955
ged	-1956
gon	-1957
ubt	-1958
▁ct	-1959
mask	-1960
open	-1961
▁Ver	-1962
▁fla	-1963
angle	-1964
ights	-1965
thing	-1966
▁page	-1967
ubtator	-1968
▁serial	-1969
precision	-1970
rl	-1971
UTH	-1972
nodes	-1973
▁main	-1974
options	-1975
▁fields	-1976
ats	-1977
four	-1978
pass	-1979
▁Res	-1980
▁lan	-1981
private	-1982
▁String	-1983
▁instead	-1984
▁original	-1985
sv	-1986
aks	-1987
alm	-1988
use	-1989
mote	-1990
repr	-1991
ween	-1992
▁hex	-1993
inity	-1994
▁best	-1995
trials	-1996
▁retri	-1997
.4	-1998
FP	-1999
erg	-2000
gor	-2001
None	-2002
▁Get	-2003
▁Uni	-2004
Index	-2005
▁lambda	-2006
language	-2007
▁example	-2008
barcodeid	-2009
▁property	-2010
▁functions	-2011
▁information	-2012
lou	-2013
▁20	-2014
pper	-2015
tsrv	-2016
▁pos	-2017
ranch	-2018
third	-2019
▁stock	-2020
db	-2021
du	-2022
orr	-2023
ors	-2024
web	-2025
asta	-2026
mbed	-2027
▁stack	-2028
▁utils	-2029
history	-2030
▁Mapping	-2031
▁created	-2032
intervals	-2033
32	-2034
AS	-2035
tz	-2036
▁#	-2037
Com	-2038
Foo	-2039
AUTH	-2040
▁vip	-2041
▁{}'	-2042
black	-2043
strict	-2044
▁begin	-2045
▁charac	-2046
▁normal	-2047
▁options	-2048
▁provided	-2049
▁validator	-2050
▁connection	-2051
▁annotations	-2052
CS	-2053
IM	-2054
sp	-2055
Ver	-2056
aff	-2057
ost	-2058
pos	-2059
▁'.	-2060
Down	-2061
▁geo	-2062
▁map	-2063
▁see	-2064
asure	-2065
ollow	-2066
onent	-2067
plain	-2068
redit	-2069
sfile	-2070
driver	-2071
▁amount	-2072
▁common	-2073
▁system	-2074
▁weight	-2075
organism	-2076
▁metrics	-2077
▁Iterator	-2078
▁matching	-2079
▁histogram	-2080
ORD	-2081
ele	-2082
case	-2083
rdoy	-2084
ross	-2085
▁man	-2086
ayoff	-2087
force	-2088
mplex	-2089
▁sing	-2090
Raises	-2091
▁block	-2092
▁debug	-2093
▁proxy	-2094
returns	-2095
▁timestamp	-2096
csv	-2097
▁25	-2098
▁ta	-2099
ager	-2100
lope	-2101
ores	-2102
▁case	-2103
▁distribution	-2104
000	-2105
Set	-2106
▁fp	-2107
Line	-2108
cell	-2109
ined	-2110
Found	-2111
aries	-2112
▁place	-2113
▁synony	-2114
▁features	-2115
Ref	-2116
ULL	-2117
ircu	-2118
iter	-2119
ized	-2120
tend	-2121
tric	-2122
umer	-2123
▁Whe	-2124
▁cho	-2125
▁zip	-2126
Class	-2127
Valid	-2128
titem	-2129
▁sort	-2130
▁bound	-2131
▁decim	-2132
content	-2133
▁groups	-2134
▁element	-2135
teraction	-2136
▁overwrite	-2137
constructor	-2138
13	-2139
='	-2140
mod	-2141
▁Cal	-2142
▁bet	-2143
▁dat	-2144
▁gen	-2145
▁gps	-2146
rtype	-2147
▁Union	-2148
History	-2149
▁stream	-2150
Exception	-2151
1,	-2152
15	-2153
ass	-2154
hex	-2155
▁..	-2156
▁pk	-2157
body	-2158
ique	-2159
rate	-2160
▁port	-2161
▁another	-2162
▁perform	-2163
▁assertRaises	-2164
▁configuration	-2165
IR	-2166
sl	-2167
can	-2168
exp	-2169
▁{'	-2170
head	-2171
illi	-2172
next	-2173
tify	-2174
clock	-2175
verify	-2176
▁Return	-2177
ditional	-2178
ollowing	-2179
▁allowed	-2180
extension	-2181
▁exception	-2182
Un	-2183
▁q	-2184
▁utc	-2185
▁draw	-2186
▁rece	-2187
dentials	-2188
metadata	-2189
▁converter	-2190
go	-2191
64'	-2192
SMS	-2193
▁<=	-2194
proxy	-2195
▁stri	-2196
titude	-2197
▁async	-2198
▁Series	-2199
▁assertIs	-2200
▁language	-2201
RECURRENTS	-2202
34	-2203
]'	-2204
nr	-2205
mac	-2206
iled	-2207
atory	-2208
cycle	-2209
indow	-2210
ppers	-2211
ystem	-2212
▁back	-2213
▁form	-2214
▁single	-2215
Curation	-2216
Response	-2217
compress	-2218
▁Example	-2219
▁Whether	-2220
▁startswith	-2221
oe	-2222
ORY	-2223
ati	-2224
vid	-2225
▁LO	-2226
vert	-2227
▁See	-2228
▁bds	-2229
entry	-2230
attach	-2231
▁account	-2232
▁callback	-2233
▁retrieve	-2234
kubernetes	-2235
IST	-2236
aly	-2237
ion	-2238
dire	-2239
eces	-2240
search	-2241
connect	-2242
segment	-2243
CurationT	-2244
▁assertFalse	-2245
0,	-2246
LA	-2247
box	-2248
zip	-2249
▁ca	-2250
page	-2251
phab	-2252
▁does	-2253
lector	-2254
▁cycle	-2255
▁separ	-2256
▁contin	-2257
▁entries	-2258
▁pattern	-2259
mandatory	-2260
▁represent	-2261
ED	-2262
wh	-2263
▁nn	-2264
duce	-2265
roll	-2266
sign	-2267
▁non	-2268
cards	-2269
event	-2270
itude	-2271
▁both	-2272
erature	-2273
handler	-2274
tribute	-2275
▁payload	-2276
EM	-2277
pkg	-2278
sca	-2279
tro	-2280
▁ag	-2281
ithm	-2282
loud	-2283
side	-2284
▁Hash	-2285
▁copy	-2286
center	-2287
cessed	-2288
phabet	-2289
server	-2290
▁called	-2291
▁fastqio	-2292
▁distance	-2293
parameters	-2294
24	-2295
AA	-2296
EX	-2297
dec	-2298
leg	-2299
try	-2300
▁sk	-2301
host	-2302
uids	-2303
▁URL	-2304
▁aip	-2305
▁sum	-2306
digest	-2307
single	-2308
enerate	-2309
▁orient	-2310
encoding	-2311
▁HTTPBad	-2312
▁baseline	-2313
▁dimension	-2314
▁collection	-2315
▁getPathway	-2316
▁HTTPBadRequest	-2317
11	-2318
Qu	-2319
],	-2320
utils	-2321
▁crop	-2322
ilable	-2323
▁after	-2324
▁local	-2325
▁named	-2326
▁connect	-2327
▁results	-2328
timezones	-2329
▁constructor	-2330
37	-2331
ece	-2332
eks	-2333
ias	-2334
▁cl	-2335
▁sq	-2336
ating	-2337
latest	-2338
▁apply	-2339
▁score	-2340
indices	-2341
success	-2342
settings	-2343
▁weights	-2344
▁registry	-2345
▁constants	-2346
▁corresponding	-2347
OD	-2348
ew	-2349
iny	-2350
rep	-2351
vio	-2352
func	-2353
poly	-2354
ules	-2355
wait	-2356
gress	-2357
ickle	-2358
scape	-2359
▁inst	-2360
formed	-2361
points	-2362
section	-2363
▁Payment	-2364
▁cpplint	-2365
▁subject	-2366
structure	-2367
kw	-2368
rc	-2369
PRE	-2370
cat	-2371
pop	-2372
txt	-2373
▁En	-2374
docs	-2375
▁off	-2376
▁NULL	-2377
▁conf	-2378
▁href	-2379
Almost	-2380
folder	-2381
▁trace	-2382
Content	-2383
resource	-2384
straints	-2385
AlmostEqual	-2386
▁authentication	-2387
ORT	-2388
cep	-2389
Band	-2390
▁www	-2391
input	-2392
▁Tiny	-2393
▁auto	-2394
▁store	-2395
▁retval	-2396
▁fixture	-2397
▁hamming	-2398
▁continue	-2399
lt	-2400
ans	-2401
bad	-2402
▁19	-2403
find	-2404
full	-2405
html	-2406
pkcs	-2407
▁mer	-2408
https	-2409
▁pair	-2410
bility	-2411
ssible	-2412
▁depen	-2413
▁right	-2414
▁script	-2415
▁sorted	-2416
▁already	-2417
▁average	-2418
▁columns	-2419
▁timezone	-2420
privatekey	-2421
▁operation	-2422
▁compression	-2423
CH	-2424
EST	-2425
LEN	-2426
chi	-2427
ply	-2428
▁1:	-2429
make	-2430
tect	-2431
uest	-2432
▁'-'	-2433
▁bio	-2434
▁des	-2435
▁dir	-2436
▁sim	-2437
▁host	-2438
arDown	-2439
encode	-2440
▁sfile	-2441
gorithm	-2442
▁parame	-2443
affinity	-2444
required	-2445
username	-2446
▁compute	-2447
▁latitude	-2448
▁signature	-2449
66	-2450
aN	-2451
gz	-2452
},	-2453
OCK	-2454
ura	-2455
▁15	-2456
▁>=	-2457
▁gr	-2458
ings	-2459
sort	-2460
▁cel	-2461
▁its	-2462
▁rel	-2463
shape	-2464
▁Text	-2465
Config	-2466
ulated	-2467
▁Tuple	-2468
▁either	-2469
▁policy	-2470
00000000	-2471
pulation	-2472
▁comment	-2473
▁correct	-2474
84	-2475
RI	-2476
UND	-2477
char	-2478
freq	-2479
trim	-2480
▁now	-2481
depth	-2482
legal	-2483
space	-2484
▁1000	-2485
▁limit	-2486
Command	-2487
▁escape	-2488
▁remote	-2489
matching	-2490
▁measure	-2491
▁requirements	-2492
CC	-2493
WORD	-2494
prec	-2495
raft	-2496
▁iss	-2497
atest	-2498
loose	-2499
custom	-2500
▁Image	-2501
▁build	-2502
getitem	-2503
contains	-2504
▁channel	-2505
▁calculate	-2506
▁processed	-2507
_0	-2508
fn	-2509
▁K	-2510
ATE	-2511
Pro	-2512
req	-2513
User	-2514
book	-2515
core	-2516
ware	-2517
▁old	-2518
ITION	-2519
divid	-2520
olume	-2521
astaio	-2522
▁style	-2523
ariance	-2524
dividual	-2525
▁DEFAULT	-2526
paragraph	-2527
▁contents	-2528
([	-2529
job	-2530
now	-2531
Info	-2532
uted	-2533
▁COM	-2534
▁Ref	-2535
extra	-2536
nonce	-2537
▁days	-2538
▁head	-2539
▁next	-2540
▁between	-2541
▁quantity	-2542
constraint	-2543
▁barcodeid	-2544
▁forecasts	-2545
IC	-2546
ide	-2547
ime	-2548
qui	-2549
reg	-2550
▁To	-2551
free	-2552
▁sig	-2553
eader	-2554
ogger	-2555
tions	-2556
layers	-2557
radius	-2558
▁prior	-2559
▁types	-2560
comment	-2561
▁series	-2562
existing	-2563
▁Message	-2564
▁extract	-2565
▁factory	-2566
▁scaling	-2567
dataframe	-2568
CheckAbove	-2569
DB	-2570
En	-2571
iti	-2572
addr	-2573
asks	-2574
oney	-2575
rive	-2576
▁201	-2577
▁cut	-2578
ancel	-2579
local	-2580
Object	-2581
global	-2582
target	-2583
command	-2584
fastqio	-2585
release	-2586
▁balance	-2587
ictionary	-2588
▁Hashable	-2589
▁formatter	-2590
▁longitude	-2591
WWW	-2592
hel	-2593
sol	-2594
▁Cer	-2595
▁Dms	-2596
▁adj	-2597
ative	-2598
▁byte	-2599
CheckAt	-2600
objects	-2601
▁points	-2602
▁strike	-2603
▁specify	-2604
parameter	-2605
CheckBelow	-2606
▁dictionaries	-2607
▁au	-2608
▁sd	-2609
▁wr	-2610
hook	-2611
rust	-2612
ummy	-2613
yaml	-2614
▁Key	-2615
Block	-2616
split	-2617
handle	-2618
script	-2619
▁pixels	-2620
▁handler	-2621
▁synonym	-2622
▁working	-2623
ification	-2624
▁additional	-2625
HistoryBuilder	-2626
GTH	-2627
Out	-2628
ryp	-2629
▁'[	-2630
▁11	-2631
▁Co	-2632
Zone	-2633
cate	-2634
less	-2635
rary	-2636
true	-2637
▁eml	-2638
▁enc	-2639
▁was	-2640
Empty	-2641
▁Node	-2642
▁exec	-2643
LENGTH	-2644
mplete	-2645
▁setUp	-2646
▁binary	-2647
▁branch	-2648
rollment	-2649
vailable	-2650
▁display	-2651
▁Response	-2652
▁constraints	-2653
Col	-2654
Man	-2655
ero	-2656
▁Un	-2657
Auth	-2658
ular	-2659
ving	-2660
▁seg	-2661
usive	-2662
▁full	-2663
python	-2664
source	-2665
▁peaks	-2666
timeout	-2667
▁Raises	-2668
▁pieces	-2669
variance	-2670
▁trigger	-2671
▁tearDown	-2672
AD	-2673
FI	-2674
mt	-2675
Tri	-2676
alk	-2677
bit	-2678
deg	-2679
▁pd	-2680
▁1:3	-2681
▁idx	-2682
▁reg	-2683
▁high	-2684
inline	-2685
▁clust	-2686
KEYWORD	-2687
average	-2688
factory	-2689
▁Create	-2690
callback	-2691
expected	-2692
▁seconds	-2693
▁TestLines	-2694
▁variables	-2695
▁validation	-2696
▁description	-2697
cpu	-2698
env	-2699
▁cr	-2700
▁df	-2701
▁go	-2702
▁gp	-2703
HIST	-2704
▁2.0	-2705
▁dms	-2706
▁may	-2707
▁tar	-2708
PRESS	-2709
dicts	-2710
tical	-2711
trees	-2712
words	-2713
SITION	-2714
ofweek	-2715
▁notes	-2716
HISTORY	-2717
archive	-2718
subject	-2719
▁access	-2720
SITIONAL	-2721
▁numbers	-2722
▁dayofweek	-2723
▁extension	-2724
▁trimlength	-2725
06	-2726
17	-2727
5'	-2728
▁fn	-2729
cted	-2730
ince	-2731
site	-2732
▁dig	-2733
Embed	-2734
Split	-2735
▁fail	-2736
▁like	-2737
▁they	-2738
append	-2739
nected	-2740
wrappers	-2741
▁otherwise	-2742
sa	-2743
sd	-2744
KCS	-2745
pod	-2746
uer	-2747
▁pq	-2748
duct	-2749
icro	-2750
lops	-2751
mock	-2752
▁120	-2753
Cache	-2754
chiba	-2755
▁buil	-2756
▁move	-2757
BlockF	-2758
onents	-2759
orient	-2760
payoff	-2761
quanti	-2762
▁appro	-2763
▁datat	-2764
▁neigh	-2765
▁stand	-2766
▁integer	-2767
namespace	-2768
scription	-2769
▁iterable	-2770
▁available	-2771
ECT	-2772
PAR	-2773
▁On	-2774
▁dm	-2775
Does	-2776
nown	-2777
okup	-2778
pair	-2779
stop	-2780
▁API	-2781
riter	-2782
sched	-2783
solve	-2784
three	-2785
Return	-2786
Server	-2787
marker	-2788
quency	-2789
stream	-2790
▁space	-2791
baseline	-2792
▁wrapper	-2793
directory	-2794
▁findPathwaysBy	-2795
Hu	-2796
CON	-2797
IME	-2798
las	-2799
net	-2800
▁-=	-2801
PORT	-2802
heit	-2803
hren	-2804
tity	-2805
vial	-2806
▁put	-2807
▁rst	-2808
forge	-2809
Stream	-2810
▁final	-2811
▁author	-2812
creation	-2813
hrenheit	-2814
▁encoded	-2815
3_	-2816
aa	-2817
pn	-2818
cut	-2819
fra	-2820
▁sm	-2821
Huge	-2822
Numb	-2823
Plus	-2824
ffix	-2825
prnr	-2826
sius	-2827
Blank	-2828
NotDe	-2829
basic	-2830
demux	-2831
scale	-2832
▁bcid	-2833
Blanks	-2834
sitive	-2835
▁epoch	-2836
CheckCo	-2837
ForTest	-2838
Trivial	-2839
counter	-2840
▁latest	-2841
ForSplit	-2842
LineTest	-2843
contents	-2844
schedule	-2845
▁release	-2846
▁unicode	-2847
HugeLines	-2848
▁CheckFor	-2849
BlankLines	-2850
CheckClass	-2851
CheckEmpty	-2852
PlusBlanks	-2853
WithBlockF	-2854
WithNoLint	-2855
terminable	-2856
▁multiples	-2857
CheckComplex	-2858
CheckTrivial	-2859
NotDeterminable	-2860
ForSplitLineTest	-2861
US	-2862
}/	-2863
gex	-2864
sho	-2865
ssl	-2866
umi	-2867
▁ow	-2868
dout	-2869
ived	-2870
▁'.'	-2871
▁cmd	-2872
store	-2873
▁Note	-2874
▁book	-2875
▁fake	-2876
▁heap	-2877
▁java	-2878
▁nore	-2879
▁await	-2880
▁round	-2881
olution	-2882
password	-2883
▁noreply	-2884
timestamp	-2885
▁existing	-2886
▁arguments	-2887
As	-2888
LM	-2889
00'	-2890
201	-2891
Fat	-2892
ntB	-2893
tal	-2894
▁'0	-2895
aded	-2896
ject	-2897
plot	-2898
repo	-2899
▁0.5	-2900
▁dmx	-2901
▁inf	-2902
▁txt	-2903
Query	-2904
aller	-2905
color	-2906
▁attr	-2907
ForBad	-2908
called	-2909
dedNoL	-2910
raises	-2911
rusted	-2912
▁books	-2913
▁break	-2914
▁login	-2915
DoesntB	-2916
unicode	-2917
▁Number	-2918
▁Report	-2919
▁images	-2920
▁models	-2921
TestBase	-2922
▁Cpplint	-2923
▁TinyFat	-2924
▁certsrv	-2925
WithEmbed	-2926
ForBadTest	-2927
dedNoLints	-2928
▁parametri	-2929
DoesntBreak	-2930
WithNoLints	-2931
▁ontologyTerm	-2932
WithBlankLines	-2933
▁datastructure	-2934
▁CpplintTestBase	-2935
!'	-2936
49	-2937
REF	-2938
SON	-2939
hes	-2940
▁50	-2941
bour	-2942
left	-2943
lore	-2944
okie	-2945
pack	-2946
stit	-2947
Token	-2948
asked	-2949
empty	-2950
gener	-2951
▁File	-2952
▁bias	-2953
▁card	-2954
▁recv	-2955
▁skip	-2956
Parser	-2957
common	-2958
lative	-2959
normal	-2960
▁batch	-2961
etadata	-2962
▁assign	-2963
▁helper	-2964
▁Callable	-2965
▁namedtuple	-2966
▁observation	-2967
88	-2968
LO	-2969
gen	-2970
▁'1	-2971
▁ph	-2972
Node	-2973
ates	-2974
atic	-2975
grid	-2976
▁NaN	-2977
▁dry	-2978
▁rect	-2979
binary	-2980
epochs	-2981
▁imple	-2982
latform	-2983
▁Python	-2984
▁parser	-2985
▁radius	-2986
pherical	-2987
▁datastr	-2988
▁whether	-2989
▁COMPRESS	-2990
▁filepath	-2991
validation	-2992
istribution	-2993
▁interaction	-2994
▁parametrize	-2995
▁revisionNumb	-2996
46	-2997
GE	-2998
IO	-2999
PS	-3000
dc	-3001
eg	-3002
API	-3003
arg	-3004
sem	-3005
▁'<	-3006
▁21	-3007
rack	-3008
▁cre	-3009
cessi	-3010
found	-3011
tence	-3012
▁Only	-3013
mented	-3014
▁total	-3015
address	-3016
▁middle	-3017
▁Default	-3018
])	-3019
CRE	-3020
DIR	-3021
git	-3022
oth	-3023
upy	-3024
▁1.	-3025
▁gc	-3026
etch	-3027
twork	-3028
▁expi	-3029
▁iter	-3030
issing	-3031
locale	-3032
semble	-3033
upyter	-3034
▁angle	-3035
▁merge	-3036
Version	-3037
▁reason	-3038
Instance	-3039
▁updated	-3040
dimension	-3041
▁packageName	-3042
az	-3043
sr	-3044
EXT	-3045
FIL	-3046
has	-3047
pub	-3048
rec	-3049
▁'_	-3050
used	-3051
vars	-3052
▁arr	-3053
▁csv	-3054
▁how	-3055
Table	-3056
Value	-3057
andid	-3058
bound	-3059
moves	-3060
realm	-3061
slope	-3062
stats	-3063
▁dief	-3064
▁mean	-3065
▁step	-3066
▁tail	-3067
System	-3068
detail	-3069
quires	-3070
▁arange	-3071
▁savepath	-3072
▁warnings	-3073
positional	-3074
credentials	-3075
31	-3076
Ar	-3077
sis	-3078
▁24	-3079
▁Po	-3080
▁tz	-3081
Code	-3082
crip	-3083
lict	-3084
spec	-3085
▁deg	-3086
▁fit	-3087
▁row	-3088
▁src	-3089
round	-3090
▁Dpkg	-3091
▁cast	-3092
▁cond	-3093
▁most	-3094
▁stop	-3095
counts	-3096
degree	-3097
ometry	-3098
series	-3099
▁fname	-3100
▁parts	-3101
jupyter	-3102
▁action	-3103
▁volume	-3104
connection	-3105
▁precision	-3106
Run	-3107
pha	-3108
GGER	-3109
fail	-3110
inim	-3111
ling	-3112
mean	-3113
resh	-3114
▁Rec	-3115
▁ext	-3116
▁squ	-3117
After	-3118
▁JSON	-3119
▁show	-3120
active	-3121
ending	-3122
▁based	-3123
▁clean	-3124
▁white	-3125
Service	-3126
▁Verify	-3127
▁record	-3128
Reference	-3129
functions	-3130
thumbnail	-3131
▁beginning	-3132
02	-3133
5,	-3134
IF	-3135
NC	-3136
hn	-3137
Str	-3138
sum	-3139
umn	-3140
alog	-3141
lear	-3142
mary	-3143
ured	-3144
▁ctx	-3145
▁doy	-3146
▁too	-3147
▁who	-3148
bours	-3149
loads	-3150
mooth	-3151
patch	-3152
▁Name	-3153
▁plan	-3154
Status	-3155
offset	-3156
proper	-3157
▁before	-3158
▁direct	-3159
▁inputs	-3160
equality	-3161
▁geohash	-3162
▁customer	-3163
▁generated	-3164
▁coordinate	-3165
-%	-3166
:%	-3167
:'	-3168
VAL	-3169
_1_	-3170
css	-3171
ian	-3172
▁dt	-3173
▁sw	-3174
▁{}	-3175
gate	-3176
mium	-3177
▁Pro	-3178
▁sys	-3179
Frame	-3180
sired	-3181
▁serv	-3182
▁true	-3183
scores	-3184
▁weeks	-3185
crement	-3186
reverse	-3187
▁LOGGER	-3188
▁trials	-3189
NotFound	-3190
▁premium	-3191
▁recursive	-3192
▁individual	-3193
.9	-3194
sw	-3195
adj	-3196
dim	-3197
gps	-3198
▁CR	-3199
▁ID	-3200
▁\\	-3201
RICT	-3202
band	-3203
tran	-3204
unit	-3205
▁WWW	-3206
▁mne	-3207
▁wsr	-3208
acing	-3209
forms	-3210
recur	-3211
Bright	-3212
Client	-3213
STRICT	-3214
Socket	-3215
curity	-3216
▁users	-3217
ability	-3218
andings	-3219
ination	-3220
▁locale	-3221
Generate	-3222
precated	-3223
▁augment	-3224
▁desired	-3225
▁discards	-3226
▁iterator	-3227
▁inclusive	-3228
▁spherical	-3229
cessibility	-3230
▁Dictionary	-3231
▁constraint	-3232
cr	-3233
etc	-3234
ily	-3235
oad	-3236
the	-3237
▁32	-3238
Text	-3239
high	-3240
peak	-3241
save	-3242
walk	-3243
▁Col	-3244
▁low	-3245
▁mar	-3246
ensor	-3247
paths	-3248
▁Base	-3249
▁kind	-3250
REFUND	-3251
extend	-3252
lasses	-3253
tested	-3254
verter	-3255
Returns	-3256
initial	-3257
quality	-3258
umerate	-3259
▁indent	-3260
optional	-3261
tributes	-3262
▁possible	-3263
3.	-3264
Fa	-3265
fg	-3266
bot	-3267
cts	-3268
ift	-3269
phi	-3270
rel	-3271
▁At	-3272
▁By	-3273
OCKS	-3274
parm	-3275
▁'\\	-3276
▁rev	-3277
clude	-3278
licit	-3279
plied	-3280
tocol	-3281
venth	-3282
vious	-3283
▁hour	-3284
▁oral	-3285
buffer	-3286
lambda	-3287
listed	-3288
lookup	-3289
▁energ	-3290
keyword	-3291
▁mapping	-3292
transform	-3293
pplication	-3294
▁enumerate	-3295
dimensional	-3296
▁definition	-3297
1:	-3298
LE	-3299
QU	-3300
WS	-3301
_7	-3302
bb	-3303
':'	-3304
...	-3305
ASN	-3306
bds	-3307
msg	-3308
ton	-3309
ugh	-3310
Chan	-3311
done	-3312
five	-3313
heat	-3314
orts	-3315
▁Cha	-3316
▁buf	-3317
▁pop	-3318
known	-3319
▁PKCS	-3320
charge	-3321
urrent	-3322
▁clear	-3323
▁uuids	-3324
hamming	-3325
ndarray	-3326
▁detect	-3327
▁energy	-3328
▁modifi	-3329
▁tmpdir	-3330
notAfter	-3331
rosswalk	-3332
▁counter	-3333
▁ignores	-3334
▁minutes	-3335
▁polygon	-3336
▁relative	-3337
Annotation	-3338
tification	-3339
▁rectangle	-3340
▁population	-3341
▁Distribution	-3342
ags	-3343
bio	-3344
lon	-3345
nan	-3346
ook	-3347
png	-3348
xts	-3349
bout	-3350
ring	-3351
stru	-3352
trol	-3353
▁'0'	-3354
▁acc	-3355
▁err	-3356
▁lay	-3357
Trans	-3358
erent	-3359
folds	-3360
raise	-3361
white	-3362
▁flag	-3363
▁util	-3364
Pixels	-3365
bright	-3366
ddress	-3367
kwargs	-3368
▁cprnr	-3369
▁micro	-3370
Manager	-3371
seventh	-3372
andidate	-3373
▁produce	-3374
▁decimate	-3375
▁describe	-3376
▁standard	-3377
▁generator	-3378
▁COMPRESSION	-3379
▁countPixels	-3380
++	-3381
45	-3382
86	-3383
ES	-3384
rm	-3385
ins	-3386
▁TF	-3387
bool	-3388
odel	-3389
▁URI	-3390
▁wor	-3391
ctive	-3392
pairs	-3393
sible	-3394
spect	-3395
yrdoy	-3396
▁Path	-3397
▁uuid	-3398
Before	-3399
DictBy	-3400
Result	-3401
ircuit	-3402
latten	-3403
triple	-3404
▁basic	-3405
▁player	-3406
▁cluster	-3407
▁decrypt	-3408
distances	-3409
attachment	-3410
covariance	-3411
▁properties	-3412
▁observations	-3413
"'	-3414
1/	-3415
85	-3416
If	-3417
LY	-3418
ML	-3419
[0	-3420
bc	-3421
``,	-3422
tak	-3423
▁36	-3424
▁Or	-3425
▁ke	-3426
Hand	-3427
frec	-3428
iles	-3429
join	-3430
▁box	-3431
▁lib	-3432
▁lin	-3433
▁men	-3434
Field	-3435
asite	-3436
itize	-3437
riend	-3438
tfrec	-3439
▁been	-3440
▁drop	-3441
▁writ	-3442
Logger	-3443
Python	-3444
String	-3445
takura	-3446
▁alias	-3447
▁edges	-3448
▁force	-3449
▁units	-3450
balance	-3451
element	-3452
strings	-3453
▁determ	-3454
▁respon	-3455
▁socket	-3456
normalize	-3457
▁eventual	-3458
▁markdown	-3459
▁received	-3460
▁requires	-3461
▁Exception	-3462
▁attribute	-3463
▁characters	-3464
▁measurement	-3465
".	-3466
89	-3467
La	-3468
eq	-3469
xx	-3470
▁'@	-3471
▁2.	-3472
▁op	-3473
Mock	-3474
icks	-3475
mbol	-3476
meta	-3477
uler	-3478
ures	-3479
▁0.1	-3480
▁PEM	-3481
acent	-3482
ccorr	-3483
cepts	-3484
lipse	-3485
▁ints	-3486
▁them	-3487
cancel	-3488
pickle	-3489
▁about	-3490
▁there	-3491
▁yrdoy	-3492
package	-3493
▁arrays	-3494
▁errors	-3495
▁square	-3496
▁unique	-3497
comments	-3498
elliptic	-3499
▁centers	-3500
container	-3501
notBefore	-3502
▁KeyError	-3503
▁defaults	-3504
▁supplied	-3505
enrollment	-3506
▁character	-3507
▁getDictBy	-3508
▁POSITIONAL	-3509
▁destination	-3510
-9	-3511
OTO	-3512
RES	-3513
mem	-3514
oks	-3515
pat	-3516
▁UT	-3517
glob	-3518
here	-3519
imal	-3520
isit	-3521
math	-3522
oice	-3523
prom	-3524
ways	-3525
▁Vec	-3526
▁ato	-3527
▁bst	-3528
train	-3529
▁Moto	-3530
▁arch	-3531
▁down	-3532
▁just	-3533
▁real	-3534
Marker	-3535
▁owner	-3536
metrics	-3537
▁static	-3538
PBuilder	-3539
fraction	-3540
imported	-3541
register	-3542
▁missing	-3543
▁present	-3544
▁success	-3545
▁--------	-3546
▁geometry	-3547
DmsBuilder	-3548
SmsBuilder	-3549
▁Recurrent	-3550
▁algorithm	-3551
▁recurrent	-3552
▁neighbours	-3553
▁preprocess	-3554
▁environment	-3555
'}	-3556
dl	-3557
IFY	-3558
UTC	-3559
cli	-3560
ful	-3561
▁',	-3562
▁3.	-3563
▁Md	-3564
▁oc	-3565
ilar	-3566
uuid	-3567
child	-3568
draft	-3569
noise	-3570
VERIFY	-3571
paired	-3572
ported	-3573
racker	-3574
random	-3575
▁delta	-3576
▁milli	-3577
Warning	-3578
▁matrix	-3579
complete	-3580
▁MdUtils	-3581
▁updates	-3582
▁callable	-3583
Collection	-3584
▁normalize	-3585
▁SmsBuilder	-3586
▁deprecated	-3587
OntologyTerm	-3588
▁milliseconds	-3589
39	-3590
4'	-3591
87	-3592
BJ	-3593
]+	-3594
mut	-3595
pem	-3596
tio	-3597
▁17	-3598
▁fs	-3599
INIT	-3600
MOTO	-3601
Note	-3602
blem	-3603
moto	-3604
ride	-3605
same	-3606
ster	-3607
▁Per	-3608
▁Web	-3609
▁fol	-3610
acket	-3611
amily	-3612
dered	-3613
▁moto	-3614
ronjob	-3615
window	-3616
▁TFRec	-3617
▁hours	-3618
▁years	-3619
Invalid	-3620
ocation	-3621
refunds	-3622
▁counts	-3623
paramref	-3624
requests	-3625
▁compare	-3626
▁defined	-3627
▁encrypt	-3628
exception	-3629
tfrecords	-3630
▁filetype	-3631
Authenticate	-3632
▁barcodelength	-3633
▁randomerlength	-3634
MA	-3635
SI	-3636
UE	-3637
rg	-3638
Cha	-3639
ecs	-3640
occ	-3641
{}'	-3642
▁bp	-3643
FILE	-3644
agic	-3645
bine	-3646
moid	-3647
msBy	-3648
orch	-3649
▁abs	-3650
▁mem	-3651
▁six	-3652
State	-3653
abled	-3654
batch	-3655
coder	-3656
epoch	-3657
ithub	-3658
ssure	-3659
▁ever	-3660
▁memb	-3661
▁resp	-3662
Output	-3663
ergast	-3664
metric	-3665
pubkey	-3666
solute	-3667
synony	-3668
▁Index	-3669
▁fetch	-3670
▁picks	-3671
▁shift	-3672
columns	-3673
control	-3674
mdutils	-3675
reshold	-3676
▁ChaCha	-3677
▁detail	-3678
▁notify	-3679
▁obtain	-3680
▁struct	-3681
agicMock	-3682
location	-3683
quantile	-3684
▁testing	-3685
interface	-3686
OntologyTer	-3687
CurationTags	-3688
▁responsible	-3689
▁microseconds	-3690
▁representing	-3691
OntologyTermsBy	-3692
'"	-3693
2_	-3694
5_	-3695
01'	-3696
ZIP	-3697
hub	-3698
koe	-3699
rac	-3700
scr	-3701
▁30	-3702
▁vi	-3703
Date	-3704
aran	-3705
cost	-3706
exon	-3707
logs	-3708
nels	-3709
tags	-3710
velo	-3711
▁Foo	-3712
▁PIL	-3713
▁cap	-3714
▁ite	-3715
dummy	-3716
ocial	-3717
style	-3718
types	-3719
▁yaml	-3720
issuer	-3721
readth	-3722
▁leave	-3723
▁mount	-3724
▁occur	-3725
▁sakoe	-3726
▁setup	-3727
▁offset	-3728
▁option	-3729
▁scores	-3730
selector	-3731
▁bdsweek	-3732
▁gpsweek	-3733
▁invalid	-3734
▁outfile	-3735
▁section	-3736
components	-3737
webservice	-3738
CurationTag	-3739
2,	-3740
RO	-3741
au	-3742
np	-3743
rt	-3744
▁&	-3745
100	-3746
Obj	-3747
edu	-3748
iod	-3749
nni	-3750
rev	-3751
tax	-3752
▁14	-3753
▁No	-3754
ONLY	-3755
TEXT	-3756
cept	-3757
mark	-3758
ount	-3759
▁sql	-3760
cases	-3761
chain	-3762
taxon	-3763
usion	-3764
▁conn	-3765
▁crps	-3766
▁pkcs	-3767
▁take	-3768
opener	-3769
parent	-3770
rowser	-3771
▁added	-3772
▁layer	-3773
▁realm	-3774
▁scope	-3775
Changes	-3776
ational	-3777
ignores	-3778
riendly	-3779
storage	-3780
▁builds	-3781
▁metric	-3782
▁stored	-3783
database	-3784
datetime	-3785
document	-3786
▁archive	-3787
▁boolean	-3788
▁decimal	-3789
▁execute	-3790
▁itakura	-3791
▁samples	-3792
▁Pubtator	-3793
▁connected	-3794
▁corresponds	-3795
16	-3796
27	-3797
93	-3798
nn	-3799
ru	-3800
ENT	-3801
dia	-3802
sla	-3803
▁27	-3804
▁Ma	-3805
▁tp	-3806
Mask	-3807
copy	-3808
pend	-3809
▁est	-3810
▁gra	-3811
▁neg	-3812
VALUE	-3813
clust	-3814
setup	-3815
▁POST	-3816
▁User	-3817
ground	-3818
▁above	-3819
▁guest	-3820
▁trees	-3821
Message	-3822
▁stdout	-3823
▁thread	-3824
▁revoked	-3825
▁training	-3826
▁namespace	-3827
description	-3828
temperature	-3829
▁getPathwaysBy	-3830
▁ontologyTermId	-3831
▁getCurationTags	-3832
1-	-3833
5.	-3834
PA	-3835
UM	-3836
asn	-3837
buf	-3838
cmp	-3839
fit	-3840
hen	-3841
tld	-3842
▁Ch	-3843
▁fg	-3844
▁li	-3845
come	-3846
home	-3847
olar	-3848
some	-3849
tome	-3850
view	-3851
▁---	-3852
▁VAR	-3853
▁aut	-3854
Count	-3855
ority	-3856
pedia	-3857
stack	-3858
▁help	-3859
▁html	-3860
lision	-3861
orking	-3862
▁codes	-3863
▁loads	-3864
triplex	-3865
platform	-3866
wikipedia	-3867
▁datatype	-3868
resolution	-3869
▁databases	-3870
▁formatted	-3871
▁inputtrace	-3872
GN	-3873
HE	-3874
PO	-3875
▁Q	-3876
mer	-3877
pol	-3878
▁33	-3879
▁wo	-3880
days	-3881
rows	-3882
▁'1'	-3883
andas	-3884
block	-3885
depen	-3886
learn	-3887
rypto	-3888
ssary	-3889
▁exon	-3890
▁gpml	-3891
▁want	-3892
alysis	-3893
arante	-3894
tivate	-3895
▁board	-3896
▁chrom	-3897
▁paths	-3898
▁pconf	-3899
▁would	-3900
Browser	-3901
▁cannot	-3902
▁unpack	-3903
alphabet	-3904
▁Version	-3905
▁dirname	-3906
▁enforce	-3907
▁finally	-3908
▁httplib	-3909
▁inspect	-3910
sionlimit	-3911
▁StringIO	-3912
▁alphabet	-3913
▁mentions	-3914
▁separate	-3915
transformed	-3916
▁barcodeseq	-3917
▁temperature	-3918
▁staticmethod	-3919
▁averageBright	-3920
22	-3921
7_	-3922
DIT	-3923
FOR	-3924
TER	-3925
cor	-3926
eri	-3927
'``.	-3928
CHAR	-3929
acer	-3930
adcs	-3931
alle	-3932
auto	-3933
flow	-3934
heap	-3935
onex	-3936
plan	-3937
send	-3938
stor	-3939
tate	-3940
▁dum	-3941
▁way	-3942
Basic	-3943
rough	-3944
users	-3945
▁conv	-3946
▁need	-3947
direct	-3948
github	-3949
prefer	-3950
▁indic	-3951
▁tsvio	-3952
▁upper	-3953
ganisms	-3954
hnccorr	-3955
present	-3956
▁dumped	-3957
▁select	-3958
revision	-3959
▁fastaio	-3960
▁network	-3961
InBrowser	-3962
increment	-3963
▁adjacent	-3964
▁inputtest	-3965
▁fahrenheit	-3966
PathwayInBrowser	-3967
))	-3968
05	-3969
96	-3970
GI	-3971
Ps	-3972
SD	-3973
200	-3974
Hel	-3975
OTE	-3976
ima	-3977
sig	-3978
tsn	-3979
▁2,	-3980
▁na	-3981
Card	-3982
eros	-3983
lank	-3984
vely	-3985
▁Run	-3986
▁exc	-3987
▁pem	-3988
▁sff	-3989
▁ssl	-3990
.0000	-3991
BJECT	-3992
caten	-3993
eries	-3994
named	-3995
omial	-3996
place	-3997
▁CRPS	-3998
▁Pure	-3999
▁Spec	-4000
▁math	-4001
▁super	-4002
dentifi	-4003
▁handle	-4004
criptome	-4005
stituted	-4006
▁Setting	-4007
▁discard	-4008
▁environ	-4009
▁parsing	-4010
▁project	-4011
▁storage	-4012
resources	-4013
▁Iterable	-4014
▁destined	-4015
▁gpmlCode	-4016
▁imported	-4017
Coordinate	-4018
▁MagicMock	-4019
▁Reference	-4020
▁different	-4021
▁specifies	-4022
attachments	-4023
▁performing	-4024
▁substituted	-4025
ReferenceSystem	-4026
28	-4027
56	-4028
af	-4029
cp	-4030
SSL	-4031
VOL	-4032
ccc	-4033
cii	-4034
lug	-4035
non	-4036
ula	-4037
▁13	-4038
▁sz	-4039
TIME	-4040
TTER	-4041
ball	-4042
lfor	-4043
limi	-4044
lots	-4045
wrap	-4046
▁180	-4047
▁let	-4048
▁sha	-4049
aster	-4050
aware	-4051
mtime	-4052
odies	-4053
▁TEST	-4054
▁chec	-4055
▁pods	-4056
cookie	-4057
hashes	-4058
ighted	-4059
master	-4060
menter	-4061
▁agent	-4062
▁torch	-4063
▁zeros	-4064
expired	-4065
lformed	-4066
mapping	-4067
polygon	-4068
▁Header	-4069
▁POTTER	-4070
▁active	-4071
▁raised	-4072
▁secret	-4073
▁window	-4074
boundary	-4075
reformat	-4076
synonyms	-4077
▁Certsrv	-4078
▁Storage	-4079
▁breadth	-4080
▁checked	-4081
▁latBand	-4082
▁targets	-4083
terminals	-4084
pairedreads	-4085
titleprefix	-4086
95	-4087
>'	-4088
aw	-4089
bf	-4090
sy	-4091
ESS	-4092
omy	-4093
tid	-4094
ube	-4095
▁1,	-4096
Poly	-4097
fore	-4098
pike	-4099
self	-4100
▁'10	-4101
▁256	-4102
▁dtw	-4103
▁eff	-4104
▁eps	-4105
▁red	-4106
ascii	-4107
idget	-4108
▁plot	-4109
▁pull	-4110
▁sche	-4111
Create	-4112
▁Using	-4113
▁flops	-4114
▁stats	-4115
▁works	-4116
▁Credit	-4117
▁Tensor	-4118
▁extend	-4119
services	-4120
▁bcfound	-4121
▁dependen	-4122
▁descript	-4123
extensions	-4124
orientation	-4125
riendlyname	-4126
")	-4127
1]	-4128
AB	-4129
Bo	-4130
CO	-4131
Pa	-4132
VP	-4133
_4	-4134
gr	-4135
lm	-4136
ATA	-4137
Lat	-4138
ets	-4139
oft	-4140
sup	-4141
▁2-	-4142
▁42	-4143
▁CA	-4144
From	-4145
cent	-4146
▁Use	-4147
▁tol	-4148
▁umi	-4149
gpswd	-4150
guest	-4151
rules	-4152
texts	-4153
tsvio	-4154
▁bits	-4155
▁peak	-4156
▁wait	-4157
Header	-4158
OBJECT	-4159
events	-4160
inimum	-4161
starts	-4162
▁Money	-4163
▁again	-4164
▁flags	-4165
▁gpswd	-4166
▁large	-4167
fastaio	-4168
ilarity	-4169
nextset	-4170
reorder	-4171
ynomial	-4172
▁combin	-4173
▁family	-4174
▁geohex	-4175
▁suffix	-4176
property	-4177
variable	-4178
▁celsius	-4179
▁recurso	-4180
▁running	-4181
frequency	-4182
generated	-4183
▁basename	-4184
▁progress	-4185
▁getLogger	-4186
▁subprocess	-4187
▁representation	-4188
83	-4189
EO	-4190
PL	-4191
fq	-4192
URL	-4193
Url	-4194
VMS	-4195
any	-4196
ien	-4197
tch	-4198
▁37	-4199
▁hy	-4200
'``:	-4201
Conf	-4202
VERS	-4203
expi	-4204
hest	-4205
leep	-4206
miss	-4207
safe	-4208
scan	-4209
▁Com	-4210
▁GEO	-4211
▁pat	-4212
▁pkg	-4213
▁sli	-4214
Model	-4215
bdswd	-4216
queue	-4217
rowth	-4218
tered	-4219
▁'./'	-4220
▁cell	-4221
▁keep	-4222
▁nece	-4223
▁norm	-4224
▁side	-4225
▁tell	-4226
▁week	-4227
ighest	-4228
option	-4229
sgroup	-4230
uments	-4231
▁Other	-4232
▁clock	-4233
▁drive	-4234
▁times	-4235
gateway	-4236
targets	-4237
▁bcdict	-4238
▁infile	-4239
▁pandas	-4240
▁period	-4241
▁season	-4242
▁Session	-4243
▁assertIn	-4244
▁comments	-4245
▁keywords	-4246
▁filenames	-4247
▁separator	-4248
Application	-4249
▁settingsgroup	-4250
2:	-4251
GS	-4252
hi	-4253
hs	-4254
wc	-4255
wl	-4256
00\	-4257
All	-4258
egg	-4259
emp	-4260
mpt	-4261
nal	-4262
rey	-4263
sha	-4264
xml	-4265
▁RE	-4266
▁fc	-4267
▁io	-4268
draw	-4269
exec	-4270
mong	-4271
norm	-4272
ntax	-4273
ocab	-4274
part	-4275
pkey	-4276
pull	-4277
sian	-4278
unch	-4279
▁Arg	-4280
▁Not	-4281
▁cfg	-4282
▁fix	-4283
VMSer	-4284
appro	-4285
board	-4286
icult	-4287
rides	-4288
▁Mock	-4289
▁glob	-4290
▁none	-4291
REPORT	-4292
assign	-4293
modify	-4294
outube	-4295
parsed	-4296
player	-4297
reason	-4298
refund	-4299
▁being	-4300
▁moves	-4301
▁third	-4302
Streams	-4303
product	-4304
▁allows	-4305
▁events	-4306
▁python	-4307
▁urllib	-4308
▁userip	-4309
▁within	-4310
▁writer	-4311
▁1000000	-4312
▁hasattr	-4313
▁isValid	-4314
positions	-4315
▁interval	-4316
Connection	-4317
annotation	-4318
barcodeseq	-4319
initialize	-4320
▁preferred	-4321
configuration	-4322
SB	-4323
sq	-4324
alt	-4325
oci	-4326
▁//	-4327
▁SM	-4328
Comp	-4329
LOPs	-4330
Port	-4331
Read	-4332
Spec	-4333
WSGI	-4334
chun	-4335
cies	-4336
fact	-4337
ious	-4338
▁csr	-4339
▁cwl	-4340
▁edu	-4341
▁fmt	-4342
▁mac	-4343
after	-4344
circu	-4345
uuids	-4346
▁1:36	-4347
▁Open	-4348
▁Pass	-4349
▁your	-4350
Format	-4351
domain	-4352
maxima	-4353
policy	-4354
unique	-4355
▁recon	-4356
allback	-4357
dataset	-4358
getattr	-4359
lisions	-4360
numbers	-4361
payment	-4362
▁approx	-4363
Conflict	-4364
Metadata	-4365
approach	-4366
getstate	-4367
▁Contain	-4368
▁Convert	-4369
▁disable	-4370
▁expired	-4371
▁getattr	-4372
▁without	-4373
▁concaten	-4374
▁messages	-4375
▁sentence	-4376
barcodeida	-4377
barcodeidb	-4378
▁dependent	-4379
▁necessary	-4380
▁segmenter	-4381
▁selection	-4382
LengthCache	-4383
demuxfilename	-4384
▁getDictByUrl	-4385
▁VersionConflict	-4386
19	-4387
6'	-4388
UP	-4389
GIC	-4390
The	-4391
ade	-4392
car	-4393
cmd	-4394
obs	-4395
rgb	-4396
▁'+	-4397
▁IN	-4398
▁UN	-4399
▁ap	-4400
▁tf	-4401
1305	-4402
This	-4403
Time	-4404
akoe	-4405
buil	-4406
imum	-4407
inst	-4408
isco	-4409
lice	-4410
lush	-4411
prov	-4412
scal	-4413
uter	-4414
voke	-4415
▁nor	-4416
▁saf	-4417
annot	-4418
fetch	-4419
hould	-4420
ocker	-4421
seeds	-4422
sumer	-4423
▁When	-4424
▁band	-4425
▁cols	-4426
▁many	-4427
▁part	-4428
▁samp	-4429
▁sqrt	-4430
Regist	-4431
choice	-4432
failed	-4433
iculty	-4434
loaded	-4435
resses	-4436
sample	-4437
stride	-4438
▁10000	-4439
▁arbit	-4440
▁cards	-4441
▁issue	-4442
▁rules	-4443
Handler	-4444
correct	-4445
holdout	-4446
payload	-4447
▁nuheat	-4448
▁recent	-4449
▁refund	-4450
▁symbol	-4451
Validate	-4452
handover	-4453
▁Working	-4454
edgecases	-4455
signature	-4456
▁pubtator	-4457
▁segments	-4458
▁specific	-4459
▁arbitrary	-4460
annotations	-4461
▁WorkingSet	-4462
distribution	-4463
▁assignbarcode	-4464
']	-4465
("	-4466
(?	-4467
71	-4468
==	-4469
So	-4470
{}	-4471
ACT	-4472
INT	-4473
bet	-4474
del	-4475
lfa	-4476
mes	-4477
nce	-4478
▁As	-4479
▁us	-4480
game	-4481
gory	-4482
note	-4483
peed	-4484
step	-4485
swit	-4486
▁dim	-4487
▁inv	-4488
▁mut	-4489
▁sdk	-4490
▁spa	-4491
▁wel	-4492
SOCKS	-4493
Users	-4494
imate	-4495
isson	-4496
login	-4497
▁chun	-4498
▁subs	-4499
▁task	-4500
Packet	-4501
acerts	-4502
change	-4503
limits	-4504
ritems	-4505
riteri	-4506
uation	-4507
urence	-4508
▁bcida	-4509
▁bcidb	-4510
▁visit	-4511
Dataset	-4512
Verbose	-4513
include	-4514
listdir	-4515
pattern	-4516
▁Stream	-4517
▁addict	-4518
▁credit	-4519
▁crypto	-4520
▁failed	-4521
▁routes	-4522
▁scaled	-4523
clusters	-4524
▁Perform	-4525
▁details	-4526
▁fileobj	-4527
▁invoked	-4528
▁trusted	-4529
preferred	-4530
▁safename	-4531
▁stoptime	-4532
▁distances	-4533
▁iteritems	-4534
▁polyasite	-4535
▁starttime	-4536
▁descriptor	-4537
VerboseLevel	-4538
▁cwlhandover	-4539
▁barcodesfile	-4540
▁readsequence	-4541
/.	-4542
2-	-4543
80	-4544
?'	-4545
XY	-4546
pg	-4547
0-9	-4548
ALL	-4549
GGG	-4550
Jan	-4551
Max	-4552
Sec	-4553
URI	-4554
_2_	-4555
cas	-4556
crl	-4557
cwd	-4558
ght	-4559
▁my	-4560
rand	-4561
task	-4562
tigu	-4563
wsse	-4564
▁','	-4565
▁3.0	-4566
▁500	-4567
▁bad	-4568
▁fut	-4569
▁iso	-4570
▁mak	-4571
▁pix	-4572
▁pol	-4573
Input	-4574
Parse	-4575
apter	-4576
ecase	-4577
ector	-4578
ilter	-4579
imple	-4580
osome	-4581
proto	-4582
tasks	-4583
▁Zone	-4584
Search	-4585
astion	-4586
cepted	-4587
cestor	-4588
growth	-4589
helper	-4590
▁GEOIP	-4591
▁bdswd	-4592
▁black	-4593
▁demux	-4594
▁recei	-4595
invalid	-4596
maining	-4597
missing	-4598
tiguous	-4599
▁Format	-4600
▁associ	-4601
▁derive	-4602
▁payoff	-4603
▁pickle	-4604
▁smooth	-4605
irectory	-4606
reyscale	-4607
▁Ordered	-4608
▁indices	-4609
▁volumes	-4610
Extension	-4611
struction	-4612
▁Examples	-4613
▁previous	-4614
▁determine	-4615
▁performed	-4616
▁textUtils	-4617
environment	-4618
▁FParameter	-4619
▁chromosome	-4620
▁ciphertext	-4621
▁implemented	-4622
▁orientation	-4623
23	-4624
61	-4625
Me	-4626
XX	-4627
fc	-4628
gt	-4629
FIG	-4630
OLD	-4631
SIZ	-4632
Var	-4633
dig	-4634
gic	-4635
iet	-4636
sdk	-4637
tol	-4638
▁dd	-4639
▁xy	-4640
1.20	-4641
Load	-4642
byte	-4643
fqgz	-4644
lags	-4645
ntlm	-4646
ping	-4647
subs	-4648
tool	-4649
▁255	-4650
▁Dec	-4651
▁EVP	-4652
▁aug	-4653
▁fre	-4654
▁mis	-4655
▁tsn	-4656
Group	-4657
chine	-4658
lause	-4659
vices	-4660
▁0.00	-4661
▁game	-4662
▁repo	-4663
Epochs	-4664
Parent	-4665
define	-4666
rypted	-4667
stract	-4668
tempts	-4669
wrapup	-4670
▁MAGIC	-4671
▁tests	-4672
▁topic	-4673
DEFAULT	-4674
Feature	-4675
demuxed	-4676
fastqgz	-4677
openssl	-4678
resolve	-4679
unnamed	-4680
▁cursor	-4681
▁gmtime	-4682
▁native	-4683
concepts	-4684
consumer	-4685
elements	-4686
illiards	-4687
relation	-4688
▁certain	-4689
▁circuit	-4690
▁criteri	-4691
▁derived	-4692
▁expires	-4693
▁flatten	-4694
▁matches	-4695
ForPython	-4696
dentifier	-4697
standings	-4698
untrusted	-4699
▁children	-4700
▁ensemble	-4701
▁obtained	-4702
MarkerType	-4703
ationality	-4704
demuxdicts	-4705
muxeddicts	-4706
▁condition	-4707
▁paragraph	-4708
▁scheduled	-4709
Interaction	-4710
demuxeddicts	-4711
demuxedfiles	-4712
segmentation	-4713
▁metricsfile	-4714
▁targetIndex	-4715
accessibility	-4716
▁demuxeddicts	-4717
2)	-4718
63	-4719
At	-4720
DD	-4721
VO	-4722
].	-4723
oy	-4724
Bit	-4725
ENS	-4726
Gra	-4727
New	-4728
OUT	-4729
Pri	-4730
inf	-4731
▁fe	-4732
▁vm	-4733
RELA	-4734
ange	-4735
bber	-4736
derr	-4737
izer	-4738
leaf	-4739
lied	-4740
medi	-4741
opts	-4742
urse	-4743
vile	-4744
▁'{0	-4745
▁'{}	-4746
▁cat	-4747
▁fig	-4748
▁net	-4749
alyze	-4750
flops	-4751
lower	-4752
ports	-4753
▁0.04	-4754
▁Wiki	-4755
▁cate	-4756
▁ones	-4757
credit	-4758
exists	-4759
others	-4760
▁Array	-4761
▁blank	-4762
▁learn	-4763
▁lists	-4764
▁plain	-4765
▁robot	-4766
▁short	-4767
▁sleep	-4768
▁today	-4769
Connect	-4770
Grabber	-4771
classes	-4772
promote	-4773
▁bodies	-4774
▁choose	-4775
▁sender	-4776
VMServer	-4777
pubtator	-4778
▁asyncio	-4779
▁ellipse	-4780
▁explore	-4781
▁through	-4782
crosswalk	-4783
translate	-4784
▁ndarrays	-4785
▁vmServer	-4786
▁converted	-4787
▁background	-4788
▁difficulty	-4789
▁credentials	-4790
▁preterminals	-4791
authentication	-4792
▁FunctionGrabber	-4793
.3	-4794
1}	-4795
65	-4796
75	-4797
DE	-4798
DN	-4799
Li	-4800
rb	-4801
069	-4802
:0'	-4803
ake	-4804
ang	-4805
dio	-4806
ish	-4807
vie	-4808
wls	-4809
▁('	-4810
▁60	-4811
▁Al	-4812
▁Th	-4813
▁nd	-4814
SIZE	-4815
aker	-4816
▁':'	-4817
▁One	-4818
▁eid	-4819
ester	-4820
false	-4821
slash	-4822
▁core	-4823
▁scan	-4824
amount	-4825
cnonce	-4826
groups	-4827
ignore	-4828
lement	-4829
models	-4830
tesian	-4831
weight	-4832
▁alpha	-4833
▁below	-4834
▁dumps	-4835
▁slope	-4836
▁under	-4837
Segment	-4838
catalog	-4839
changed	-4840
clusion	-4841
compute	-4842
convert	-4843
ization	-4844
▁bright	-4845
▁cnonce	-4846
▁loaded	-4847
▁locate	-4848
▁marked	-4849
▁percpu	-4850
bability	-4851
messages	-4852
▁dirpath	-4853
▁formula	-4854
▁sigmoid	-4855
▁urlnorm	-4856
▁youtube	-4857
enticator	-4858
▁TFRecord	-4859
▁cachekey	-4860
▁compress	-4861
▁reaction	-4862
▁sampling	-4863
▁security	-4864
▁starting	-4865
decompress	-4866
▁Otherwise	-4867
▁addresses	-4868
▁implement	-4869
▁structure	-4870
compression	-4871
disposition	-4872
updateCache	-4873
▁extensions	-4874
▁rectangles	-4875
registration	-4876
▁sdkForPython	-4877
*'	-4878
03	-4879
CE	-4880
IS	-4881
ln	-4882
sk	-4883
zz	-4884
ASE	-4885
Int	-4886
XED	-4887
eff	-4888
jit	-4889
tin	-4890
▁Me	-4891
▁mk	-4892
Hold	-4893
OKEN	-4894
SING	-4895
amel	-4896
dirs	-4897
ocks	-4898
oken	-4899
show	-4900
ulus	-4901
▁LOG	-4902
▁Lim	-4903
▁cpu	-4904
▁gpg	-4905
▁inp	-4906
numpy	-4907
provi	-4908
relay	-4909
solar	-4910
stics	-4911
▁0.15	-4912
▁Json	-4913
▁Oper	-4914
▁eval	-4915
curves	-4916
device	-4917
icient	-4918
signed	-4919
socket	-4920
utdown	-4921
▁Gener	-4922
▁Valid	-4923
▁solar	-4924
▁whole	-4925
between	-4926
centers	-4927
ictness	-4928
manager	-4929
mission	-4930
▁listed	-4931
▁noteId	-4932
▁runner	-4933
Queryset	-4934
esterday	-4935
setstate	-4936
▁JsonObj	-4937
▁combine	-4938
▁spacing	-4939
▁Metadata	-4940
▁NoneType	-4941
▁boundary	-4942
▁datasets	-4943
▁getvalue	-4944
▁unittest	-4945
containers	-4946
processing	-4947
▁DataFrame	-4948
▁scheduler	-4949
application	-4950
▁annotation	-4951
▁brightness	-4952
▁specifying	-4953
▁TinyFatQueryset	-4954
/#	-4955
68	-4956
98	-4957
Mi	-4958
My	-4959
wr	-4960
.0.	-4961
ARD	-4962
Aug	-4963
COD	-4964
Feb	-4965
IRS	-4966
Jul	-4967
KED	-4968
May	-4969
Nov	-4970
Oct	-4971
Sep	-4972
TAR	-4973
ace	-4974
fee	-4975
geo	-4976
hed	-4977
her	-4978
idx	-4979
lux	-4980
▁Ab	-4981
▁mu	-4982
▁{"	-4983
ACGT	-4984
HTTP	-4985
Keys	-4986
Only	-4987
REVO	-4988
Tree	-4989
corr	-4990
ever	-4991
itak	-4992
sist	-4993
ynam	-4994
ynch	-4995
▁'12	-4996
▁'@'	-4997
▁-->	-4998
▁App	-4999
▁USE	-5000
▁___	-5001
▁dep	-5002
▁epo	-5003
▁iri	-5004
PAIRS	-5005
PARAM	-5006
QUOTE	-5007
fBand	-5008
stype	-5009
ticle	-5010
▁Each	-5011
▁appe	-5012
▁lcss	-5013
▁lock	-5014
▁warn	-5015
cursor	-5016
ickler	-5017
ifying	-5018
mitted	-5019
ridges	-5020
ronous	-5021
▁'\\1'	-5022
▁doesn	-5023
▁every	-5024
▁their	-5025
PARSING	-5026
RELAXED	-5027
REVOKED	-5028
account	-5029
itakura	-5030
problem	-5031
replace	-5032
▁Action	-5033
▁Remove	-5034
▁comple	-5035
▁contro	-5036
▁listen	-5037
ParseWWW	-5038
children	-5039
ensemble	-5040
packages	-5041
▁PureAPI	-5042
▁UNQUOTE	-5043
▁against	-5044
▁cronjob	-5045
▁encoder	-5046
▁inverse	-5047
▁various	-5048
LMManager	-5049
▁booksets	-5050
▁negative	-5051
▁pressure	-5052
Parameters	-5053
population	-5054
ynchronous	-5055
▁Parameter	-5056
▁groupname	-5057
▁requested	-5058
▁dimensions	-5059
▁testParseWWW	-5060
▁specification	-5061
0000000000000000	-5062
CA	-5063
MM	-5064
YY	-5065
gy	-5066
256	-5067
600	-5068
AAA	-5069
AML	-5070
Mar	-5071
Sup	-5072
bed	-5073
cel	-5074
dat	-5075
eca	-5076
ont	-5077
pad	-5078
top	-5079
xim	-5080
▁0,	-5081
▁LC	-5082
Save	-5083
axon	-5084
cart	-5085
dean	-5086
delt	-5087
ency	-5088
loso	-5089
ucli	-5090
urls	-5091
util	-5092
▁400	-5093
▁aws	-5094
▁dst	-5095
▁plt	-5096
▁pur	-5097
▁sil	-5098
ATION	-5099
ifier	-5100
slots	-5101
ssian	-5102
teral	-5103
unted	-5104
▁fill	-5105
▁memo	-5106
▁zero	-5107
CHARGE	-5108
Remove	-5109
asting	-5110
atible	-5111
ecause	-5112
errari	-5113
imulus	-5114
system	-5115
ximity	-5116
▁chain	-5117
▁cloud	-5118
▁orals	-5119
▁pairs	-5120
▁regex	-5121
▁reset	-5122
▁saved	-5123
▁slice	-5124
▁taxon	-5125
Convert	-5126
revoked	-5127
threads	-5128
viation	-5129
▁Refund	-5130
▁attach	-5131
▁domain	-5132
▁future	-5133
ectangle	-5134
guarante	-5135
mbedding	-5136
polation	-5137
uclidean	-5138
▁markers	-5139
▁offsets	-5140
▁species	-5141
algorithm	-5142
processor	-5143
▁channels	-5144
▁download	-5145
▁positive	-5146
▁directive	-5147
▁overrides	-5148
▁proximity	-5149
▁Connection	-5150
▁associated	-5151
▁OrderedDict	-5152
▁classmethod	-5153
▁collections	-5154
▁ReportService	-5155
▁transcriptome	-5156
'.	-5157
Di	-5158
FO	-5159
IV	-5160
ao	-5161
sm	-5162
AGE	-5163
Apr	-5164
Des	-5165
Jun	-5166
ORE	-5167
Pre	-5168
Too	-5169
[0]	-5170
cid	-5171
cos	-5172
owl	-5173
pix	-5174
▁41	-5175
▁NN	-5176
▁We	-5177
▁ii	-5178
▁rv	-5179
▁ut	-5180
BZIP	-5181
CARD	-5182
FORM	-5183
STAT	-5184
Sign	-5185
Term	-5186
bile	-5187
bits	-5188
greg	-5189
must	-5190
orth	-5191
race	-5192
roid	-5193
▁0.3	-5194
▁0.4	-5195
▁512	-5196
▁640	-5197
▁Aff	-5198
▁Baz	-5199
▁Fin	-5200
▁VNC	-5201
▁[0,	-5202
▁crs	-5203
▁dic	-5204
▁git	-5205
▁sci	-5206
▁ste	-5207
▁xml	-5208
Array	-5209
Money	-5210
Multi	-5211
TOKEN	-5212
ident	-5213
inder	-5214
naive	-5215
rents	-5216
roken	-5217
tests	-5218
tiate	-5219
tract	-5220
utput	-5221
weeks	-5222
▁Comp	-5223
▁Used	-5224
▁objs	-5225
1.20/#	-5226
CREATE	-5227
advice	-5228
bounds	-5229
course	-5230
culate	-5231
decode	-5232
ensure	-5233
linear	-5234
oolean	-5235
ressed	-5236
▁Float	-5237
▁Input	-5238
▁Notes	-5239
▁forum	-5240
▁movie	-5241
▁parti	-5242
▁since	-5243
▁tasks	-5244
▁thumb	-5245
Private	-5246
created	-5247
foreign	-5248
inities	-5249
mutable	-5250
tarball	-5251
testing	-5252
▁Logger	-5253
▁folder	-5254
▁letter	-5255
▁loader	-5256
▁posted	-5257
▁scopes	-5258
activate	-5259
registry	-5260
sections	-5261
security	-5262
weeksday	-5263
▁Address	-5264
▁DmsHold	-5265
▁OpenSSL	-5266
▁Service	-5267
▁Unicode	-5268
▁because	-5269
▁machine	-5270
▁quality	-5271
Rectangle	-5272
▁absolute	-5273
▁fallback	-5274
▁relation	-5275
PrivateKey	-5276
contextual	-5277
▁Arguments	-5278
▁Attribute	-5279
▁WebSocket	-5280
▁dataframe	-5281
▁direction	-5282
▁following	-5283
▁instances	-5284
▁supported	-5285
blacklisted	-5286
▁Affinities	-5287
▁remoteness	-5288
▁similarity	-5289
▁Environment	-5290
▁application	-5291
▁datatracker	-5292
▁friendlyname	-5293
▁segmentation	-5294
▁AttributeError	-5295
▁DmsHoldBuilder	-5296
-'	-5297
/3	-5298
55	-5299
7-	-5300
=%	-5301
Ti	-5302
UG	-5303
vp	-5304
)\\	-5305
Lon	-5306
ROL	-5307
UTM	-5308
aaa	-5309
fun	-5310
lin	-5311
tmp	-5312
ulb	-5313
▁JO	-5314
▁fh	-5315
▁rd	-5316
DATA	-5317
Fail	-5318
INET	-5319
Like	-5320
UInt	-5321
Xref	-5322
dief	-5323
eded	-5324
imat	-5325
iven	-5326
ixed	-5327
kind	-5328
lare	-5329
riti	-5330
shed	-5331
▁0.2	-5332
▁199	-5333
▁4.0	-5334
▁cdf	-5335
▁sla	-5336
▁tok	-5337
▁wls	-5338
FLOPs	-5339
Graph	-5340
LonTo	-5341
Recur	-5342
ampos	-5343
books	-5344
cloud	-5345
curve	-5346
descr	-5347
itory	-5348
okens	-5349
retry	-5350
▁'{}/	-5351
▁PKey	-5352
▁assu	-5353
▁fold	-5354
▁good	-5355
▁njit	-5356
▁sent	-5357
▁simp	-5358
▁well	-5359
Cannot	-5360
Unless	-5361
region	-5362
ritish	-5363
smooth	-5364
suffix	-5365
titles	-5366
▁Graph	-5367
▁hyper	-5368
▁taken	-5369
Refunds	-5370
UTMZone	-5371
aussian	-5372
itokens	-5373
patches	-5374
pathway	-5375
▁Column	-5376
▁bounds	-5377
▁column	-5378
▁entity	-5379
▁limits	-5380
▁linear	-5381
▁maksed	-5382
▁scalar	-5383
▁silent	-5384
▁social	-5385
LatLonTo	-5386
pository	-5387
sentence	-5388
shopping	-5389
▁Creates	-5390
▁Integer	-5391
▁bastion	-5392
▁minimum	-5393
▁removed	-5394
▁written	-5395
DataFrame	-5396
Recurring	-5397
▁endpoint	-5398
▁implicit	-5399
▁junction	-5400
▁synonyms	-5401
singleuser	-5402
transition	-5403
▁contained	-5404
▁modifiers	-5405
▁resources	-5406
▁expiration	-5407
Interactions	-5408
configparser	-5409
LatLonToUTMZone	-5410
$$	-5411
.7	-5412
NG	-5413
TW	-5414
VM	-5415
][	-5416
ib	-5417
nu	-5418
rs	-5419
yy	-5420
0.0	-5421
ITS	-5422
One	-5423
Req	-5424
atx	-5425
ens	-5426
iew	-5427
tac	-5428
▁Ad	-5429
▁IO	-5430
▁['	-5431
▁ai	-5432
▁ce	-5433
▁{0	-5434
255,	-5435
Case	-5436
HOLD	-5437
Work	-5438
capa	-5439
cosx	-5440
hint	-5441
lour	-5442
nego	-5443
sget	-5444
sset	-5445
ward	-5446
▁'00	-5447
▁'20	-5448
▁NOT	-5449
▁job	-5450
▁occ	-5451
ENROL	-5452
LMENT	-5453
Maker	-5454
added	-5455
allel	-5456
archy	-5457
codes	-5458
mands	-5459
nonex	-5460
sakoe	-5461
steps	-5462
▁'201	-5463
▁Book	-5464
▁DmsC	-5465
▁atom	-5466
▁four	-5467
▁hard	-5468
▁less	-5469
▁pack	-5470
▁sapi	-5471
▁strs	-5472
▁tsns	-5473
Charge	-5474
FORMAT	-5475
Filter	-5476
Update	-5477
author	-5478
ername	-5479
finder	-5480
imator	-5481
ixture	-5482
macosx	-5483
ptured	-5484
remote	-5485
rotate	-5486
scalar	-5487
▁atoms	-5488
▁chdir	-5489
▁cross	-5490
▁draft	-5491
▁false	-5492
▁flush	-5493
▁going	-5494
▁imOut	-5495
▁links	-5496
▁meter	-5497
▁phone	-5498
▁reads	-5499
▁these	-5500
▁toler	-5501
▁vocab	-5502
Address	-5503
Context	-5504
discard	-5505
offsets	-5506
▁enable	-5507
▁member	-5508
▁placed	-5509
▁remark	-5510
▁widget	-5511
Ontology	-5512
ceptions	-5513
nonexist	-5514
upstream	-5515
▁BookSet	-5516
▁British	-5517
▁classes	-5518
▁filters	-5519
▁tagname	-5520
Directory	-5521
Standings	-5522
▁Reversal	-5523
▁criteria	-5524
▁explicit	-5525
▁pyergast	-5526
ENROLLMENT	-5527
collisions	-5528
contiguous	-5529
qualifying	-5530
▁DmsCancel	-5531
▁DmsCharge	-5532
▁simulated	-5533
▁yesterday	-5534
CardBuilder	-5535
▁initialize	-5536
▁serialized	-5537
▁unregister	-5538
TokenBuilder	-5539
ResultBuilder	-5540
StatusBuilder	-5541
▁augmentation	-5542
▁certificates	-5543
▁CreditBuilder	-5544
▁RefundBuilder	-5545
▁distributions	-5546
▁MotoDmsBuilder	-5547
▁MotoSmsBuilder	-5548
▁makeCoordinate	-5549
▁PaymentResponse	-5550
▁ReversalBuilder	-5551
-8	-5552
AY	-5553
Ad	-5554
El	-5555
GO	-5556
cd	-5557
eo	-5558
fd	-5559
mm	-5560
▁$	-5561
ANC	-5562
BUG	-5563
Hom	-5564
but	-5565
ced	-5566
dup	-5567
ios	-5568
ium	-5569
lex	-5570
loy	-5571
yoy	-5572
▁'!	-5573
▁<<	-5574
▁AD	-5575
▁Do	-5576
▁OP	-5577
▁sb	-5578
CANC	-5579
Homo	-5580
bian	-5581
conn	-5582
conv	-5583
ette	-5584
gcpu	-5585
kend	-5586
tenc	-5587
▁128	-5588
▁Bst	-5589
▁Log	-5590
▁lru	-5591
▁lst	-5592
▁mgr	-5593
alpha	-5594
bases	-5595
flags	-5596
least	-5597
peaks	-5598
ratio	-5599
regex	-5600
using	-5601
▁Load	-5602
▁Lock	-5603
▁Poly	-5604
▁Some	-5605
▁YAML	-5606
▁rand	-5607
▁seek	-5608
ByName	-5609
CANCEL	-5610
CREDIT	-5611
RESULT	-5612
REVERS	-5613
Recent	-5614
STATUS	-5615
ackend	-5616
height	-5617
ically	-5618
scribe	-5619
second	-5620
tected	-5621
▁Table	-5622
▁acorr	-5623
▁along	-5624
▁attrs	-5625
▁calls	-5626
▁price	-5627
▁queue	-5628
▁wrong	-5629
REFUNDS	-5630
Require	-5631
highest	-5632
licting	-5633
limiter	-5634
matches	-5635
rations	-5636
sistent	-5637
▁Deprec	-5638
▁Determ	-5639
▁Limits	-5640
▁Should	-5641
▁chosen	-5642
▁expand	-5643
▁export	-5644
▁isfile	-5645
▁issuer	-5646
▁respec	-5647
Location	-5648
REVERSAL	-5649
Registry	-5650
checkbox	-5651
dBuilder	-5652
filepath	-5653
fixtures	-5654
iterator	-5655
provider	-5656
reversal	-5657
▁StrDict	-5658
▁changed	-5659
▁compile	-5660
▁imageID	-5661
▁sapiens	-5662
▁servers	-5663
Signature	-5664
aturation	-5665
candidate	-5666
tencecase	-5667
▁complete	-5668
▁determin	-5669
▁digitize	-5670
▁internal	-5671
▁notebook	-5672
▁reversal	-5673
▁wrappers	-5674
coordinate	-5675
jupyterhub	-5676
▁Container	-5677
▁delimiter	-5678
▁discourse	-5679
▁frequency	-5680
▁listening	-5681
▁plaintext	-5682
▁threshold	-5683
▁identifier	-5684
▁targetList	-5685
ationWarning	-5686
▁assertIsNot	-5687
▁defaultdict	-5688
RecentChanges	-5689
▁listPathways	-5690
▁LimitsBuilder	-5691
▁ReportBuilder	-5692
▁interactionOnly	-5693
-2	-5694
."	-5695
1)	-5696
GH	-5697
Lo	-5698
TO	-5699
hr	-5700
mr	-5701
-01	-5702
Add	-5703
LIM	-5704
Log	-5705
SDL	-5706
SER	-5707
ana	-5708
did	-5709
eml	-5710
gid	-5711
ikk	-5712
mas	-5713
nef	-5714
roy	-5715
svg	-5716
▁'#	-5717
▁22	-5718
▁23	-5719
▁OS	-5720
▁ep	-5721
▁mc	-5722
▁ms	-5723
▁pv	-5724
RGBA	-5725
cape	-5726
many	-5727
▁Als	-5728
▁Ens	-5729
▁HNC	-5730
▁IGN	-5731
▁PNG	-5732
▁RST	-5733
▁Rad	-5734
▁foc	-5735
▁ske	-5736
▁sms	-5737
Liter	-5738
acity	-5739
actor	-5740
align	-5741
extre	-5742
ifest	-5743
leash	-5744
ories	-5745
short	-5746
undle	-5747
▁0.25	-5748
▁Auth	-5749
▁WSDL	-5750
▁dele	-5751
▁ends	-5752
▁mnef	-5753
▁pool	-5754
▁reci	-5755
▁span	-5756
.00000	-5757
LIMITS	-5758
rapper	-5759
▁cases	-5760
▁gives	-5761
▁phase	-5762
▁ratio	-5763
▁saves	-5764
▁steps	-5765
▁three	-5766
complex	-5767
otation	-5768
plement	-5769
ritical	-5770
tically	-5771
warning	-5772
▁Either	-5773
▁accept	-5774
▁automa	-5775
▁cafile	-5776
▁colour	-5777
▁factor	-5778
▁launch	-5779
▁mobile	-5780
▁netloc	-5781
▁tables	-5782
atistics	-5783
descript	-5784
extremes	-5785
failures	-5786
gaussian	-5787
quantity	-5788
▁asarray	-5789
▁conside	-5790
▁findall	-5791
▁methods	-5792
▁mneflow	-5793
▁sliding	-5794
PathwayAs	-5795
billiards	-5796
occurence	-5797
stringcmp	-5798
threshold	-5799
▁Abstract	-5800
▁protocol	-5801
▁queryset	-5802
▁subtrace	-5803
Literature	-5804
ValueError	-5805
descriptor	-5806
incomplete	-5807
recurrents	-5808
▁candidate	-5809
Constructor	-5810
conflicting	-5811
▁calculated	-5812
▁contextual	-5813
▁processing	-5814
▁getPathwayAs	-5815
▁getPathwayInfo	-5816
04	-5817
67	-5818
7,	-5819
_'	-5820
'},	-5821
(['	-5822
-06	-5823
20_	-5824
403	-5825
Num	-5826
PUT	-5827
Pod	-5828
ams	-5829
dfs	-5830
iel	-5831
mor	-5832
ret	-5833
svn	-5834
uch	-5835
xxx	-5836
{}/	-5837
▁gu	-5838
▁hf	-5839
=100	-5840
ands	-5841
cade	-5842
kets	-5843
oint	-5844
sity	-5845
ztar	-5846
▁'1.	-5847
▁2.,	-5848
▁ans	-5849
▁dna	-5850
▁pub	-5851
▁rad	-5852
▁ter	-5853
alled	-5854
aname	-5855
cisco	-5856
erior	-5857
ftime	-5858
hello	-5859
ience	-5860
ifies	-5861
kwarg	-5862
lored	-5863
means	-5864
owner	-5865
rater	-5866
stock	-5867
ufact	-5868
▁'0.0	-5869
▁Also	-5870
▁MAXD	-5871
▁Read	-5872
▁mime	-5873
▁pred	-5874
▁sock	-5875
▁wash	-5876
=1000'	-5877
Helper	-5878
actify	-5879
branch	-5880
bundle	-5881
peline	-5882
setext	-5883
stdout	-5884
unpack	-5885
▁Point	-5886
▁bcseq	-5887
Element	-5888
Example	-5889
celsius	-5890
extract	-5891
occured	-5892
raterpy	-5893
atracker	-5894
attempts	-5895
pression	-5896
taxonomy	-5897
ufacture	-5898
▁enabled	-5899
▁library	-5900
▁members	-5901
▁mounted	-5902
▁product	-5903
▁reading	-5904
languages	-5905
▁assigned	-5906
▁capacity	-5907
▁dataname	-5908
▁deserial	-5909
▁linspace	-5910
▁selector	-5911
conclusion	-5912
▁installer	-5913
▁reporting	-5914
▁traversal	-5915
▁Operations	-5916
▁basestring	-5917
▁completion	-5918
▁dstringcmp	-5919
▁generation	-5920
▁Wikipathway	-5921
▁requirement	-5922
▁updatePathway	-5923
▁assertIsNotNone	-5924
2%	-5925
3,	-5926
4.	-5927
Ac	-5928
II	-5929
NN	-5930
_5	-5931
`)	-5932
lu	-5933
}.	-5934
FLA	-5935
Map	-5936
aad	-5937
afe	-5938
baf	-5939
boo	-5940
dtw	-5941
ebf	-5942
inc	-5943
iol	-5944
jan	-5945
lwc	-5946
miz	-5947
nid	-5948
nss	-5949
php	-5950
pts	-5951
tod	-5952
vin	-5953
wpi	-5954
▁'5	-5955
▁55	-5956
▁AS	-5957
▁La	-5958
▁az	-5959
▁fd	-5960
▁js	-5961
▁nk	-5962
0171	-5963
9517	-5964
OrIP	-5965
_1_0	-5966
abec	-5967
alho	-5968
ames	-5969
apor	-5970
atom	-5971
bind	-5972
city	-5973
crps	-5974
ebaf	-5975
lcss	-5976
otus	-5977
proc	-5978
rain	-5979
tros	-5980
wsdl	-5981
▁CON	-5982
▁Eml	-5983
▁PRO	-5984
▁cds	-5985
▁lhs	-5986
▁pal	-5987
▁pyc	-5988
▁ren	-5989
▁tth	-5990
▁vlf	-5991
▁wgs	-5992
NAMES	-5993
Saved	-5994
meium	-5995
meter	-5996
oauth	-5997
oogle	-5998
paque	-5999
scope	-6000
toler	-6001
uency	-6002
usage	-6003
▁Java	-6004
▁Util	-6005
▁done	-6006
▁freq	-6007
▁give	-6008
▁gnss	-6009
▁term	-6010
Driver	-6011
Unable	-6012
iolink	-6013
native	-6014
simple	-6015
tively	-6016
▁Event	-6017
▁SOCKS	-6018
▁Utils	-6019
▁dicts	-6020
▁diefk	-6021
▁equal	-6022
▁folds	-6023
▁getCo	-6024
▁ksize	-6025
▁piles	-6026
▁ready	-6027
Failure	-6028
Support	-6029
changes	-6030
expires	-6031
measure	-6032
mediate	-6033
sertion	-6034
tacloud	-6035
veloped	-6036
windows	-6037
▁Client	-6038
▁astype	-6039
▁change	-6040
▁conven	-6041
▁epochs	-6042
▁monkey	-6043
▁rstrip	-6044
▁simple	-6045
▁xrange	-6046
CountMax	-6047
NameOrIP	-6048
abecalho	-6049
generate	-6050
pathways	-6051
peername	-6052
▁Dataset	-6053
▁choices	-6054
▁control	-6055
▁gnsscal	-6056
▁masklen	-6057
▁omitted	-6058
▁outside	-6059
▁palette	-6060
▁refresh	-6061
▁sendall	-6062
▁smaller	-6063
▁writing	-6064
converter	-6065
guarantee	-6066
negotiate	-6067
testrealm	-6068
validator	-6069
▁computed	-6070
▁critical	-6071
▁duration	-6072
▁endswith	-6073
▁normally	-6074
▁premeium	-6075
▁randomly	-6076
▁represen	-6077
▁spattern	-6078
POSITIONAL	-6079
fahrenheit	-6080
filterList	-6081
saturation	-6082
▁EmlParser	-6083
▁Malformed	-6084
▁displayed	-6085
▁organisms	-6086
▁posterior	-6087
▁receiving	-6088
▁untrusted	-6089
▁Enrollment	-6090
▁attributes	-6091
▁getColored	-6092
▁hypergraph	-6093
▁successful	-6094
wikipathways	-6095
▁TestSupport	-6096
▁monkeypatch	-6097
▁pixCountMax	-6098
▁subsequence	-6099
▁asynchronous	-6100
▁configparser	-6101
recursionlimit	-6102
▁createPathway	-6103
▁interpolation	-6104
▁savePathwayAs	-6105
▁segmentations	-6106
▁implementation	-6107
▁recursionlimit	-6108
▁MalformedHeader	-6109
▁saveCurationTag	-6110
4,	-6111
41	-6112
42	-6113
_{	-6114
vm	-6115
','	-6116
(0,	-6117
)``	-6118
ARN	-6119
Geo	-6120
IVE	-6121
MAP	-6122
NUM	-6123
ROR	-6124
USD	-6125
[1]	-6126
bly	-6127
cap	-6128
hsl	-6129
ied	-6130
sql	-6131
▁'^	-6132
▁1]	-6133
▁31	-6134
▁AP	-6135
▁NO	-6136
▁Up	-6137
▁bw	-6138
▁eq	-6139
▁gs	-6140
▁pm	-6141
HEAD	-6142
REAM	-6143
ders	-6144
drop	-6145
exit	-6146
href	-6147
jump	-6148
loop	-6149
recv	-6150
rule	-6151
stat	-6152
work	-6153
year	-6154
▁0.7	-6155
▁1.1	-6156
▁AIP	-6157
▁All	-6158
▁DTW	-6159
▁Mut	-6160
▁Pre	-6161
▁abc	-6162
▁arc	-6163
▁asc	-6164
▁bre	-6165
▁uid	-6166
▁usr	-6167
▁via	-6168
coord	-6169
cross	-6170
enfor	-6171
hooks	-6172
lifec	-6173
lugin	-6174
separ	-6175
serve	-6176
stand	-6177
timiz	-6178
▁JOIN	-6179
▁Save	-6180
▁bins	-6181
▁eids	-6182
▁elon	-6183
▁inte	-6184
▁look	-6185
▁once	-6186
▁sear	-6187
▁spaw	-6188
▁thex	-6189
▁wlon	-6190
ARNING	-6191
digits	-6192
escape	-6193
images	-6194
moving	-6195
ording	-6196
raries	-6197
smiles	-6198
▁Frame	-6199
▁descr	-6200
▁means	-6201
▁retry	-6202
android	-6203
drivers	-6204
explore	-6205
network	-6206
percent	-6207
ulation	-6208
zipfile	-6209
▁Please	-6210
▁adjust	-6211
▁attemp	-6212
▁fparam	-6213
▁itself	-6214
▁listOr	-6215
▁origin	-6216
▁places	-6217
▁startX	-6218
▁startY	-6219
▁strand	-6220
Sequence	-6221
clienttp	-6222
inverter	-6223
modifier	-6224
previous	-6225
protocol	-6226
province	-6227
▁Invalid	-6228
▁applied	-6229
▁calling	-6230
▁changes	-6231
▁formats	-6232
▁predict	-6233
▁prepend	-6234
▁privile	-6235
▁usrname	-6236
Transform	-6237
authorize	-6238
clientver	-6239
euclidean	-6240
lifecycle	-6241
multiList	-6242
▁authInfo	-6243
▁bwPacket	-6244
▁priority	-6245
▁strftime	-6246
▁weighted	-6247
▁VNCServer	-6248
▁deviation	-6249
▁embedding	-6250
tifications	-6251
▁covariance	-6252
constructors	-6253
▁WSDLService	-6254
▁modulegraph	-6255
▁displaySaved	-6256
▁filterLength	-6257
▁automatically	-6258
▁listOrganisms	-6259
▁postprocessor	-6260
▁createVMServer	-6261
▁describeChanges	-6262
%2	-6263
30	-6264
33	-6265
77	-6266
<'	-6267
MD	-6268
NS	-6269
Sm	-6270
zA	-6271
zh	-6272
(\\	-6273
+00	-6274
,\\	-6275
-07	-6276
21/	-6277
Api	-6278
COU	-6279
ERS	-6280
QDN	-6281
bpp	-6282
cks	-6283
nen	-6284
▁Be	-6285
▁DE	-6286
▁cv	-6287
NECT	-6288
atio	-6289
memb	-6290
nsor	-6291
ocal	-6292
otal	-6293
rids	-6294
ront	-6295
uous	-6296
zero	-6297
▁'__	-6298
▁Fil	-6299
▁Sim	-6300
▁gro	-6301
▁maj	-6302
▁mit	-6303
COUNT	-6304
agent	-6305
ators	-6306
delta	-6307
didix	-6308
filer	-6309
lists	-6310
nsity	-6311
pikeT	-6312
sited	-6313
tends	-6314
ually	-6315
▁---|	-6316
▁FQDN	-6317
▁able	-6318
▁boto	-6319
▁enti	-6320
▁even	-6321
▁gene	-6322
▁loop	-6323
▁pytz	-6324
▁role	-6325
▁roll	-6326
▁swap	-6327
▁tool	-6328
▁trip	-6329
Cipher	-6330
Orders	-6331
arping	-6332
bosity	-6333
cripts	-6334
filled	-6335
lugins	-6336
nuheat	-6337
otions	-6338
pieces	-6339
schema	-6340
serted	-6341
ssibly	-6342
writer	-6343
▁Error	-6344
▁front	-6345
▁gdelt	-6346
▁recal	-6347
▁recom	-6348
▁reply	-6349
Ellipse	-6350
Section	-6351
Wrapper	-6352
bridges	-6353
details	-6354
entries	-6355
erarchy	-6356
inished	-6357
ranches	-6358
related	-6359
▁Ensure	-6360
▁TinyDB	-6361
▁Update	-6362
▁always	-6363
▁cookie	-6364
▁hashes	-6365
▁invoke	-6366
▁master	-6367
▁modify	-6368
▁render	-6369
▁schema	-6370
▁tzinfo	-6371
▁unless	-6372
Ancestor	-6373
MaskType	-6374
allclose	-6375
circuits	-6376
inactive	-6377
untested	-6378
▁Decimal	-6379
▁KEYWORD	-6380
▁abspath	-6381
▁maximum	-6382
▁pasword	-6383
▁primary	-6384
▁queries	-6385
▁sending	-6386
▁special	-6387
▁unleash	-6388
plemental	-6389
templates	-6390
▁mimetype	-6391
▁services	-6392
collection	-6393
transcript	-6394
▁Authority	-6395
▁TestBasic	-6396
▁TextUtils	-6397
▁construct	-6398
▁hexdigest	-6399
▁positions	-6400
▁countgraph	-6401
▁convenience	-6402
▁dimensional	-6403
▁tolerations	-6404
▁TinyFatTable	-6405
▁supplemental	-6406
▁Certification	-6407
▁accessibility	-6408
▁TestBasicOrders	-6409
.,	-6410
09	-6411
18	-6412
AG	-6413
PY	-6414
RS	-6415
fp	-6416
*\\	-6417
-05	-6418
../	-6419
01_	-6420
102	-6421
12_	-6422
Car	-6423
Cli	-6424
ELD	-6425
NaN	-6426
REQ	-6427
ROM	-6428
_1'	-6429
bfb	-6430
bre	-6431
csi	-6432
dcd	-6433
doe	-6434
img	-6435
imi	-6436
irc	-6437
law	-6438
nor	-6439
sim	-6440
two	-6441
zed	-6442
▁'(	-6443
▁'~	-6444
▁28	-6445
▁Ac	-6446
▁Rä	-6447
▁ip	-6448
13.4	-6449
7102	-6450
ATOR	-6451
FACT	-6452
Pass	-6453
bins	-6454
dims	-6455
dump	-6456
gent	-6457
half	-6458
ikkö	-6459
inte	-6460
nish	-6461
ogen	-6462
omeo	-6463
real	-6464
smac	-6465
soft	-6466
uped	-6467
▁'_'	-6468
▁1.5	-6469
▁137	-6470
▁NON	-6471
▁bla	-6472
▁nan	-6473
Child	-6474
Hello	-6475
Imple	-6476
Small	-6477
async	-6478
const	-6479
ender	-6480
eried	-6481
fixed	-6482
gnore	-6483
hints	-6484
ified	-6485
ourse	-6486
phone	-6487
piece	-6488
press	-6489
times	-6490
ulong	-6491
▁Gets	-6492
▁Time	-6493
▁argv	-6494
▁dust	-6495
▁mets	-6496
▁nlat	-6497
▁sets	-6498
▁slat	-6499
▁soft	-6500
▁uses	-6501
Entity	-6502
Failed	-6503
STREAM	-6504
answer	-6505
dening	-6506
detect	-6507
globus	-6508
inimal	-6509
issonP	-6510
morrow	-6511
▁Romeo	-6512
▁audio	-6513
▁pmids	-6514
▁socks	-6515
▁speed	-6516
▁takes	-6517
▁track	-6518
FACTORY	-6519
country	-6520
ikkönen	-6521
setitem	-6522
▁Module	-6523
▁answer	-6524
▁blacks	-6525
▁broken	-6526
▁campos	-6527
▁digits	-6528
▁manage	-6529
▁prompt	-6530
▁subseq	-6531
absolute	-6532
channels	-6533
contexts	-6534
customer	-6535
duration	-6536
junction	-6537
pressure	-6538
umulated	-6539
unittest	-6540
▁compose	-6541
▁creates	-6542
▁longseq	-6543
▁mitogen	-6544
▁private	-6545
▁queried	-6546
▁records	-6547
greyscale	-6548
instances	-6549
otCommand	-6550
remaining	-6551
scitokens	-6552
▁Baseline	-6553
▁NotImple	-6554
▁clusters	-6555
▁creating	-6556
▁decoding	-6557
▁mismatch	-6558
▁modified	-6559
▁platform	-6560
▁provider	-6561
▁redirect	-6562
▁shutdown	-6563
▁urlparse	-6564
VersionNum	-6565
attributes	-6566
promotions	-6567
properties	-6568
▁Räikkönen	-6569
▁bytearray	-6570
▁encrypted	-6571
mentedError	-6572
▁compatible	-6573
▁determines	-6574
▁testSocket	-6575
▁deserialize	-6576
▁formatLocation	-6577
%#	-6578
%3	-6579
'\	-6580
48	-6581
90	-6582
CK	-6583
EE	-6584
TH	-6585
fy	-6586
kv	-6587
mf	-6588
(?:	-6589
**:	-6590
1.2	-6591
Aff	-6592
Baz	-6593
DEF	-6594
FIN	-6595
MyW	-6596
]):	-6597
acc	-6598
asy	-6599
enc	-6600
hun	-6601
lap	-6602
sec	-6603
wor	-6604
{\\	-6605
▁-1	-6606
▁3)	-6607
▁4.	-6608
▁45	-6609
▁et	-6610
▁vc	-6611
-01-	-6612
EMPL	-6613
FLAG	-6614
OVER	-6615
adns	-6616
antv	-6617
diff	-6618
help	-6619
java	-6620
liqu	-6621
ocor	-6622
pred	-6623
sdef	-6624
sted	-6625
unct	-6626
wire	-6627
▁300	-6628
▁DNS	-6629
▁GID	-6630
▁Gos	-6631
▁Max	-6632
▁RGB	-6633
▁UTM	-6634
▁WGS	-6635
▁You	-6636
▁cas	-6637
▁crl	-6638
▁ecs	-6639
▁fra	-6640
▁lot	-6641
▁pvc	-6642
▁sep	-6643
==1.2	-6644
Agent	-6645
DITER	-6646
Event	-6647
Names	-6648
aches	-6649
admin	-6650
ields	-6651
lator	-6652
lores	-6653
ollar	-6654
rency	-6655
route	-6656
units	-6657
▁'00'	-6658
▁Alfa	-6659
▁Kimi	-6660
▁free	-6661
▁oper	-6662
▁	-6663
e	-6664
t	-6665
s	-6666
a	-6667
r	-6668
i	-6669
n	-6670
o	-6671
l	-6672
.	-6673
d	-6674
_	-6675
f	-6676
c	-6677
u	-6678
p	-6679
m	-6680
,	-6681
(	-6682
)	-6683
:	-6684
h	-6685
g	-6686
'	-6687
=	-6688
y	-6689
b	-6690
v	-6691
k	-6692
w	-6693
"	-6694
x	-6695
-	-6696
0	-6697
T	-6698
1	-6699
N	-6700
E	-6701
F	-6702
[	-6703
]	-6704
C	-6705
S	-6706
q	-6707
L	-6708
2	-6709
A	-6710
D	-6711
R	-6712
I	-6713
`	-6714
P	-6715
/	-6716
j	-6717
>	-6718
B	-6719
O	-6720
*	-6721
M	-6722
z	-6723
3	-6724
5	-6725
4	-6726
U	-6727
{	-6728
}	-6729
G	-6730
9	-6731
6	-6732
H	-6733
W	-6734
+	-6735
8	-6736
V	-6737
7	-6738
%	-6739
\	-6740
Y	-6741
X	-6742
K	-6743
<	-6744
@	-6745
!	-6746
J	-6747
Q	-6748
Z	-6749
#	-6750
~	-6751
?	-6752
;	-6753
|	-6754
&	-6755
$	-6756
^	-6757
é	-6758
ä	-6759
ö	-6760
一	-6761
本	-6762
♥	-6763
ǝ	-6764
字	-6765
成	-6766
á	-6767
’	-6768
的	-6769
ã	-6770
ü	-6771
書	-6772
集	-6773
ç	-6774
ž	-6775
‘	-6776
三	-6777
信	-6778
套	-6779
果	-6780
組	-6781
要	-6782
¥	-6783
å	-6784
ÿ	-6785
Ć	-6786
ć	-6787
Đ	-6788
đ	-6789
Š	-6790
š	-6791
Ž	-6792
ǎ	-6793
а	-6794
不	-6795
中	-6796
二	-6797
各	-6798
数	-6799
版	-6800
í	-6801
ɔ	-6802
ʎ	-6803
ᴉ	-6804
串	-6805
为	-6806
取	-6807
是	-6808
符	-6809
获	-6810
×	-6811
æ	-6812
è	-6813
р	-6814
у	-6815
“	-6816
”	-6817
。	-6818
兩	-6819
准	-6820
则	-6821
号	-6822
地	-6823
息	-6824
手	-6825
机	-6826
模	-6827
正	-6828
求	-6829
用	-6830
确	-6831
第	-6832
～	-6833
Ä	-6834
à	-6835
ú	-6836
ɐ	-6837
ʞ	-6838
ˈ	-6839
б	-6840
е	-6841
и	-6842
к	-6843
о	-6844
с	-6845
交	-6846
典	-6847
功	-6848
去	-6849
发	-6850
后	-6851
和	-6852
四	-6853
对	-6854
小	-6855
应	-6856
度	-6857
据	-6858
提	-6859
短	-6860
芒	-6861
送	-6862
¬	-6863
°	-6864
â	-6865
ì	-6866
õ	-6867
ō	-6868
ɹ	-6869
ʇ	-6870
ч	-6871
€	-6872
⛿	-6873
✓	-6874
の	-6875
イ	-6876
上	-6877
于	-6878
五	-6879
位	-6880
值	-6881
内	-6882
写	-6883
回	-6884
固	-6885
址	-6886
域	-6887
失	-6888
容	-6889
必	-6890
志	-6891
报	-6892
掉	-6893
接	-6894
整	-6895
日	-6896
根	-6897
段	-6898
洗	-6899
清	-6900
种	-6901
纬	-6902
经	-6903
结	-6904
统	-6905
苹	-6906
行	-6907
话	-6908
语	-6909
败	-6910
转	-6911
过	-6912
返	-6913
还	-6914
通	-6915
音	-6916
须	-6917
ó	-6918
ô	-6919
ą	-6920
ż	-6921
ǐ	-6922
ə	-6923
г	-6924
ж	-6925
з	-6926
т	-6927
ф	-6928
ь	-6929
я	-6930
က	-6931
–	-6932
∞	-6933
と	-6934
ァ	-6935
ア	-6936
ェ	-6937
カ	-6938
ク	-6939
チ	-6940
ッ	-6941
フ	-6942
ブ	-6943
ル	-6944
ー	-6945
个	-6946
互	-6947
产	-6948
况	-6949
函	-6950
列	-6951
创	-6952
前	-6953
加	-6954
匀	-6955
区	-6956
占	-6957
只	-6958
同	-6959
名	-6960
含	-6961
响	-6962
啟	-6963
在	-6964
多	-6965
完	-6966
定	-6967
将	-6968
州	-6969
建	-6970
影	-6971
情	-6972
或	-6973
户	-6974
承	-6975
拼	-6976
持	-6977
换	-6978
支	-6979
收	-6980
效	-6981
文	-6982
新	-6983
替	-6984
有	-6985
极	-6986
母	-6987
生	-6988
目	-6989
直	-6990
相	-6991
码	-6992
端	-6993
线	-6994
继	-6995
能	-6996
英	-6997
表	-6998
被	-6999
解	-7000
設	-7001
象	-7002
贵	-7003
进	-7004
都	-7005
錄	-7006
长	-7007
開	-7008
