<unk>	0
<s>	0
</s>	0
<BOS>	0
<EOS>	0
<PAD>	0
\n	0
<INDENT>	0
<DEDENT>	0
▁(	-0
▁)	-1
▁.	-2
se	-3
▁,	-4
de	-5
▁:	-6
on	-7
in	-8
▁=	-9
▁de	-10
re	-11
st	-12
▁se	-13
at	-14
▁def	-15
▁t	-16
lf	-17
▁self	-18
..	-19
▁...	-20
er	-21
▁a	-22
en	-23
or	-24
al	-25
▁'	-26
▁c	-27
it	-28
he	-29
ion	-30
me	-31
ar	-32
le	-33
ct	-34
▁f	-35
▁p	-36
▁re	-37
▁i	-38
▁n	-39
ge	-40
an	-41
▁s	-42
▁in	-43
ur	-44
ce	-45
▁b	-46
▁_	-47
ame	-48
▁d	-49
▁o	-50
""	-51
▁[	-52
ut	-53
est	-54
▁]	-55
un	-56
lo	-57
ro	-58
▁m	-59
ate	-60
ing	-61
one	-62
▁e	-63
▁N	-64
▁the	-65
pe	-66
li	-67
ent	-68
ra	-69
ck	-70
th	-71
ss	-72
get	-73
▁None	-74
▁w	-75
ser	-76
ue	-77
▁st	-78
fi	-79
▁v	-80
la	-81
qu	-82
▁as	-83
▁1	-84
co	-85
ed	-86
ction	-87
▁T	-88
mp	-89
id	-90
ul	-91
▁test	-92
--	-93
urn	-94
turn	-95
▁get	-96
sert	-97
▁to	-98
"""	-99
ri	-100
ve	-101
▁0	-102
il	-103
▁assert	-104
▁is	-105
▁"""	-106
ata	-107
di	-108
es	-109
ad	-110
ch	-111
ot	-112
ke	-113
▁for	-114
name	-115
▁if	-116
ol	-117
ver	-118
up	-119
▁-	-120
pt	-121
▁of	-122
▁con	-123
um	-124
ype	-125
▁an	-126
heck	-127
ation	-128
as	-129
ter	-130
alue	-131
▁ex	-132
unction	-133
ath	-134
▁F	-135
▁return	-136
▁g	-137
▁str	-138
ex	-139
list	-140
con	-141
der	-142
▁*	-143
▁di	-144
▁l	-145
ult	-146
▁co	-147
gs	-148
am	-149
eng	-150
ength	-151
and	-152
key	-153
init	-154
bj	-155
el	-156
ect	-157
▁lo	-158
par	-159
ma	-160
▁k	-161
ti	-162
ity	-163
▁th	-164
▁__	-165
ror	-166
sp	-167
alse	-168
put	-169
▁h	-170
ode	-171
ment	-172
to	-173
00	-174
De	-175
Check	-176
int	-177
ith	-178
▁2	-179
▁be	-180
od	-181
ble	-182
Length	-183
▁r	-184
Function	-185
is	-186
rue	-187
``	-188
FunctionLength	-189
iz	-190
▁{	-191
ite	-192
▁A	-193
ig	-194
ta	-195
▁u	-196
▁False	-197
▁fi	-198
▁data	-199
▁ar	-200
▁and	-201
type	-202
__	-203
qual	-204
Se	-205
▁name	-206
▁value	-207
▁R	-208
▁==	-209
ext	-210
▁->	-211
nt	-212
ers	-213
▁ma	-214
ray	-215
▁not	-216
lass	-217
rom	-218
▁I	-219
bject	-220
▁or	-221
file	-222
pp	-223
ption	-224
Def	-225
▁}	-226
▁par	-227
ic	-228
----	-229
ist	-230
▁me	-231
Equal	-232
▁C	-233
inition	-234
et	-235
vi	-236
end	-237
age	-238
▁res	-239
▁P	-240
ort	-241
Definition	-242
ise	-243
param	-244
us	-245
▁True	-246
om	-247
▁assertEqual	-248
set	-249
res	-250
ord	-251
str	-252
CheckDefinition	-253
▁D	-254
ize	-255
ase	-256
mat	-257
▁path	-258
ew	-259
▁+	-260
all	-261
fo	-262
▁ra	-263
ader	-264
▁x	-265
▁y	-266
ub	-267
▁al	-268
▁S	-269
▁ad	-270
verity	-271
Severity	-272
▁int	-273
▁set	-274
quest	-275
ci	-276
▁with	-277
po	-278
ance	-279
▁key	-280
rror	-281
▁list	-282
Error	-283
mple	-284
able	-285
dict	-286
code	-287
args	-288
for	-289
ault	-290
ine	-291
▁pro	-292
ht	-293
sc	-294
bo	-295
▁3	-296
▁M	-297
▁ch	-298
▁he	-299
▁po	-300
▁file	-301
▁**	-302
url	-303
uth	-304
time	-305
▁class	-306
▁np	-307
reate	-308
▁object	-309
unt	-310
▁pa	-311
▁j	-312
>>	-313
▁en	-314
▁sh	-315
data	-316
ph	-317
path	-318
mo	-319
fig	-320
▁input	-321
ry	-322
▁kw	-323
pi	-324
vel	-325
ace	-326
atch	-327
ran	-328
te	-329
▁out	-330
date	-331
ime	-332
▁add	-333
ow	-334
▁Re	-335
ust	-336
red	-337
▁bo	-338
▁from	-339
pr	-340
art	-341
val	-342
.0	-343
low	-344
▁log	-345
umb	-346
ly	-347
▁that	-348
error	-349
▁``	-350
ken	-351
mm	-352
▁The	-353
ure	-354
ger	-355
stance	-356
roup	-357
ds	-358
per	-359
lay	-360
▁new	-361
▁it	-362
ind	-363
ip	-364
ctor	-365
▁L	-366
item	-367
▁kwargs	-368
pro	-369
▁raise	-370
test	-371
our	-372
loat	-373
dex	-374
ines	-375
ack	-376
ill	-377
ac	-378
▁ro	-379
ename	-380
▁cont	-381
ay	-382
ls	-383
pect	-384
▁string	-385
▁mo	-386
sed	-387
thod	-388
out	-389
array	-390
▁E	-391
▁el	-392
▁fil	-393
ample	-394
ff	-395
read	-396
onse	-397
conf	-398
im	-399
ary	-400
▁result	-401
pre	-402
rent	-403
▁format	-404
▁pre	-405
umber	-406
dir	-407
▁`	-408
qui	-409
level	-410
▁type	-411
▁wh	-412
▁val	-413
cal	-414
ape	-415
▁U	-416
ource	-417
turns	-418
▁array	-419
▁do	-420
▁4	-421
▁O	-422
ener	-423
ameter	-424
▁else	-425
ange	-426
▁request	-427
▁app	-428
▁error	-429
value	-430
▁spe	-431
py	-432
▁time	-433
cess	-434
▁un	-435
ator	-436
▁create	-437
pected	-438
▁up	-439
space	-440
▁float	-441
▁len	-442
▁by	-443
ive	-444
cl	-445
▁%	-446
fe	-447
tri	-448
▁on	-449
▁la	-450
==	-451
▁V	-452
ile	-453
ther	-454
▁check	-455
aders	-456
▁col	-457
Re	-458
▁will	-459
▁G	-460
sion	-461
und	-462
lic	-463
oo	-464
▁"	-465
▁5	-466
pl	-467
rans	-468
vent	-469
ding	-470
▁dict	-471
sponse	-472
ne	-473
▁max	-474
▁expected	-475
ts	-476
mmand	-477
ign	-478
mage	-479
ition	-480
ence	-481
▁mode	-482
ork	-483
▁''	-484
uple	-485
son	-486
iv	-487
▁Test	-488
▁output	-489
rite	-490
▁var	-491
form	-492
mb	-493
▁at	-494
▁start	-495
lient	-496
▁default	-497
tr	-498
▁user	-499
ssion	-500
ptional	-501
ast	-502
count	-503
▁config	-504
▁are	-505
▁B	-506
▁node	-507
tain	-508
den	-509
ments	-510
tp	-511
log	-512
▁function	-513
ssage	-514
▁group	-515
▁If	-516
arget	-517
ated	-518
▁comp	-519
ded	-520
▁url	-521
ren	-522
op	-523
ask	-524
by	-525
rame	-526
ule	-527
eld	-528
layer	-529
from	-530
▁>>	-531
ag	-532
vice	-533
size	-534
▁args	-535
▁exce	-536
of	-537
string	-538
ave	-539
word	-540
▁Returns	-541
\\	-542
▁>>>	-543
sh	-544
def	-545
tra	-546
▁filename	-547
ann	-548
ute	-549
▁method	-550
move	-551
ww	-552
ument	-553
▁qu	-554
ty	-555
▁id	-556
atus	-557
▁sub	-558
if	-559
▁all	-560
rst	-561
▁item	-562
▁bool	-563
ery	-564
arch	-565
ug	-566
cur	-567
▁0.	-568
▁number	-569
▁@	-570
ms	-571
lace	-572
port	-573
RE	-574
▁cur	-575
ude	-576
▁auth	-577
▁----	-578
info	-579
fil	-580
▁H	-581
▁jo	-582
ON	-583
fix	-584
▁py	-585
▁this	-586
cation	-587
▁response	-588
ost	-589
ody	-590
quence	-591
ersion	-592
cs	-593
▁has	-594
▁text	-595
▁parse	-596
▁token	-597
▁cls	-598
pa	-599
uld	-600
lock	-601
CheckDefinitionA	-602
ight	-603
▁we	-604
ree	-605
text	-606
▁date	-607
ution	-608
che	-609
1'	-610
ameters	-611
:`	-612
▁dep	-613
auth	-614
uil	-615
▁pass	-616
ir	-617
ial	-618
▁run	-619
ces	-620
ler	-621
▁spr	-622
ould	-623
In	-624
own	-625
▁W	-626
ctory	-627
ates	-628
▁index	-629
ress	-630
▁valid	-631
ER	-632
▁'/	-633
instance	-634
col	-635
unc	-636
▁command	-637
Test	-638
▁<	-639
▁values	-640
▁read	-641
▁find	-642
▁10	-643
class	-644
▁target	-645
raph	-646
ard	-647
ST	-648
entic	-649
act	-650
tifi	-651
lat	-652
ints	-653
▁gener	-654
▁pr	-655
Be	-656
▁load	-657
▁base	-658
▁Ar	-659
ies	-660
▁headers	-661
Name	-662
▁update	-663
mal	-664
):	-665
bel	-666
coding	-667
AT	-668
ant	-669
▁match	-670
ock	-671
return	-672
ink	-673
ustom	-674
default	-675
object	-676
load	-677
12	-678
▁os	-679
▁z	-680
▁Value	-681
valid	-682
ak	-683
▁version	-684
ump	-685
back	-686
quire	-687
▁range	-688
▁Th	-689
▁can	-690
▁imp	-691
no	-692
ns	-693
▁param	-694
lete	-695
▁obj	-696
True	-697
min	-698
bove	-699
).	-700
annel	-701
▁contain	-702
iven	-703
Below	-704
uct	-705
▁min	-706
rect	-707
▁ele	-708
line	-709
01	-710
▁ac	-711
add	-712
ache	-713
emp	-714
ab	-715
with	-716
▁speci	-717
▁mock	-718
▁6	-719
▁/	-720
▁req	-721
▁image	-722
▁end	-723
place	-724
ME	-725
io	-726
Con	-727
plit	-728
ils	-729
▁append	-730
ome	-731
ml	-732
▁sy	-733
IN	-734
▁num	-735
scri	-736
▁other	-737
',	-738
▁dist	-739
▁shape	-740
▁content	-741
ark	-742
ong	-743
▁eli	-744
ep	-745
▁ValueError	-746
ash	-747
ptions	-748
▁print	-749
▁query	-750
ict	-751
gist	-752
do	-753
PE	-754
http	-755
▁given	-756
ension	-757
▁arg	-758
▁should	-759
▁use	-760
ap	-761
nd	-762
sent	-763
▁event	-764
▁code	-765
▁call	-766
▁line	-767
rig	-768
vert	-769
sco	-770
uri	-771
config	-772
ory	-773
sition	-774
▁model	-775
▁isinstance	-776
▁ver	-777
▁used	-778
▁List	-779
bs	-780
user	-781
action	-782
▁elif	-783
base	-784
▁pi	-785
node	-786
▁trans	-787
json	-788
pping	-789
index	-790
adata	-791
ec	-792
var	-793
ature	-794
ang	-795
cre	-796
ok	-797
▁This	-798
we	-799
▁size	-800
enticate	-801
odule	-802
{}	-803
tern	-804
rectory	-805
BelowSeverity	-806
▁cal	-807
▁>	-808
▁try	-809
LE	-810
▁join	-811
lib	-812
its	-813
token	-814
▁first	-815
com	-816
▁tuple	-817
▁custom	-818
not	-819
way	-820
▁le	-821
▁Se	-822
ting	-823
▁ent	-824
ll	-825
ear	-826
▁ms	-827
UT	-828
mode	-829
sor	-830
0000	-831
lines	-832
▁Ex	-833
▁channel	-834
tes	-835
▁Args	-836
▁split	-837
andler	-838
▁info	-839
ites	-840
ures	-841
iter	-842
files	-843
▁An	-844
ations	-845
.'	-846
▁X	-847
:/	-848
andom	-849
▁ne	-850
si	-851
▁doc	-852
cate	-853
feren	-854
▁state	-855
▁const	-856
Ex	-857
cul	-858
net	-859
▁except	-860
led	-861
pen	-862
ich	-863
▁iter	-864
group	-865
ach	-866
cord	-867
▁remove	-868
▁assertTrue	-869
Id	-870
▁8	-871
▁count	-872
▁ser	-873
▁client	-874
OR	-875
://	-876
For	-877
ual	-878
▁pytest	-879
idth	-880
====	-881
▁one	-882
request	-883
▁source	-884
▁msg	-885
▁must	-886
▁encoding	-887
state	-888
▁depth	-889
▁per	-890
tadata	-891
tent	-892
▁diction	-893
_1	-894
▁K	-895
▁params	-896
map	-897
▁work	-898
▁0.0	-899
check	-900
▁which	-901
boveSeverity	-902
Dpt	-903
▁sample	-904
▁Data	-905
clude	-906
▁Par	-907
que	-908
length	-909
late	-910
ception	-911
unk	-912
▁sequence	-913
work	-914
filename	-915
▁logger	-916
▁replace	-917
▁J	-918
▁speed	-919
ify	-920
sing	-921
sub	-922
▁Un	-923
▁Optional	-924
▁tra	-925
ste	-926
▁whe	-927
lable	-928
os	-929
obj	-930
dentifi	-931
params	-932
gest	-933
erson	-934
elds	-935
▁no	-936
▁bu	-937
comp	-938
dent	-939
▁specifi	-940
amp	-941
ning	-942
▁table	-943
version	-944
▁current	-945
▁any	-946
▁optional	-947
parse	-948
▁sign	-949
ference	-950
ron	-951
▁ta	-952
uration	-953
are	-954
ormal	-955
start	-956
▁delete	-957
▁ht	-958
▁make	-959
▁header	-960
message	-961
▁--------	-962
▁ax	-963
present	-964
headers	-965
ull	-966
rib	-967
ps	-968
▁low	-969
ws	-970
▁fa	-971
lose	-972
▁Con	-973
order	-974
▁su	-975
ises	-976
▁lines	-977
▁act	-978
▁message	-979
ID	-980
▁write	-981
With	-982
▁json	-983
temp	-984
method	-985
ft	-986
▁100	-987
2'	-988
▁inter	-989
ore	-990
Lines	-991
Type	-992
point	-993
thon	-994
TT	-995
old	-996
50	-997
ized	-998
ream	-999
jo	-1000
▁In	-1001
riv	-1002
▁bit	-1003
▁status	-1004
rol	-1005
iable	-1006
host	-1007
UL	-1008
ses	-1009
yn	-1010
api	-1011
cond	-1012
()	-1013
▁temp	-1014
app	-1015
fa	-1016
▁bin	-1017
St	-1018
ribution	-1019
▁password	-1020
keys	-1021
ild	-1022
max	-1023
astq	-1024
▁instance	-1025
like	-1026
▁non	-1027
▁init	-1028
▁cor	-1029
igh	-1030
▁lat	-1031
▁extra	-1032
▁dictionary	-1033
ound	-1034
▁sort	-1035
ants	-1036
Le	-1037
▁7	-1038
be	-1039
iss	-1040
result	-1041
▁mark	-1042
trib	-1043
▁over	-1044
arcode	-1045
▁context	-1046
▁stri	-1047
▁keys	-1048
Frame	-1049
▁Dict	-1050
create	-1051
ote	-1052
write	-1053
▁!	-1054
ield	-1055
File	-1056
itle	-1057
www	-1058
▁last	-1059
ele	-1060
▁filter	-1061
lan	-1062
0'	-1063
▁represent	-1064
No	-1065
▁label	-1066
og	-1067
▁search	-1068
eger	-1069
▁sprite	-1070
▁db	-1071
attr	-1072
▁save	-1073
▁seri	-1074
dentifier	-1075
▁tag	-1076
▁only	-1077
fy	-1078
▁datetime	-1079
▁sa	-1080
quirements	-1081
▁convert	-1082
lim	-1083
▁Any	-1084
uments	-1085
ait	-1086
▁+=	-1087
▁nd	-1088
▁ut	-1089
▁import	-1090
allo	-1091
AL	-1092
als	-1093
▁api	-1094
format	-1095
▁char	-1096
▁pd	-1097
▁word	-1098
▁!=	-1099
▁sc	-1100
Level	-1101
spaces	-1102
▁module	-1103
run	-1104
ally	-1105
▁directory	-1106
---	-1107
ert	-1108
_2	-1109
▁element	-1110
uild	-1111
▁exist	-1112
len	-1113
KE	-1114
▁order	-1115
ey	-1116
▁each	-1117
frame	-1118
names	-1119
header	-1120
▁Parameters	-1121
foo	-1122
▁generate	-1123
▁----------	-1124
ook	-1125
▁func	-1126
▁when	-1127
▁regist	-1128
▁im	-1129
▁1.0	-1130
da	-1131
nect	-1132
mail	-1133
▁mat	-1134
▁random	-1135
",	-1136
num	-1137
lection	-1138
),	-1139
call	-1140
▁then	-1141
xy	-1142
▁ndarray	-1143
itude	-1144
quired	-1145
▁'1	-1146
▁field	-1147
▁metadata	-1148
func	-1149
▁Function	-1150
mpty	-1151
command	-1152
ref	-1153
lean	-1154
status	-1155
▁prefix	-1156
gment	-1157
▁graph	-1158
cat	-1159
▁ali	-1160
Pro	-1161
md	-1162
▁12	-1163
▁Get	-1164
output	-1165
scal	-1166
aises	-1167
tx	-1168
▁batch	-1169
day	-1170
▁body	-1171
64	-1172
▁9	-1173
client	-1174
use	-1175
tuple	-1176
so	-1177
umpy	-1178
▁De	-1179
ches	-1180
')	-1181
process	-1182
uilder	-1183
AR	-1184
mult	-1185
esp	-1186
umn	-1187
ffer	-1188
search	-1189
dd	-1190
mension	-1191
▁mapping	-1192
tSeverity	-1193
rest	-1194
inter	-1195
▁room	-1196
face	-1197
ix	-1198
onth	-1199
IT	-1200
arg	-1201
▁fe	-1202
▁session	-1203
atures	-1204
▁provi	-1205
CT	-1206
ensor	-1207
ner	-1208
ld	-1209
scope	-1210
▁groups	-1211
oc	-1212
▁returns	-1213
bit	-1214
ordin	-1215
▁width	-1216
▁setting	-1217
gno	-1218
▁http	-1219
SE	-1220
wise	-1221
olve	-1222
rypt	-1223
lob	-1224
igin	-1225
right	-1226
▁where	-1227
▁|	-1228
Par	-1229
▁lower	-1230
▁validate	-1231
False	-1232
▁bra	-1233
trans	-1234
ifi	-1235
ging	-1236
image	-1237
reads	-1238
▁ref	-1239
▁level	-1240
ou	-1241
exc	-1242
▁exp	-1243
cy	-1244
event	-1245
▁-------	-1246
WW	-1247
nection	-1248
dep	-1249
Not	-1250
▁parent	-1251
▁dataset	-1252
arning	-1253
▁point	-1254
▁but	-1255
▁post	-1256
▁encode	-1257
ugin	-1258
▁items	-1259
▁igno	-1260
▁host	-1261
▁year	-1262
ats	-1263
.5	-1264
YPE	-1265
▁MA	-1266
▁block	-1267
▁sup	-1268
▁tri	-1269
ume	-1270
Co	-1271
gor	-1272
main	-1273
▁dtype	-1274
▁identifier	-1275
last	-1276
▁length	-1277
handler	-1278
sche	-1279
viron	-1280
`,	-1281
Path	-1282
▁process	-1283
Data	-1284
ids	-1285
▁ed	-1286
pri	-1287
new	-1288
non	-1289
Is	-1290
sign	-1291
asic	-1292
stra	-1293
▁allow	-1294
`.	-1295
▁DataFrame	-1296
ram	-1297
▁variable	-1298
▁axis	-1299
.2	-1300
err	-1301
va	-1302
▁local	-1303
olution	-1304
EF	-1305
▁serial	-1306
▁specified	-1307
':	-1308
▁files	-1309
label	-1310
stamp	-1311
▁dt	-1312
ible	-1313
▁raises	-1314
▁open	-1315
▁sp	-1316
resh	-1317
issing	-1318
rix	-1319
▁St	-1320
cache	-1321
ous	-1322
▁have	-1323
▁into	-1324
▁ext	-1325
▁pack	-1326
current	-1327
ULT	-1328
etch	-1329
▁person	-1330
su	-1331
bug	-1332
man	-1333
▁pl	-1334
▁position	-1335
▁weight	-1336
None	-1337
ject	-1338
icode	-1339
response	-1340
▁raw	-1341
▁exec	-1342
="	-1343
cent	-1344
ternal	-1345
update	-1346
99	-1347
pix	-1348
authenticate	-1349
-0	-1350
DB	-1351
bi	-1352
mbda	-1353
TTP	-1354
▁username	-1355
▁returned	-1356
Body	-1357
equal	-1358
df	-1359
rc	-1360
RL	-1361
rid	-1362
ErrorLevel	-1363
▁send	-1364
les	-1365
tal	-1366
fter	-1367
ain	-1368
indow	-1369
AN	-1370
▁ws	-1371
509	-1372
▁while	-1373
▁include	-1374
ons	-1375
spe	-1376
▁resource	-1377
▁uri	-1378
▁indi	-1379
▁brake	-1380
▁FunctionBody	-1381
wo	-1382
scape	-1383
10	-1384
}'	-1385
cor	-1386
55	-1387
stem	-1388
number	-1389
table	-1390
▁ret	-1391
yp	-1392
▁timeout	-1393
ek	-1394
CO	-1395
▁q	-1396
▁mask	-1397
PI	-1398
ped	-1399
▁vi	-1400
lector	-1401
▁integer	-1402
sy	-1403
ze	-1404
▁sk	-1405
sum	-1406
umns	-1407
Builder	-1408
▁namespace	-1409
TYPE	-1410
sample	-1411
UM	-1412
layers	-1413
34	-1414
duct	-1415
ED	-1416
gre	-1417
gn	-1418
fore	-1419
sure	-1420
▁sprites	-1421
des	-1422
ertifi	-1423
lip	-1424
▁Type	-1425
row	-1426
▁exception	-1427
)'	-1428
1_	-1429
hash	-1430
▁'2	-1431
('	-1432
ted	-1433
ched	-1434
▁form	-1435
ffi	-1436
▁escape	-1437
▁options	-1438
▁safe	-1439
▁bytes	-1440
▁HTTP	-1441
▁hand	-1442
Default	-1443
▁account	-1444
my	-1445
▁cache	-1446
▁objects	-1447
link	-1448
▁port	-1449
▁than	-1450
tribute	-1451
mt	-1452
▁ob	-1453
down	-1454
▁For	-1455
orter	-1456
▁representing	-1457
input	-1458
▁pri	-1459
▁dump	-1460
▁scal	-1461
raw	-1462
{}'	-1463
float	-1464
▁second	-1465
utes	-1466
rigger	-1467
na	-1468
lect	-1469
content	-1470
▁--	-1471
▁strip	-1472
8'	-1473
":	-1474
."""	-1475
▁constants	-1476
▁0.5	-1477
▁pos	-1478
▁parameter	-1479
ION	-1480
pts	-1481
off	-1482
EN	-1483
post	-1484
bar	-1485
▁Union	-1486
▁fastq	-1487
function	-1488
To	-1489
▁barcode	-1490
ng	-1491
▁device	-1492
▁server	-1493
ved	-1494
crypt	-1495
SS	-1496
▁copy	-1497
SON	-1498
values	-1499
▁using	-1500
term	-1501
.1	-1502
db	-1503
zone	-1504
▁record	-1505
peration	-1506
▁results	-1507
▁MAX	-1508
older	-1509
▁origin	-1510
RI	-1511
filter	-1512
first	-1513
pack	-1514
EFA	-1515
EFAULT	-1516
▁'%	-1517
ollow	-1518
lication	-1519
▁link	-1520
struct	-1521
▁patch	-1522
▁parameters	-1523
pos	-1524
▁back	-1525
▁digest	-1526
FunctionLengths	-1527
tag	-1528
ertificate	-1529
Foo	-1530
▁sco	-1531
▁row	-1532
cimal	-1533
▁vname	-1534
esponse	-1535
▁height	-1536
▁register	-1537
▁assertEquals	-1538
eg	-1539
``.	-1540
▁lambda	-1541
mplement	-1542
NoL	-1543
▁lon	-1544
▁net	-1545
▁root	-1546
ical	-1547
▁expr	-1548
▁debug	-1549
▁typ	-1550
limit	-1551
ormalize	-1552
ents	-1553
scription	-1554
▁location	-1555
rivate	-1556
AC	-1557
oly	-1558
▁16	-1559
trol	-1560
conds	-1561
model	-1562
▁comm	-1563
▁Check	-1564
▁found	-1565
='	-1566
yle	-1567
▁layer	-1568
NA	-1569
close	-1570
▁buffer	-1571
vironment	-1572
ision	-1573
ell	-1574
gen	-1575
▁page	-1576
▁task	-1577
loc	-1578
tree	-1579
▁env	-1580
56	-1581
plic	-1582
▁does	-1583
3'	-1584
▁initial	-1585
▁wra	-1586
match	-1587
range	-1588
imp	-1589
lank	-1590
repr	-1591
▁pas	-1592
▁20	-1593
▁so	-1594
river	-1595
ux	-1596
32	-1597
▁ag	-1598
▁del	-1599
ready	-1600
▁empty	-1601
11	-1602
sort	-1603
▁pat	-1604
rot	-1605
▁man	-1606
tring	-1607
requirements	-1608
FI	-1609
▁long	-1610
▁next	-1611
▁cent	-1612
▁sing	-1613
context	-1614
nan	-1615
▁pe	-1616
▁case	-1617
cla	-1618
▁'-	-1619
Base	-1620
lot	-1621
▁``'	-1622
target	-1623
▁mult	-1624
▁pay	-1625
ster	-1626
▁required	-1627
verse	-1628
returns	-1629
uid	-1630
▁entry	-1631
▁fields	-1632
▁authenticate	-1633
utf	-1634
ving	-1635
▁top	-1636
field	-1637
▁address	-1638
pha	-1639
▁month	-1640
position	-1641
bytes	-1642
ca	-1643
Request	-1644
▁insert	-1645
resource	-1646
▁reference	-1647
**	-1648
▁provided	-1649
▁ge	-1650
spon	-1651
bin	-1652
orm	-1653
▁verify	-1654
],	-1655
uage	-1656
▁two	-1657
ccess	-1658
▁Path	-1659
▁warning	-1660
bose	-1661
char	-1662
pass	-1663
▁pop	-1664
▁vexc	-1665
▁calcul	-1666
template	-1667
depth	-1668
rection	-1669
pher	-1670
▁JSON	-1671
▁service	-1672
queue	-1673
ET	-1674
anguage	-1675
TE	-1676
vo	-1677
mbed	-1678
ordinates	-1679
ager	-1680
▁transform	-1681
▁passed	-1682
vol	-1683
imum	-1684
verage	-1685
ha	-1686
▁Pro	-1687
▁you	-1688
▁attr	-1689
▁title	-1690
blem	-1691
33	-1692
hook	-1693
▁child	-1694
orage	-1695
Up	-1696
cf	-1697
``,	-1698
now	-1699
▁dimension	-1700
EL	-1701
▁df	-1702
20	-1703
▁inst	-1704
▁example	-1705
hs	-1706
fer	-1707
sprite	-1708
wd	-1709
vai	-1710
▁move	-1711
▁container	-1712
cret	-1713
points	-1714
▁numpy	-1715
▁DEFAULT	-1716
▁headername	-1717
▁TypeError	-1718
▁Y	-1719
batch	-1720
body	-1721
▁real	-1722
▁true	-1723
ni	-1724
ans	-1725
prefix	-1726
▁chunk	-1727
▁total	-1728
contain	-1729
List	-1730
ative	-1731
ulation	-1732
::	-1733
▁ignore	-1734
dist	-1735
exist	-1736
▁points	-1737
els	-1738
hen	-1739
req	-1740
enerate	-1741
bu	-1742
remove	-1743
TA	-1744
▁fetch	-1745
▁arguments	-1746
By	-1747
▁actual	-1748
========	-1749
▁<=	-1750
▁Ser	-1751
types	-1752
▁blog	-1753
ility	-1754
▁edge	-1755
▁same	-1756
cle	-1757
andid	-1758
ness	-1759
KEY	-1760
ined	-1761
▁err	-1762
▁typing	-1763
clar	-1764
▁callback	-1765
LA	-1766
▁day	-1767
▁fla	-1768
ocket	-1769
▁left	-1770
mbol	-1771
open	-1772
▁single	-1773
gle	-1774
org	-1775
reak	-1776
formation	-1777
ING	-1778
▁gen	-1779
▁map	-1780
tags	-1781
▁dir	-1782
az	-1783
service	-1784
▁action	-1785
ors	-1786
doc	-1787
regist	-1788
vailable	-1789
▁Z	-1790
ization	-1791
MS	-1792
deta	-1793
▁bet	-1794
▁based	-1795
▁resolve	-1796
▁samples	-1797
distance	-1798
▁package	-1799
scale	-1800
abc	-1801
room	-1802
print	-1803
▁names	-1804
threads	-1805
▁assertFalse	-1806
NAME	-1807
local	-1808
▁abs	-1809
https	-1810
▁frame	-1811
ics	-1812
unter	-1813
wait	-1814
▁byte	-1815
▁ensure	-1816
perty	-1817
source	-1818
▁importer	-1819
GB	-1820
▁Default	-1821
kw	-1822
▁'_	-1823
stru	-1824
▁connect	-1825
del	-1826
▁more	-1827
▁unit	-1828
▁Ma	-1829
▁pk	-1830
▁tx	-1831
erge	-1832
denti	-1833
ython	-1834
RO	-1835
edge	-1836
ero	-1837
abled	-1838
shape	-1839
Exception	-1840
seq	-1841
ween	-1842
graph	-1843
▁old	-1844
▁created	-1845
▁document	-1846
Bad	-1847
vide	-1848
▁best	-1849
cc	-1850
box	-1851
mand	-1852
CheckA	-1853
▁close	-1854
Dict	-1855
other	-1856
▁segment	-1857
ian	-1858
lobal	-1859
ppl	-1860
atic	-1861
pplint	-1862
▁distance	-1863
▁Exception	-1864
000	-1865
▁was	-1866
1,	-1867
US	-1868
latz	-1869
session	-1870
▁ass	-1871
▁sim	-1872
▁tmp	-1873
address	-1874
▁stream	-1875
▁ast	-1876
ES	-1877
▁vars	-1878
vars	-1879
width	-1880
scheme	-1881
Key	-1882
ync	-1883
▁hash	-1884
Raises	-1885
▁job	-1886
▁stop	-1887
itive	-1888
▁correct	-1889
▁skip	-1890
▁requests	-1891
thing	-1892
▁tree	-1893
▁metri	-1894
izer	-1895
▁Example	-1896
namespaces	-1897
hand	-1898
▁reg	-1899
▁sent	-1900
▁control	-1901
mem	-1902
▁Co	-1903
ript	-1904
entry	-1905
▁logging	-1906
▁elements	-1907
med	-1908
▁sum	-1909
bound	-1910
dition	-1911
serial	-1912
Al	-1913
▁'.	-1914
lease	-1915
▁assertRaises	-1916
▁dest	-1917
▁report	-1918
]'	-1919
▁cl	-1920
hist	-1921
query	-1922
LO	-1923
hel	-1924
extra	-1925
▁utils	-1926
ib	-1927
▁pix	-1928
rate	-1929
features	-1930
comm	-1931
aly	-1932
▁Me	-1933
sk	-1934
rtype	-1935
script	-1936
▁blogname	-1937
▁wr	-1938
▁web	-1939
▁diff	-1940
▁view	-1941
▁Tuple	-1942
▁collatz	-1943
gex	-1944
txt	-1945
du	-1946
Set	-1947
▁fp	-1948
build	-1949
▁meta	-1950
▁exists	-1951
ways	-1952
▁sorted	-1953
'``	-1954
▁contains	-1955
UN	-1956
▁step	-1957
▁contin	-1958
lied	-1959
wash	-1960
▁email	-1961
24	-1962
▁some	-1963
▁Cal	-1964
annot	-1965
ipher	-1966
ither	-1967
▁build	-1968
▁containing	-1969
▁full	-1970
▁200	-1971
cated	-1972
▁high	-1973
▁types	-1974
▁information	-1975
ique	-1976
▁also	-1977
▁yield	-1978
jobs	-1979
delete	-1980
sequence	-1981
▁verbose	-1982
ips	-1983
html	-1984
over	-1985
ollowing	-1986
idd	-1987
utor	-1988
▁dat	-1989
Class	-1990
▁repe	-1991
UTH	-1992
location	-1993
▁strings	-1994
direct	-1995
termin	-1996
▁columns	-1997
▁extract	-1998
36	-1999
▁labels	-2000
stream	-2001
▁change	-2002
claration	-2003
ason	-2004
▁tags	-2005
▁center	-2006
▁argument	-2007
▁It	-2008
Field	-2009
ick	-2010
math	-2011
iddle	-2012
title	-2013
erm	-2014
ood	-2015
stead	-2016
-8'	-2017
▁wait	-2018
fields	-2019
Ser	-2020
▁cert	-2021
▁iterable	-2022
OL	-2023
env	-2024
▁off	-2025
▁rule	-2026
▁separ	-2027
Declaration	-2028
▁rows	-2029
▁binary	-2030
▁ab	-2031
cies	-2032
ithm	-2033
nown	-2034
▁'/'	-2035
▁rev	-2036
Blank	-2037
CheckDeclaration	-2038
gory	-2039
▁li	-2040
folder	-2041
▁trace	-2042
ered	-2043
▁cate	-2044
▁nonce	-2045
▁multip	-2046
16	-2047
Get	-2048
▁FI	-2049
▁Is	-2050
▁iss	-2051
▁transaction	-2052
ose	-2053
dius	-2054
▁align	-2055
example	-2056
ards	-2057
multus	-2058
person	-2059
WithNoL	-2060
internal	-2061
2_	-2062
[0	-2063
ten	-2064
view	-2065
▁named	-2066
reference	-2067
▁collection	-2068
most	-2069
kwargs	-2070
▁instead	-2071
IO	-2072
mplex	-2073
▁Trans	-2074
mean	-2075
coder	-2076
module	-2077
II	-2078
▁URL	-2079
angle	-2080
▁upper	-2081
▁timestamp	-2082
▁Key	-2083
aries	-2084
▁distribution	-2085
ression	-2086
▁overri	-2087
ceph	-2088
find	-2089
root	-2090
control	-2091
task	-2092
▁right	-2093
Response	-2094
AD	-2095
fra	-2096
mock	-2097
licit	-2098
Do	-2099
0.0	-2100
uto	-2101
▁hex	-2102
dered	-2103
▁corre	-2104
rop	-2105
▁ts	-2106
python	-2107
▁signature	-2108
00'	-2109
▁fix	-2110
lipse	-2111
import	-2112
▁window	-2113
▁pair	-2114
IME	-2115
lit	-2116
▁Not	-2117
record	-2118
▁Raises	-2119
andard	-2120
quires	-2121
parameters	-2122
▁connection	-2123
▁seq	-2124
▁String	-2125
▁parsed	-2126
cp	-2127
▁rece	-2128
▁decode	-2129
metadata	-2130
▁Trigger	-2131
rt	-2132
copy	-2133
namespace	-2134
ient	-2135
ions	-2136
▁Set	-2137
uster	-2138
▁modi	-2139
imetype	-2140
pub	-2141
▁ca	-2142
matrix	-2143
gorithm	-2144
timeout	-2145
▁TriggerLines	-2146
5'	-2147
af	-2148
mary	-2149
plica	-2150
ries	-2151
chunk	-2152
ending	-2153
▁cipher	-2154
pression	-2155
▁fastqread	-2156
git	-2157
mount	-2158
change	-2159
▁RDB	-2160
words	-2161
▁charact	-2162
▁calculate	-2163
▁requirements	-2164
▁'.'	-2165
▁'{}	-2166
▁missing	-2167
▁compute	-2168
server	-2169
▁bound	-2170
▁already	-2171
▁settings	-2172
Res	-2173
▁si	-2174
▁exc	-2175
▁candid	-2176
▁encoded	-2177
▁original	-2178
IC	-2179
Me	-2180
▁#	-2181
block	-2182
▁whether	-2183
Un	-2184
▁gre	-2185
:`~	-2186
bot	-2187
ias	-2188
xon	-2189
Content	-2190
▁continue	-2191
mark	-2192
icro	-2193
CH	-2194
stats	-2195
▁network	-2196
ird	-2197
iled	-2198
▁color	-2199
ful	-2200
pol	-2201
AUTH	-2202
alid	-2203
ating	-2204
▁column	-2205
40	-2206
▁indent	-2207
mi	-2208
▁Col	-2209
fastq	-2210
▁':	-2211
▁..	-2212
next	-2213
stop	-2214
called	-2215
▁18	-2216
gate	-2217
mplemented	-2218
▁ID	-2219
inal	-2220
sets	-2221
ctions	-2222
Ch	-2223
au	-2224
▁Iter	-2225
▁otherwise	-2226
TH	-2227
fn	-2228
make	-2229
page	-2230
ular	-2231
cations	-2232
rase	-2233
RGB	-2234
▁ow	-2235
▁weights	-2236
Ar	-2237
▁template	-2238
cii	-2239
the	-2240
▁boo	-2241
▁hel	-2242
child	-2243
encoding	-2244
▁seed	-2245
▁place	-2246
▁called	-2247
▁correspon	-2248
▁wrap	-2249
▁after	-2250
▁Python	-2251
cv	-2252
▁generated	-2253
unds	-2254
▁parame	-2255
cker	-2256
indi	-2257
swith	-2258
secret	-2259
barcode	-2260
unicode	-2261
/'	-2262
ush	-2263
Auth	-2264
▁API	-2265
▁opt	-2266
Value	-2267
network	-2268
▁retval	-2269
_3	-2270
tot	-2271
▁sq	-2272
lear	-2273
▁sche	-2274
▁train	-2275
▁symbol	-2276
ax	-2277
▁DM	-2278
▁IR	-2279
antity	-2280
▁entity	-2281
▁inputs	-2282
fl	-2283
ends	-2284
])	-2285
Time	-2286
case	-2287
tach	-2288
▁sys	-2289
element	-2290
CS	-2291
NG	-2292
▁\\	-2293
ords	-2294
score	-2295
▁dataframe	-2296
wi	-2297
▁'[	-2298
▁ip	-2299
▁player	-2300
><	-2301
UR	-2302
real	-2303
ators	-2304
ommand	-2305
phrase	-2306
cular	-2307
▁nodes	-2308
▁recur	-2309
licy	-2310
▁pub	-2311
structor	-2312
▁available	-2313
ece	-2314
Info	-2315
only	-2316
stri	-2317
▁proxy	-2318
▁Return	-2319
EX	-2320
_0	-2321
▁cr	-2322
META	-2323
▁box	-2324
▁datat	-2325
password	-2326
aff	-2327
top	-2328
flow	-2329
▁its	-2330
plugin	-2331
urons	-2332
▁game	-2333
▁either	-2334
▁condition	-2335
4'	-2336
clu	-2337
iod	-2338
less	-2339
▁fit	-2340
▁RDBQ	-2341
▁eval	-2342
stract	-2343
factory	-2344
▁handler	-2345
ATE	-2346
uess	-2347
▁cmd	-2348
▁ids	-2349
▁mean	-2350
66	-2351
nr	-2352
mux	-2353
Down	-2354
▁main	-2355
▁put	-2356
nodes	-2357
▁contents	-2358
gin	-2359
▁fail	-2360
▁handle	-2361
▁plugin	-2362
▁database	-2363
entication	-2364
25	-2365
orch	-2366
empty	-2367
▁clean	-2368
product	-2369
▁direction	-2370
OK	-2371
dt	-2372
utils	-2373
▁FILE	-2374
Di	-2375
oto	-2376
▁down	-2377
extension	-2378
sur	-2379
▁idx	-2380
verter	-2381
▁access	-2382
▁parametri	-2383
78	-2384
oi	-2385
reg	-2386
▁To	-2387
enabled	-2388
directory	-2389
En	-2390
MP	-2391
csv	-2392
▁{}	-2393
interval	-2394
([	-2395
▁Q	-2396
lain	-2397
labels	-2398
▁specify	-2399
IR	-2400
let	-2401
anis	-2402
eval	-2403
exec	-2404
▁proces	-2405
GG	-2406
pat	-2407
▁description	-2408
aml	-2409
lict	-2410
step	-2411
▁rot	-2412
split	-2413
▁alpha	-2414
IP	-2415
TO	-2416
tocol	-2417
▁Note	-2418
fice	-2419
umer	-2420
▁Mock	-2421
▁parametrize	-2422
ared	-2423
▁buf	-2424
Returns	-2425
▁Sequence	-2426
vious	-2427
▁supp	-2428
tensor	-2429
▁driver	-2430
▁perform	-2431
▁setup	-2432
aded	-2433
hape	-2434
mask	-2435
metri	-2436
▁depen	-2437
▁raised	-2438
3.	-2439
RA	-2440
bet	-2441
msg	-2442
cert	-2443
▁'\\	-2444
parent	-2445
parser	-2446
▁maximum	-2447
▁assertIs	-2448
cifi	-2449
▁mass	-2450
istribution	-2451
▁packageName	-2452
98	-2453
tom	-2454
Line	-2455
reshold	-2456
▁constra	-2457
▁seconds	-2458
Man	-2459
kub	-2460
ling	-2461
▁www	-2462
dentials	-2463
▁between	-2464
▁datatype	-2465
▁variables	-2466
▁exceptions	-2467
▁15	-2468
png	-2469
ency	-2470
ffix	-2471
logy	-2472
▁runs	-2473
pk	-2474
pair	-2475
▁'-'	-2476
▁'1'	-2477
▁big	-2478
▁vect	-2479
results	-2480
▁boolean	-2481
17	-2482
5_	-2483
sa	-2484
nder	-2485
▁geo	-2486
▁may	-2487
▁1000	-2488
▁matrix	-2489
eb	-2490
lon	-2491
bool	-2492
very	-2493
▁force	-2494
▁FILETYPE	-2495
▁Po	-2496
report	-2497
30	-2498
tils	-2499
▁bits	-2500
▁configuration	-2501
exp	-2502
web	-2503
lide	-2504
pper	-2505
connect	-2506
▁features	-2507
▁coordinates	-2508
SI	-2509
items	-2510
cursor	-2511
▁alias	-2512
▁space	-2513
self	-2514
Found	-2515
paths	-2516
▁style	-2517
termine	-2518
operation	-2519
▁2.0	-2520
▁pkey	-2521
▁spec	-2522
▁namedtuple	-2523
▁torch	-2524
tributes	-2525
▁En	-2526
cept	-2527
oked	-2528
▁sig	-2529
Lo	-2530
las	-2531
▁LG	-2532
come	-2533
vers	-2534
scalar	-2535
▁pathway	-2536
▁compression	-2537
DE	-2538
Or	-2539
OST	-2540
ulf	-2541
void	-2542
▁errors	-2543
▁system	-2544
QU	-2545
▁merge	-2546
▁repeat	-2547
▁interface	-2548
ie	-2549
pay	-2550
▁255	-2551
▁When	-2552
ration	-2553
▁there	-2554
decimal	-2555
head	-2556
unit	-2557
▁both	-2558
▁normal	-2559
sis	-2560
game	-2561
rites	-2562
access	-2563
digest	-2564
▁arrays	-2565
tle	-2566
meth	-2567
▁ipix	-2568
ssible	-2569
ellipse	-2570
private	-2571
▁success	-2572
▁micro	-2573
▁stack	-2574
▁models	-2575
▁pixels	-2576
uted	-2577
▁attribute	-2578
▁passphrase	-2579
CK	-2580
ols	-2581
▁Or	-2582
▁tr	-2583
grid	-2584
▁norm	-2585
▁Create	-2586
▁offset	-2587
contains	-2588
validate	-2589
▁Request	-2590
▁payload	-2591
normalize	-2592
▁NO	-2593
atio	-2594
▁{}'	-2595
▁like	-2596
vation	-2597
cni	-2598
Client	-2599
▁apply	-2600
▁stats	-2601
▁Series	-2602
▁tokens	-2603
ities	-2604
ulfill	-2605
▁dumps	-2606
disp	-2607
options	-2608
▁feature	-2609
▁pattern	-2610
▁>=	-2611
▁pkg	-2612
ogram	-2613
tab	-2614
User	-2615
Object	-2616
project	-2617
▁endpoint	-2618
SA	-2619
esc	-2620
IdDpt	-2621
▁project	-2622
dimension	-2623
vingspace	-2624
save	-2625
▁rel	-2626
Token	-2627
▁note	-2628
▁pick	-2629
gative	-2630
username	-2631
▁functions	-2632
44	-2633
Add	-2634
email	-2635
account	-2636
samples	-2637
▁',	-2638
▁11	-2639
tect	-2640
ward	-2641
▁com	-2642
delta	-2643
peline	-2644
▁RDBQC	-2645
▁unique	-2646
certificate	-2647
▁op	-2648
provi	-2649
actions	-2650
try	-2651
▁resp	-2652
logger	-2653
▁units	-2654
06	-2655
96	-2656
ture	-2657
▁require	-2658
▁startswith	-2659
Var	-2660
WWW	-2661
▁50	-2662
▁fn	-2663
basic	-2664
dicts	-2665
style	-2666
▁store	-2667
▁before	-2668
▁solution	-2669
job	-2670
poch	-2671
▁cre	-2672
ascii	-2673
nonce	-2674
Fa	-2675
LI	-2676
▁Ab	-2677
active	-2678
ported	-2679
▁domain	-2680
▁parser	-2681
allocations	-2682
ob	-2683
vid	-2684
store	-2685
▁Base	-2686
▁select	-2687
▁struct	-2688
▁sentence	-2689
keep	-2690
numpy	-2691
single	-2692
▁fname	-2693
2,	-2694
37	-2695
NT	-2696
API	-2697
dout	-2698
round	-2699
▁grid	-2700
Status	-2701
random	-2702
package	-2703
▁receiv	-2704
datetime	-2705
▁operation	-2706
CON	-2707
▁plot	-2708
sprites	-2709
meta	-2710
aller	-2711
umbna	-2712
▁Node	-2713
▁been	-2714
mplete	-2715
▁sched	-2716
▁masked	-2717
gu	-2718
▁zone	-2719
▁inner	-2720
mapping	-2721
okup	-2722
rary	-2723
▁standard	-2724
VER	-2725
plat	-2726
rive	-2727
gener	-2728
losur	-2729
▁rand	-2730
losurized	-2731
ern	-2732
▁src	-2733
▁deta	-2734
seconds	-2735
callback	-2736
endpoint	-2737
platform	-2738
▁duration	-2739
hex	-2740
State	-2741
1.	-2742
Pl	-2743
eq	-2744
depen	-2745
quare	-2746
insert	-2747
umbnail	-2748
▁events	-2749
compress	-2750
▁supplied	-2751
▁Distribution	-2752
OIN	-2753
SPE	-2754
exists	-2755
▁collector	-2756
On	-2757
hed	-2758
▁fl	-2759
clock	-2760
▁ship	-2761
▁they	-2762
groups	-2763
master	-2764
▁metric	-2765
Log	-2766
▁Di	-2767
cipi	-2768
odel	-2769
▁img	-2770
▁want	-2771
device	-2772
▁break	-2773
']	-2774
pop	-2775
week	-2776
price	-2777
▁cpplint	-2778
▁pathwayId	-2779
▁traceback	-2780
-1	-2781
-2	-2782
EST	-2783
ople	-2784
player	-2785
reated	-2786
umbers	-2787
expected	-2788
ki	-2789
mac	-2790
▁cs	-2791
once	-2792
▁basic	-2793
95	-2794
URL	-2795
ont	-2796
▁At	-2797
▁tf	-2798
cket	-2799
olyg	-2800
stit	-2801
▁0.1	-2802
▁see	-2803
--------	-2804
sq	-2805
asta	-2806
sive	-2807
Index	-2808
ancel	-2809
▁product	-2810
▁category	-2811
▁certificate	-2812
All	-2813
ank	-2814
mit	-2815
▁md	-2816
▁pod	-2817
tokens	-2818
▁radius	-2819
ings	-2820
▁sur	-2821
▁memb	-2822
lement	-2823
▁Config	-2824
▁Defaults	-2825
▁property	-2826
9.	-2827
ged	-2828
sup	-2829
erts	-2830
left	-2831
true	-2832
▁See	-2833
cision	-2834
▁scope	-2835
Pathway	-2836
SP	-2837
sim	-2838
▁org	-2839
erature	-2840
▁entries	-2841
allocated	-2842
▁language	-2843
gram	-2844
▁201	-2845
▁zip	-2846
Return	-2847
▁Callable	-2848
long	-2849
segment	-2850
▁normalize	-2851
dimensional	-2852
02	-2853
AG	-2854
td	-2855
▁now	-2856
utput	-2857
▁bold	-2858
▁disp	-2859
▁prepa	-2860
▁setUp	-2861
initial	-2862
AS	-2863
wh	-2864
▁'<	-2865
eros	-2866
memory	-2867
▁script	-2868
▁unicode	-2869
▁Abstract	-2870
▁nu	-2871
days	-2872
uris	-2873
▁loads	-2874
sig	-2875
▁conf	-2876
▁kind	-2877
olar	-2878
▁fut	-2879
train	-2880
▁show	-2881
crement	-2882
indices	-2883
▁concat	-2884
▁reshape	-2885
▁algorithm	-2886
▁ph	-2887
ater	-2888
▁'12	-2889
▁analy	-2890
language	-2891
▁defaults	-2892
▁instances	-2893
NUM	-2894
cut	-2895
dis	-2896
peak	-2897
Empty	-2898
plain	-2899
▁draw	-2900
▁pool	-2901
▁upon	-2902
▁guess	-2903
00000000	-2904
▁extension	-2905
▁tear	-2906
▁scale	-2907
▁matches	-2908
▁&	-2909
ForS	-2910
idget	-2911
▁head	-2912
▁need	-2913
▁part	-2914
Number	-2915
olygon	-2916
history	-2917
itional	-2918
▁encrypt	-2919
▁targets	-2920
▁tearDown	-2921
fin	-2922
oth	-2923
requ	-2924
▁diffe	-2925
rotation	-2926
▁timezone	-2927
▁2-	-2928
login	-2929
▁give	-2930
▁await	-2931
GI	-2932
Ia	-2933
fit	-2934
vari	-2935
ifier	-2936
onent	-2937
▁many	-2938
timestamp	-2939
cap	-2940
▁'{	-2941
trie	-2942
▁addr	-2943
cluded	-2944
encode	-2945
▁delta	-2946
▁equal	-2947
▁round	-2948
parameter	-2949
ef	-2950
:00	-2951
Ent	-2952
zip	-2953
ital	-2954
side	-2955
▁thread	-2956
resources	-2957
connection	-2958
ML	-2959
gy	-2960
activ	-2961
yscale	-2962
▁execute	-2963
▁validation	-2964
▁pol	-2965
ellow	-2966
locity	-2967
details	-2968
redirect	-2969
timezone	-2970
▁barcodedict	-2971
")	-2972
duce	-2973
▁Name	-2974
Almost	-2975
verify	-2976
▁clear	-2977
▁obser	-2978
▁author	-2979
▁reverse	-2980
▁Transaction	-2981
35	-2982
Po	-2983
TR	-2984
vial	-2985
▁sat	-2986
edges	-2987
onents	-2988
raises	-2989
scribe	-2990
profile	-2991
signature	-2992
▁serializ	-2993
fla	-2994
auss	-2995
▁ctx	-2996
▁ones	-2997
ordinate	-2998
register	-2999
WS	-3000
aa	-3001
Tri	-3002
dim	-3003
lig	-3004
pid	-3005
mote	-3006
raise	-3007
handle	-3008
▁lists	-3009
constra	-3010
BadRequest	-3011
0,	-3012
CE	-3013
tz	-3014
hes	-3015
509_	-3016
roll	-3017
SPEED	-3018
known	-3019
ranch	-3020
atches	-3021
▁parti	-3022
▁consts	-3023
CheckAbove	-3024
MA	-3025
ugh	-3026
year	-3027
▁html	-3028
Handler	-3029
AlmostEqual	-3030
48	-3031
cr	-3032
Node	-3033
bour	-3034
Config	-3035
errors	-3036
▁rules	-3037
channel	-3038
ighbour	-3039
rel	-3040
cast	-3041
pick	-3042
Manager	-3043
ndarray	-3044
▁expression	-3045
"'	-3046
wit	-3047
xml	-3048
▁(1	-3049
gress	-3050
middle	-3051
▁https	-3052
Require	-3053
include	-3054
▁active	-3055
▁Ch	-3056
send	-3057
yaml	-3058
▁mon	-3059
anism	-3060
▁parts	-3061
▁HTTPBadRequest	-3062
".	-3063
:%	-3064
CheckAt	-3065
▁amount	-3066
▁average	-3067
CheckBelow	-3068
eric	-3069
muxed	-3070
height	-3071
▁begin	-3072
NameDpt	-3073
columns	-3074
▁interval	-3075
cd	-3076
ULL	-3077
ift	-3078
Mock	-3079
book	-3080
ored	-3081
▁just	-3082
children	-3083
solution	-3084
Namespace	-3085
▁iterator	-3086
18	-3087
▁LO	-3088
arge	-3089
▁Foo	-3090
▁dot	-3091
▁rabi	-3092
▁score	-3093
▁how	-3094
utable	-3095
umerate	-3096
▁dictionaries	-3097
cls	-3098
Does	-3099
none	-3100
uron	-3101
▁sin	-3102
board	-3103
realm	-3104
▁paths	-3105
>'	-3106
▁1.	-3107
fact	-3108
inst	-3109
▁callable	-3110
▁revision	-3111
description	-3112
▁candidates	-3113
ily	-3114
ross	-3115
ested	-3116
olume	-3117
proxy	-3118
convert	-3119
▁common	-3120
▁CheckFor	-3121
▁generator	-3122
idx	-3123
mon	-3124
rep	-3125
▁32	-3126
ured	-3127
▁rect	-3128
▁angle	-3129
▁months	-3130
alpix	-3131
▁tran	-3132
▁added	-3133
mbedded	-3134
▁expand	-3135
▁vector	-3136
▁filepath	-3137
▁dependent	-3138
rm	-3139
cfgs	-3140
assert	-3141
weight	-3142
▁cluster	-3143
▁indices	-3144
▁invalid	-3145
▁trigger	-3146
▁30	-3147
ters	-3148
regex	-3149
▁colo	-3150
window	-3151
▁integ	-3152
ighbours	-3153
ZE	-3154
gra	-3155
color	-3156
▁flat	-3157
▁limit	-3158
▁stock	-3159
▁TestLines	-3160
NS	-3161
PEM	-3162
igar	-3163
ilar	-3164
mass	-3165
spec	-3166
Block	-3167
dates	-3168
column	-3169
vector	-3170
▁idDpt	-3171
require	-3172
▁previous	-3173
plot	-3174
▁pad	-3175
▁being	-3176
▁infos	-3177
▁owner	-3178
▁global	-3179
mbedding	-3180
Parameter	-3181
He	-3182
apt	-3183
has	-3184
▁As	-3185
▁fin	-3186
trace	-3187
▁doct	-3188
▁rate	-3189
loader	-3190
▁Column	-3191
▁static	-3192
▁tensor	-3193
▁subject	-3194
38	-3195
pu	-3196
▁RE	-3197
▁ns	-3198
▁comb	-3199
▁appro	-3200
▁proper	-3201
▁another	-3202
▁enumerate	-3203
▁longitude	-3204
application	-3205
card	-3206
Image	-3207
Utils	-3208
formed	-3209
▁chars	-3210
▁reset	-3211
exception	-3212
ulfillment	-3213
configuration	-3214
▁representation	-3215
IL	-3216
RICT	-3217
rows	-3218
▁dis	-3219
▁lib	-3220
▁utc	-3221
sumer	-3222
Result	-3223
setting	-3224
▁Number	-3225
▁series	-3226
▁namespaces	-3227
▁application	-3228
▁corresponding	-3229
PUT	-3230
▁{'	-3231
:`\\	-3232
akes	-3233
rabi	-3234
STRICT	-3235
▁activ	-3236
▁annot	-3237
▁async	-3238
▁piece	-3239
▁under	-3240
▁zeros	-3241
getitem	-3242
latform	-3243
requency	-3244
▁multiple	-3245
▁possible	-3246
constraint	-3247
np	-3248
▁24	-3249
imal	-3250
lack	-3251
asure	-3252
imuth	-3253
stack	-3254
factor	-3255
▁within	-3256
ributions	-3257
▁assertIn	-3258
▁following	-3259
▁validator	-3260
15	-3261
NO	-3262
go	-3263
four	-3264
third	-3265
detail	-3266
tology	-3267
▁extend	-3268
▁surface	-3269
▁processed	-3270
76	-3271
Hu	-3272
ube	-3273
▁my	-3274
▁Work	-3275
▁hour	-3276
▁trim	-3277
espray	-3278
▁issue	-3279
NotFound	-3280
▁defined	-3281
▁payment	-3282
-%	-3283
The	-3284
free	-3285
ware	-3286
▁':'	-3287
▁Arg	-3288
▁WWW	-3289
atible	-3290
dependen	-3291
required	-3292
▁existing	-3293
HE	-3294
},	-3295
goo	-3296
▁vis	-3297
ination	-3298
kubespray	-3299
▁latitude	-3300
cos	-3301
wra	-3302
▁nx	-3303
▁tz	-3304
▁ve	-3305
▁Run	-3306
▁txt	-3307
uplic	-3308
global	-3309
▁would	-3310
▁testing	-3311
▁matching	-3312
+'	-3313
cell	-3314
lice	-3315
lope	-3316
▁App	-3317
chine	-3318
▁auto	-3319
events	-3320
quality	-3321
▁cursor	-3322
▁exclude	-3323
deredDict	-3324
▁constraints	-3325
ven	-3326
Plus	-3327
tran	-3328
▁OUT	-3329
▁uuid	-3330
▁volume	-3331
ctionary	-3332
▁Version	-3333
▁prepare	-3334
OUT	-3335
some	-3336
▁loc	-3337
▁mem	-3338
Parser	-3339
▁chain	-3340
objects	-3341
vations	-3342
▁cannot	-3343
▁scalar	-3344
▁getattr	-3345
Following	-3346
▁children	-3347
▁schedule	-3348
▁recursive	-3349
dms	-3350
jor	-3351
rev	-3352
part	-3353
vely	-3354
Valid	-3355
▁rank	-3356
Doesnt	-3357
correct	-3358
generate	-3359
▁bitdepth	-3360
ATA	-3361
PAR	-3362
▁az	-3363
Huge	-3364
▁too	-3365
Blanks	-3366
CheckCo	-3367
ForTest	-3368
Trivial	-3369
ForSplit	-3370
LineTest	-3371
▁Storage	-3372
HugeLines	-3373
WithBlock	-3374
BlankLines	-3375
CheckClass	-3376
CheckEmpty	-3377
PlusBlanks	-3378
WithNoLint	-3379
CheckComplex	-3380
CheckTrivial	-3381
ForSplitLineTest	-3382
3,	-3383
SC	-3384
alt	-3385
ass	-3386
▁14	-3387
bout	-3388
fail	-3389
nows	-3390
▁lhs	-3391
NotDe	-3392
▁writ	-3393
terminable	-3394
NotDeterminable	-3395
ORD	-3396
tar	-3397
▁'0	-3398
anti	-3399
iles	-3400
seed	-3401
▁keep	-3402
thread	-3403
perator	-3404
▁present	-3405
▁workspace	-3406
("	-3407
bab	-3408
inf	-3409
ummy	-3410
Break	-3411
moved	-3412
▁User	-3413
▁false	-3414
▁decrypt	-3415
▁override	-3416
An	-3417
ynam	-3418
Missing	-3419
imuthal	-3420
mimetype	-3421
▁positive	-3422
rees	-3423
WithE	-3424
ields	-3425
▁peak	-3426
▁period	-3427
▁python	-3428
▁retrie	-3429
TestBase	-3430
variable	-3431
▁Cpplint	-3432
▁CpplintTestBase	-3433
arn	-3434
ims	-3435
zero	-3436
▁fmt	-3437
ATION	-3438
riven	-3439
▁disc	-3440
ForBad	-3441
attach	-3442
ersist	-3443
offset	-3444
▁queue	-3445
NoLints	-3446
etadata	-3447
▁failed	-3448
▁tmpdir	-3449
ForBadTest	-3450
DoesntBreak	-3451
WithNoLints	-3452
▁characters	-3453
WithEmbedded	-3454
WithBlankLines	-3455
bad	-3456
tty	-3457
figs	-3458
plan	-3459
▁syn	-3460
alpha	-3461
▁cell	-3462
optional	-3463
▁implicit	-3464
Th	-3465
ba	-3466
▁64	-3467
cient	-3468
binary	-3469
▁commit	-3470
▁locale	-3471
▁recipi	-3472
▁strict	-3473
▁staticmethod	-3474
.,	-3475
-12	-3476
▁['	-3477
used	-3478
▁Mag	-3479
▁Spe	-3480
▁inf	-3481
undle	-3482
witch	-3483
cating	-3484
▁Other	-3485
AA	-3486
MIT	-3487
▁am	-3488
addr	-3489
ties	-3490
▁days	-3491
▁deriv	-3492
Invalid	-3493
▁marker	-3494
▁substit	-3495
attribute	-3496
recurrent	-3497
▁indicating	-3498
OS	-3499
ud	-3500
▁By	-3501
sses	-3502
andas	-3503
olute	-3504
system	-3505
utation	-3506
▁modifi	-3507
▁platform	-3508
72	-3509
COL	-3510
Col	-3511
cir	-3512
eno	-3513
ide	-3514
stat	-3515
ffect	-3516
hooks	-3517
inity	-3518
▁Device	-3519
circular	-3520
▁decimal	-3521
arguments	-3522
img	-3523
sha	-3524
pairs	-3525
multip	-3526
▁Examples	-3527
86	-3528
</	-3529
)``	-3530
▁sm	-3531
▁'0'	-3532
▁Whe	-3533
custom	-3534
icMock	-3535
▁taxon	-3536
replace	-3537
▁arange	-3538
▁additional	-3539
ava	-3540
SIZE	-3541
ario	-3542
clus	-3543
leep	-3544
oney	-3545
▁amp	-3546
const	-3547
tests	-3548
▁help	-3549
▁flags	-3550
invalid	-3551
▁Command	-3552
▁ignored	-3553
ification	-3554
▁subprocess	-3555
▁serializers	-3556
19	-3557
wiki	-3558
▁arr	-3559
▁cap	-3560
month	-3561
genome	-3562
▁works	-3563
average	-3564
dataset	-3565
italics	-3566
Generate	-3567
elements	-3568
▁newname	-3569
▁replica	-3570
14	-3571
vor	-3572
lers	-3573
▁bot	-3574
rector	-3575
▁Graph	-3576
▁modify	-3577
▁stdout	-3578
▁indexes	-3579
▁section	-3580
!'	-3581
ASE	-3582
div	-3583
▁Sh	-3584
TIME	-3585
▁ang	-3586
▁expi	-3587
ateway	-3588
mission	-3589
▁Client	-3590
▁metrics	-3591
▁numbers	-3592
▁Response	-3593
▁definition	-3594
75	-3595
ton	-3596
core	-3597
derr	-3598
play	-3599
▁'--	-3600
▁Comp	-3601
▁repo	-3602
▁verti	-3603
▁Message	-3604
structure	-3605
_{	-3606
Dir	-3607
▁ep	-3608
Conf	-3609
docs	-3610
hosts	-3611
▁most	-3612
▁term	-3613
scounter	-3614
▁httplib	-3615
▁neurons	-3616
▁environment	-3617
IG	-3618
xx	-3619
REC	-3620
norm	-3621
▁'201	-3622
▁atom	-3623
▁hist	-3624
dentity	-3625
tracker	-3626
▁allows	-3627
▁layers	-3628
▁region	-3629
▁display	-3630
▁converter	-3631
coordinates	-3632
39	-3633
3_	-3634
FILE	-3635
after	-3636
▁Array	-3637
▁words	-3638
manager	-3639
▁direct	-3640
▁defaultdict	-3641
leg	-3642
▁cy	-3643
repo	-3644
tact	-3645
atial	-3646
▁nucl	-3647
▁scan	-3648
▁stat	-3649
▁zero	-3650
▁derived	-3651
▁overrides	-3652
XT	-3653
ins	-3654
▁Lo	-3655
ship	-3656
▁Res	-3657
▁cut	-3658
▁cons	-3659
usters	-3660
▁aggre	-3661
metrics	-3662
▁accept	-3663
▁transl	-3664
ceptions	-3665
▁hasattr	-3666
▁mimetype	-3667
Implemented	-3668
▁repeatscounter	-3669
))	-3670
zz	-3671
VAL	-3672
alk	-3673
▁AD	-3674
▁bc	-3675
pool	-3676
light	-3677
▁phen	-3678
atcher	-3679
lative	-3680
vidual	-3681
defaults	-3682
Namespaces	-3683
▁MagicMock	-3684
wr	-3685
kes	-3686
▁ST	-3687
▁inv	-3688
chain	-3689
ernel	-3690
alance	-3691
entity	-3692
gments	-3693
normal	-3694
▁prefer	-3695
▁resources	-3696
▁est	-3697
▁them	-3698
comment	-3699
▁warnings	-3700
▁character	-3701
▁OrderedDict	-3702
▁NotImplemented	-3703
bb	-3704
yy	-3705
Code	-3706
fill	-3707
mtime	-3708
▁NULL	-3709
▁roll	-3710
▁Tensor	-3711
▁socket	-3712
▁newNameDpt	-3713
mis	-3714
▁No	-3715
setup	-3716
▁core	-3717
▁chrom	-3718
negative	-3719
variance	-3720
▁compile	-3721
▁executor	-3722
▁implement	-3723
▁let	-3724
▁Real	-3725
▁such	-3726
String	-3727
equality	-3728
▁download	-3729
ERS	-3730
loy	-3731
▁ds	-3732
Comp	-3733
▁adj	-3734
▁bus	-3735
Provi	-3736
conti	-3737
cript	-3738
speed	-3739
▁0.00	-3740
origin	-3741
▁boxes	-3742
▁prior	-3743
Control	-3744
section	-3745
subject	-3746
▁Invalid	-3747
▁different	-3748
AB	-3749
gic	-3750
tax	-3751
▁IN	-3752
``),	-3753
full	-3754
yper	-3755
▁bio	-3756
hello	-3757
posit	-3758
▁File	-3759
append	-3760
▁sleep	-3761
getstate	-3762
▁threads	-3763
▁structure	-3764
av	-3765
LENG	-3766
▁Add	-3767
coord	-3768
multi	-3769
▁good	-3770
▁week	-3771
LENGTH	-3772
outube	-3773
volume	-3774
▁short	-3775
integer	-3776
replica	-3777
▁backend	-3778
_4	-3779
ENT	-3780
sms	-3781
▁nn	-3782
▁ps	-3783
diff	-3784
COLUM	-3785
sired	-3786
▁'{}'	-3787
▁jobs	-3788
complete	-3789
determine	-3790
Authenticate	-3791
++	-3792
Sh	-3793
rv	-3794
lap	-3795
mod	-3796
▁MX	-3797
lash	-3798
▁mod	-3799
Cache	-3800
sible	-3801
▁calc	-3802
gories	-3803
second	-3804
▁Gener	-3805
▁route	-3806
Conflict	-3807
▁storage	-3808
▁'4	-3809
▁2,	-3810
▁board	-3811
▁assign	-3812
▁comment	-3813
▁serialize	-3814
1/	-3815
54	-3816
80	-3817
SH	-3818
ee	-3819
WSGI	-3820
arti	-3821
ighb	-3822
ming	-3823
pkcs	-3824
culum	-3825
recur	-3826
▁play	-3827
escape	-3828
riculum	-3829
▁reason	-3830
▁Mapping	-3831
▁station	-3832
transform	-3833
privatekey	-3834
environment	-3835
201	-3836
▁CO	-3837
GGER	-3838
boot	-3839
▁csv	-3840
▁sym	-3841
alias	-3842
▁realm	-3843
▁requires	-3844
▁azimuthal	-3845
aN	-3846
▁-=	-3847
▁40	-3848
fetch	-3849
force	-3850
oices	-3851
▁less	-3852
coords	-3853
pattern	-3854
Instance	-3855
ferences	-3856
▁Iterator	-3857
▁consumer	-3858
▁bytearray	-3859
▁separators	-3860
▁VersionConflict	-3861
Ext	-3862
▁ba	-3863
lick	-3864
▁``(	-3865
▁gra	-3866
creen	-3867
COLUMN	-3868
Create	-3869
buffer	-3870
center	-3871
driver	-3872
finder	-3873
public	-3874
▁about	-3875
▁attrs	-3876
▁throt	-3877
ickness	-3878
logging	-3879
▁simple	-3880
▁converted	-3881
2.	-3882
ROR	-3883
eces	-3884
hell	-3885
pace	-3886
cause	-3887
cepts	-3888
ystem	-3889
strict	-3890
entions	-3891
problem	-3892
▁updated	-3893
threshold	-3894
pg	-3895
▁sql	-3896
prime	-3897
ually	-3898
▁null	-3899
▁memory	-3900
▁remain	-3901
▁suffix	-3902
duration	-3903
DI	-3904
MM	-3905
PA	-3906
ited	-3907
▁bad	-3908
▁cwd	-3909
rough	-3910
▁latest	-3911
fraction	-3912
▁compare	-3913
▁demuxed	-3914
constructor	-3915
PS	-3916
PU	-3917
▁cf	-3918
▁dst	-3919
isode	-3920
engine	-3921
option	-3922
aussian	-3923
osition	-3924
tologyT	-3925
▁KeyError	-3926
collection	-3927
▁microscope	-3928
ATH	-3929
GET	-3930
ropy	-3931
alled	-3932
tools	-3933
▁fake	-3934
▁sqrt	-3935
success	-3936
▁schema	-3937
creation	-3938
▁minutes	-3939
▁relative	-3940
▁Otherwise	-3941
▁livingspace	-3942
anit	-3943
▁every	-3944
▁notes	-3945
▁middle	-3946
▁respon	-3947
▁scheme	-3948
▁workers	-3949
▁throttle	-3950
▁specifies	-3951
sm	-3952
▁19	-3953
▁us	-3954
analy	-3955
rence	-3956
Record	-3957
erform	-3958
shapes	-3959
▁square	-3960
bitcount	-3961
▁because	-3962
▁newIdDpt	-3963
7'	-3964
clo	-3965
uer	-3966
ves	-3967
▁25	-3968
▁42	-3969
Model	-3970
taxon	-3971
total	-3972
▁bias	-3973
Logger	-3974
▁above	-3975
▁upload	-3976
▁allowed	-3977
▁charset	-3978
▁doctype	-3979
▁wrapper	-3980
fastqread	-3981
'.	-3982
irst	-3983
many	-3984
▁iso	-3985
acity	-3986
ignore	-3987
▁10000	-3988
▁Valid	-3989
▁ready	-3990
▁taken	-3991
▁assertAll	-3992
▁temperature	-3993
*.	-3994
As	-3995
App	-3996
▁xy	-3997
ocab	-3998
subs	-3999
plunk	-4000
▁JOIN	-4001
resnet	-4002
▁predi	-4003
payload	-4004
▁factor	-4005
Pathways	-4006
▁Problem	-4007
▁Whether	-4008
▁external	-4009
▁provider	-4010
▁registry	-4011
dpt	-4012
▁'(	-4013
▁17	-4014
home	-4015
unic	-4016
▁card	-4017
▁deal	-4018
▁office	-4019
settings	-4020
▁profile	-4021
▁progress	-4022
▁thumbnail	-4023
barcodedict	-4024
▁RealNumber	-4025
1.2	-4026
KCS	-4027
ORY	-4028
UID	-4029
mid	-4030
sem	-4031
▁Be	-4032
()``	-4033
▁PNG	-4034
Parse	-4035
▁compact	-4036
▁without	-4037
▁skipkeys	-4038
TRAN	-4039
peri	-4040
▁sen	-4041
▁book	-4042
▁plan	-4043
loaded	-4044
office	-4045
subnet	-4046
cessary	-4047
counter	-4048
▁secret	-4049
argument	-4050
▁weighted	-4051
rl	-4052
oci	-4053
▁et	-4054
axis	-4055
▁cir	-4056
istic	-4057
merge	-4058
culate	-4059
▁edges	-4060
▁option	-4061
▁screen	-4062
▁training	-4063
▁Mo	-4064
▁mu	-4065
ores	-4066
▁Int	-4067
allen	-4068
▁fore	-4069
Provide	-4070
▁measure	-4071
▁refresh	-4072
▁eventual	-4073
validation	-4074
58	-4075
Bo	-4076
XX	-4077
sl	-4078
pod	-4079
▁60	-4080
expi	-4081
oice	-4082
Graph	-4083
guous	-4084
latest	-4085
series	-4086
▁cycle	-4087
Version	-4088
allenge	-4089
▁assume	-4090
activate	-4091
selector	-4092
▁Working	-4093
▁dimensions	-4094
1:	-4095
aut	-4096
gpu	-4097
lin	-4098
▁'\	-4099
:`~.	-4100
rand	-4101
ueue	-4102
people	-4103
Command	-4104
Element	-4105
classes	-4106
▁colour	-4107
▁details	-4108
container	-4109
22	-4110
gree	-4111
ural	-4112
▁dev	-4113
Array	-4114
separ	-4115
tasks	-4116
▁prime	-4117
neurons	-4118
tention	-4119
▁render	-4120
channels	-4121
▁gateway	-4122
▁messages	-4123
▁increment	-4124
credentials	-4125
▁WorkingSet	-4126
31	-4127
Spe	-4128
ish	-4129
▁(``	-4130
Format	-4131
lookup	-4132
schema	-4133
▁public	-4134
▁selector	-4135
▁==========	-4136
9'	-4137
ORT	-4138
Pix	-4139
cpu	-4140
sql	-4141
From	-4142
Read	-4143
arke	-4144
ells	-4145
▁prj	-4146
fasta	-4147
▁boot	-4148
▁subs	-4149
created	-4150
msBuilder	-4151
▁explicit	-4152
▁quantity	-4153
▁attributes	-4154
▁36	-4155
auto	-4156
modi	-4157
▁tim	-4158
osome	-4159
▁Task	-4160
▁math	-4161
▁major	-4162
▁quote	-4163
▁their	-4164
property	-4165
velocity	-4166
▁desired	-4167
▁Iterable	-4168
*'	-4169
-9	-4170
DIR	-4171
Ver	-4172
vis	-4173
▁{"	-4174
lipt	-4175
medi	-4176
Extra	-4177
ratio	-4178
three	-4179
▁trip	-4180
pickle	-4181
▁Index	-4182
▁asset	-4183
▁tables	-4184
requests	-4185
▁machine	-4186
▁predict	-4187
▁problem	-4188
▁candidate	-4189
▁nb	-4190
izes	-4191
▁Log	-4192
▁side	-4193
agraph	-4194
gateway	-4195
limiter	-4196
▁bigint	-4197
▁working	-4198
▁analysis	-4199
▁generates	-4200
0.	-4201
].	-4202
ALL	-4203
phi	-4204
▁dd	-4205
▁race	-4206
ibility	-4207
▁coords	-4208
uplicate	-4209
▁numeric	-4210
▁records	-4211
▁release	-4212
▁removed	-4213
▁received	-4214
▁Environment	-4215
DU	-4216
gb	-4217
Fil	-4218
igz	-4219
▁mk	-4220
etri	-4221
trip	-4222
▁aut	-4223
Trans	-4224
▁flag	-4225
amming	-4226
locate	-4227
policy	-4228
▁Image	-4229
▁spatial	-4230
Directory	-4231
▁mentions	-4232
▁contributions	-4233
▁fh	-4234
Case	-4235
orld	-4236
phab	-4237
▁who	-4238
dynam	-4239
▁docs	-4240
▁loop	-4241
authentication	-4242
['	-4243
00\	-4244
FIG	-4245
Tag	-4246
_1_	-4247
tmp	-4248
▁ce	-4249
rule	-4250
cycle	-4251
idden	-4252
lists	-4253
lower	-4254
quote	-4255
route	-4256
▁calls	-4257
▁cases	-4258
▁codes	-4259
records	-4260
treated	-4261
▁OUTPUT	-4262
▁folder	-4263
components	-4264
mut	-4265
wer	-4266
▁13	-4267
▁gc	-4268
alle	-4269
eded	-4270
▁nan	-4271
Group	-4272
▁expect	-4273
▁Session	-4274
▁keyword	-4275
▁absolute	-4276
▁connected	-4277
▁constructor	-4278
'"	-4279
ga	-4280
lops	-4281
▁URI	-4282
▁mid	-4283
▁cast	-4284
▁hours	-4285
▁loader	-4286
▁randomer	-4287
▁Arguments	-4288
74	-4289
▁UN	-4290
3456	-4291
area	-4292
After	-4293
flags	-4294
ormed	-4295
▁vert	-4296
uation	-4297
▁Token	-4298
▁optim	-4299
▁sender	-4300
▁retrieve	-4301
▁allocation	-4302
▁successful	-4303
dependencies	-4304
94	-4305
CC	-4306
FF	-4307
~~	-4308
512	-4309
ssl	-4310
uff	-4311
▁On	-4312
▁lb	-4313
circ	-4314
rain	-4315
recv	-4316
▁Text	-4317
Header	-4318
▁cigar	-4319
▁exact	-4320
clusive	-4321
reverse	-4322
▁member	-4323
▁allocate	-4324
▁vertices	-4325
▁getLogger	-4326
▁overwrite	-4327
▁implemented	-4328
.4	-4329
Red	-4330
egg	-4331
pdf	-4332
▁1,	-4333
aker	-4334
amily	-4335
arent	-4336
reset	-4337
▁recv	-4338
decode	-4339
ressed	-4340
▁State	-4341
located	-4342
▁levels	-4343
▁widget	-4344
▁Convert	-4345
▁concaten	-4346
▁interpol	-4347
▁destination	-4348
lr	-4349
mer	-4350
oft	-4351
URRE	-4352
memb	-4353
slash	-4354
▁push	-4355
versal	-4356
▁gives	-4357
▁tasks	-4358
▁bounds	-4359
▁linear	-4360
download	-4361
▁similar	-4362
▁hostname	-4363
exceptions	-4364
▁assertAllEqual	-4365
_1'	-4366
legal	-4367
▁buil	-4368
ometry	-4369
trials	-4370
▁final	-4371
▁outer	-4372
▁attach	-4373
▁private	-4374
condition	-4375
histogram	-4376
▁pipeline	-4377
▁population	-4378
0}	-4379
88	-4380
VE	-4381
200	-4382
dio	-4383
uery	-4384
uler	-4385
▁','	-4386
mooth	-4387
▁0.01	-4388
▁arti	-4389
▁drop	-4390
URRENT	-4391
ensure	-4392
ulated	-4393
Private	-4394
workers	-4395
provider	-4396
▁monthly	-4397
▁alignment	-4398
So	-4399
CRE	-4400
OTE	-4401
cha	-4402
iny	-4403
WORD	-4404
▁mut	-4405
+----	-4406
parti	-4407
▁Open	-4408
▁doesn	-4409
feature	-4410
▁cancel	-4411
▁fellow	-4412
▁master	-4413
DataFile	-4414
contents	-4415
▁StringIO	-4416
▁selection	-4417
▁collections	-4418
09	-4419
EM	-4420
-05	-4421
...	-4422
Max	-4423
hic	-4424
join	-4425
ront	-4426
▁TDB	-4427
calls	-4428
ernet	-4429
units	-4430
▁sets	-4431
▁util	-4432
bility	-4433
▁Event	-4434
allback	-4435
▁states	-4436
▁Specifi	-4437
▁entityid	-4438
▁responsible	-4439
71	-4440
lm	-4441
STR	-4442
oog	-4443
ula	-4444
▁go	-4445
PATH	-4446
itor	-4447
scan	-4448
ithub	-4449
spect	-4450
▁Read	-4451
▁poll	-4452
semble	-4453
▁large	-4454
healpix	-4455
Sequence	-4456
▁minimum	-4457
thickness	-4458
▁Attribute	-4459
▁solutions	-4460
AM	-4461
MT	-4462
fr	-4463
MAT	-4464
▁//	-4465
▁4)	-4466
▁IP	-4467
3333	-4468
RGBA	-4469
util	-4470
▁cla	-4471
▁foc	-4472
idDpt	-4473
leted	-4474
press	-4475
theta	-4476
video	-4477
utions	-4478
▁login	-4479
▁third	-4480
changed	-4481
▁dealer	-4482
▁neuron	-4483
database	-4484
pository	-4485
requires	-4486
▁Perform	-4487
▁running	-4488
interface	-4489
▁formatter	-4490
▁credentials	-4491
ECT	-4492
``)	-4493
ccur	-4494
dims	-4495
lier	-4496
▁Pre	-4497
▁poly	-4498
▁decor	-4499
▁pandas	-4500
sentence	-4501
▁greater	-4502
▁matched	-4503
FParameter	-4504
▁allocated	-4505
▁chromosome	-4506
▁performing	-4507
cm	-4508
100	-4509
BRA	-4510
▁(-	-4511
▁clo	-4512
▁freq	-4513
▁site	-4514
claims	-4515
resses	-4516
▁clock	-4517
▁Driven	-4518
▁policy	-4519
▁compress	-4520
▁statements	-4521
▁demuxeddict	-4522
▁DrivenControl	-4523
FT	-4524
Run	-4525
ctr	-4526
▁(`	-4527
▁ub	-4528
ATUS	-4529
here	-4530
omin	-4531
▁Min	-4532
▁nat	-4533
▁rhs	-4534
▁six	-4535
▁way	-4536
clare	-4537
patch	-4538
ulate	-4539
▁asyn	-4540
▁colli	-4541
▁exons	-4542
▁means	-4543
▁tests	-4544
▁helper	-4545
▁transp	-4546
greyscale	-4547
▁forecast	-4548
▁threshold	-4549
bed	-4550
▁CH	-4551
_{}'	-4552
cope	-4553
rook	-4554
uble	-4555
▁plt	-4556
▁warn	-4557
google	-4558
▁occur	-4559
missing	-4560
▁builder	-4561
▁through	-4562
▁allclose	-4563
initialize	-4564
▁precision	-4565
▁statement	-4566
92	-4567
bf	-4568
ia	-4569
but	-4570
ike	-4571
tem	-4572
▁eq	-4573
note	-4574
raft	-4575
▁Baz	-4576
▁cfg	-4577
atory	-4578
eries	-4579
ively	-4580
pochs	-4581
usted	-4582
Regist	-4583
signed	-4584
Service	-4585
▁always	-4586
▁images	-4587
available	-4588
▁receiving	-4589
▁supported	-4590
▁dx	-4591
▁ter	-4592
Maker	-4593
Money	-4594
async	-4595
riend	-4596
▁mime	-4597
▁strs	-4598
suffix	-4599
▁Custom	-4600
▁detect	-4601
fficient	-4602
periment	-4603
▁research	-4604
▁construct	-4605
▁substituted	-4606
;'	-4607
gz	-4608
></	-4609
ANN	-4610
Hel	-4611
Int	-4612
high	-4613
▁Spr	-4614
ocker	-4615
sched	-4616
▁goog	-4617
▁lang	-4618
▁tail	-4619
▁take	-4620
Socket	-4621
period	-4622
quival	-4623
radius	-4624
bitrary	-4625
specifi	-4626
▁unpack	-4627
iterator	-4628
dataframe	-4629
▁subclass	-4630
▁compatible	-4631
▁implementation	-4632
$$	-4633
big	-4634
bio	-4635
▁Do	-4636
cosx	-4637
illi	-4638
sget	-4639
sset	-4640
▁Lay	-4641
ANNEL	-4642
black	-4643
cates	-4644
▁exon	-4645
▁vide	-4646
Output	-4647
macosx	-4648
▁Error	-4649
▁Group	-4650
▁three	-4651
fixture	-4652
▁complex	-4653
▁partial	-4654
spritelist	-4655
▁arbitrary	-4656
7_	-4657
Lat	-4658
Sub	-4659
cim	-4660
opt	-4661
▁2.	-4662
▁IO	-4663
▁bg	-4664
Date	-4665
Link	-4666
blog	-4667
freq	-4668
glob	-4669
wsse	-4670
▁hit	-4671
▁hue	-4672
▁rad	-4673
Entry	-4674
stand	-4675
▁hook	-4676
▁------	-4677
▁LOGGER	-4678
▁follow	-4679
category	-4680
filepath	-4681
profiles	-4682
▁specific	-4683
PathwaysBy	-4684
contiguous	-4685
▁unallocated	-4686
.2.	-4687
ams	-4688
pad	-4689
uli	-4690
▁tp	-4691
decl	-4692
ring	-4693
▁bar	-4694
First	-4695
covar	-4696
ified	-4697
least	-4698
▁bets	-4699
commit	-4700
▁below	-4701
▁redir	-4702
▁future	-4703
▁probab	-4704
▁runtime	-4705
▁destined	-4706
decompress	-4707
▁histogram	-4708
▁multiples	-4709
▁authentication	-4710
2/	-4711
70	-4712
Fe	-4713
fm	-4714
Out	-4715
▁UT	-4716
▁We	-4717
▁3.0	-4718
▁rep	-4719
▁xml	-4720
▁Unit	-4721
iteral	-4722
▁dicts	-4723
▁yields	-4724
quantity	-4725
DataFrame	-4726
▁embedding	-4727
5.	-4728
Vi	-4729
.0'	-4730
doy	-4731
geo	-4732
ida	-4733
▁'3	-4734
mega	-4735
▁CON	-4736
▁lin	-4737
LIMIT	-4738
attrs	-4739
tered	-4740
users	-4741
▁Auth	-4742
ampler	-4743
▁amity	-4744
▁sanit	-4745
▁Sprite	-4746
▁pickle	-4747
▁stored	-4748
▁switch	-4749
▁Runtime	-4750
▁polygon	-4751
▁unittest	-4752
livingspace	-4753
OB	-4754
Cha	-4755
DMS	-4756
any	-4757
tol	-4758
ific	-4759
soup	-4760
▁'2'	-4761
mlink	-4762
▁your	-4763
Method	-4764
common	-4765
domain	-4766
inputs	-4767
unique	-4768
▁drive	-4769
▁oauth	-4770
▁regex	-4771
ernetes	-4772
weights	-4773
question	-4774
▁filters	-4775
RECURRENT	-4776
▁boundary	-4777
▁organism	-4778
:'	-4779
aw	-4780
Net	-4781
Obj	-4782
_2_	-4783
cip	-4784
sys	-4785
byte	-4786
▁saf	-4787
BRAKE	-4788
endar	-4789
▁Hash	-4790
pixels	-4791
reason	-4792
▁Point	-4793
warning	-4794
▁lookup	-4795
setstate	-4796
▁environ	-4797
▁finally	-4798
▁youtube	-4799
struction	-4800
▁redirect	-4801
▁beginning	-4802
▁specification	-4803
IS	-4804
UB	-4805
-01	-4806
adj	-4807
ier	-4808
▁'#	-4809
▁'@	-4810
▁ho	-4811
RESS	-4812
▁PIL	-4813
apter	-4814
ifest	-4815
candid	-4816
ecutor	-4817
▁covar	-4818
▁sigma	-4819
Updates	-4820
lformed	-4821
nextset	-4822
protocol	-4823
▁Dictionary	-4824
▁normalized	-4825
DD	-4826
UE	-4827
UP	-4828
uc	-4829
buf	-4830
▁dim	-4831
▁bind	-4832
▁rest	-4833
▁satis	-4834
between	-4835
nameDpt	-4836
▁bundle	-4837
▁useful	-4838
gression	-4839
▁Generate	-4840
▁safename	-4841
disposition	-4842
▁annotations	-4843
3:	-4844
84	-4845
OCK	-4846
▁0,	-4847
▁7)	-4848
ases	-4849
imat	-4850
nony	-4851
uate	-4852
▁One	-4853
▁dur	-4854
▁fra	-4855
ERROR	-4856
Files	-4857
olver	-4858
sigma	-4859
ANNELS	-4860
metric	-4861
▁Match	-4862
▁known	-4863
release	-4864
▁branch	-4865
▁export	-4866
allocate	-4867
conflict	-4868
▁methods	-4869
▁reading	-4870
construct	-4871
▁normally	-4872
`):	-4873
ake	-4874
cfg	-4875
dec	-4876
lex	-4877
▁'$	-4878
atom	-4879
band	-4880
mmar	-4881
vals	-4882
▁0.2	-4883
▁foo	-4884
Event	-4885
rooms	-4886
solve	-4887
▁getS	-4888
before	-4889
▁'{}{}	-4890
▁video	-4891
▁compli	-4892
▁tuples	-4893
▁angular	-4894
▁pathlib	-4895
▁primary	-4896
precision	-4897
▁CHANNELS	-4898
attachment	-4899
▁separator	-4900
▁timedelta	-4901
▁coordinate	-4902
1]	-4903
52	-4904
xn	-4905
EXT	-4906
ags	-4907
cmd	-4908
▁He	-4909
▁gu	-4910
▁io	-4911
ftime	-4912
▁TEST	-4913
Stream	-4914
gorian	-4915
liptic	-4916
▁track	-4917
Context	-4918
riendly	-4919
▁writer	-4920
▁OUTPUTS	-4921
▁changed	-4922
▁getvalue	-4923
▁integers	-4924
tologyTerm	-4925
▁GetMissing	-4926
▁CommandError	-4927
:2	-4928
?'	-4929
`:	-4930
PDU	-4931
UND	-4932
dot	-4933
ever	-4934
reds	-4935
show	-4936
uman	-4937
▁(-7	-4938
elems	-4939
▁desc	-4940
▁ints	-4941
▁vari	-4942
Server	-4943
cnonce	-4944
pubkey	-4945
titles	-4946
▁since	-4947
▁associ	-4948
▁astype	-4949
▁cnonce	-4950
▁detail	-4951
▁synony	-4952
schedule	-4953
▁Layered	-4954
▁sending	-4955
▁urlnorm	-4956
▁cachekey	-4957
▁determin	-4958
updateCache	-4959
▁RuntimeError	-4960
▁AttributeError	-4961
6'	-4962
Ro	-4963
FOR	-4964
ccc	-4965
▁(:	-4966
▁HE	-4967
help	-4968
hood	-4969
star	-4970
▁abc	-4971
▁gap	-4972
▁mak	-4973
dence	-4974
▁ratio	-4975
▁shell	-4976
▁takes	-4977
persist	-4978
station	-4979
existing	-4980
▁invoked	-4981
▁'{}{}_{}'	-4982
▁correctly	-4983
▁formatted	-4984
▁serialized	-4985
2-	-4986
FP	-4987
PT	-4988
lb	-4989
.0.	-4990
ima	-4991
clip	-4992
gits	-4993
▁'__	-4994
means	-4995
▁glob	-4996
litude	-4997
plicas	-4998
shared	-4999
▁counts	-5000
▁instit	-5001
▁obtain	-5002
▁subnet	-5003
▁included	-5004
definition	-5005
vin	-5006
▁ii	-5007
COUN	-5008
Hist	-5009
tail	-5010
uids	-5011
▁512	-5012
▁Pay	-5013
tator	-5014
venth	-5015
▁Game	-5016
▁href	-5017
counts	-5018
linked	-5019
▁paper	-5020
▁users	-5021
keyword	-5022
▁pygame	-5023
itespace	-5024
▁episode	-5025
▁fortran	-5026
▁members	-5027
▁assertNot	-5028
transaction	-5029
▁initialize	-5030
+)	-5031
256	-5032
64'	-5033
ony	-5034
utc	-5035
▁1:	-5036
▁SH	-5037
cale	-5038
oose	-5039
rank	-5040
roid	-5041
▁Ver	-5042
colli	-5043
track	-5044
▁0.25	-5045
▁deep	-5046
▁opts	-5047
▁what	-5048
animal	-5049
phabet	-5050
▁these	-5051
generic	-5052
players	-5053
▁kernel	-5054
▁asarray	-5055
▁combine	-5056
▁newline	-5057
mandatory	-5058
supported	-5059
▁communic	-5060
simulation	-5061
▁frequency	-5062
MO	-5063
pem	-5064
olds	-5065
oper	-5066
▁Api	-5067
▁Cha	-5068
▁Str	-5069
▁sep	-5070
▁sio	-5071
ended	-5072
redit	-5073
▁feed	-5074
github	-5075
ground	-5076
marker	-5077
▁minor	-5078
▁remote	-5079
identifi	-5080
▁TestCase	-5081
attributes	-5082
▁institutions	-5083
5,	-5084
MD	-5085
dm	-5086
fc	-5087
TEXT	-5088
ales	-5089
elem	-5090
havi	-5091
▁COL	-5092
QUOTE	-5093
agent	-5094
arest	-5095
orbit	-5096
umblr	-5097
▁conn	-5098
▁seek	-5099
imator	-5100
▁'\\1'	-5101
▁Input	-5102
▁Knows	-5103
▁times	-5104
Convert	-5105
▁dbname	-5106
▁flavor	-5107
▁stderr	-5108
artifact	-5109
notAfter	-5110
termines	-5111
▁IsExtra	-5112
▁equival	-5113
▁factory	-5114
▁futures	-5115
▁rotation	-5116
Str	-5117
cho	-5118
oct	-5119
uit	-5120
heap	-5121
▁der	-5122
▁ord	-5123
COUNT	-5124
acing	-5125
laint	-5126
slice	-5127
▁cols	-5128
Before	-5129
▁pheno	-5130
▁years	-5131
archive	-5132
encoder	-5133
ializer	-5134
▁Method	-5135
laintext	-5136
▁getlist	-5137
▁filenames	-5138
▁individual	-5139
2)	-5140
21	-5141
QL	-5142
nn	-5143
▁cp	-5144
DATA	-5145
PAIR	-5146
sect	-5147
▁NaN	-5148
▁vip	-5149
ITION	-5150
allot	-5151
ctrls	-5152
▁Time	-5153
▁heap	-5154
bottom	-5155
ertsrv	-5156
linear	-5157
simple	-5158
▁coord	-5159
configs	-5160
polygon	-5161
strings	-5162
vectors	-5163
▁needed	-5164
▁scores	-5165
messages	-5166
▁atleast	-5167
intervals	-5168
neighbours	-5169
▁greyscale	-5170
conflicting	-5171
wa	-5172
ASN	-5173
IST	-5174
SSL	-5175
rer	-5176
▁(%	-5177
▁27	-5178
▁28	-5179
RELA	-5180
SPAC	-5181
bits	-5182
dies	-5183
illa	-5184
poly	-5185
▁spi	-5186
PAIRS	-5187
▁Lock	-5188
▁pigz	-5189
▁were	-5190
author	-5191
locale	-5192
▁autom	-5193
ilities	-5194
seventh	-5195
▁neighb	-5196
affinity	-5197
▁dirname	-5198
▁outputs	-5199
▁negative	-5200
▁responses	-5201
▁categories	-5202
distribution	-5203
spritelayers	-5204
▁corresponds	-5205
▁researchers	-5206
4,	-5207
nc	-5208
','	-5209
-06	-5210
Url	-5211
syn	-5212
▁21	-5213
▁bl	-5214
Last	-5215
SING	-5216
conv	-5217
desc	-5218
feed	-5219
hest	-5220
null	-5221
▁1.5	-5222
▁RGB	-5223
▁USE	-5224
▁dry	-5225
▁mac	-5226
▁met	-5227
▁unt	-5228
ather	-5229
iling	-5230
retry	-5231
trees	-5232
▁PKCS	-5233
Python	-5234
region	-5235
▁pixel	-5236
History	-5237
Defaults	-5238
clusters	-5239
executor	-5240
▁handlers	-5241
▁blocksize	-5242
▁delimiter	-5243
▁installer	-5244
▁recipient	-5245
▁testParse	-5246
▁neighbours	-5247
59	-5248
ho	-5249
XED	-5250
ina	-5251
▁31	-5252
Hook	-5253
ongo	-5254
▁GET	-5255
Omega	-5256
mplet	-5257
▁arch	-5258
▁devi	-5259
▁song	-5260
attern	-5261
curity	-5262
extend	-5263
ighest	-5264
Message	-5265
summary	-5266
▁aggreg	-5267
▁signed	-5268
matching	-5269
organism	-5270
▁requirement	-5271
."	-5272
LL	-5273
NC	-5274
Sa	-5275
▁80	-5276
▁tu	-5277
ount	-5278
rdoy	-5279
Range	-5280
Table	-5281
added	-5282
ality	-5283
boxes	-5284
▁Model	-5285
▁Tests	-5286
▁leave	-5287
▁price	-5288
PARSING	-5289
RELAXED	-5290
▁Assert	-5291
▁Unless	-5292
▁letter	-5293
precated	-5294
▁Payment	-5295
▁UNQUOTE	-5296
▁choices	-5297
▁sources	-5298
▁basename	-5299
▁testParseWWW	-5300
%2	-5301
PL	-5302
cmp	-5303
sym	-5304
▁tb	-5305
Band	-5306
Copy	-5307
Sign	-5308
skip	-5309
▁enc	-5310
▁gps	-5311
▁qui	-5312
▁uid	-5313
asses	-5314
cases	-5315
grees	-5316
named	-5317
noise	-5318
rency	-5319
branch	-5320
▁cells	-5321
▁sfile	-5322
▁vocab	-5323
▁ChaCha	-5324
▁pretty	-5325
▁tzinfo	-5326
elliptic	-5327
sections	-5328
▁Process	-5329
▁Metadata	-5330
▁classmethod	-5331
mc	-5332
mk	-5333
REG	-5334
ens	-5335
▁ee	-5336
▁gr	-5337
prof	-5338
▁dpt	-5339
▁nor	-5340
dtype	-5341
ished	-5342
loads	-5343
short	-5344
▁look	-5345
Entity	-5346
docker	-5347
flange	-5348
models	-5349
▁cross	-5350
Verbose	-5351
extract	-5352
▁people	-5353
▁vertex	-5354
▁support	-5355
notBefore	-5356
▁grouping	-5357
▁keywords	-5358
▁tempfile	-5359
▁currently	-5360
VerboseLevel	-5361
255	-5362
ROM	-5363
ctx	-5364
corr	-5365
prep	-5366
yles	-5367
▁You	-5368
Basic	-5369
otype	-5370
sfile	-5371
▁Only	-5372
▁POST	-5373
▁star	-5374
batches	-5375
▁Remove	-5376
▁bucket	-5377
▁loaded	-5378
comments	-5379
services	-5380
▁produce	-5381
▁scaling	-5382
▁written	-5383
rectories	-5384
▁excluded	-5385
▁modified	-5386
▁simulation	-5387
▁microseconds	-5388
03	-5389
04	-5390
2:	-5391
lt	-5392
END	-5393
▁3.	-5394
▁bi	-5395
alth	-5396
done	-5397
ench	-5398
lish	-5399
nake	-5400
otes	-5401
trim	-5402
▁Als	-5403
strap	-5404
▁argv	-5405
▁tile	-5406
utdown	-5407
▁shift	-5408
▁staff	-5409
▁Format	-5410
▁STATUS	-5411
▁extras	-5412
provided	-5413
▁applied	-5414
▁players	-5415
anization	-5416
▁processes	-5417
▁requested	-5418
▁properties	-5419
53	-5420
ND	-5421
gr	-5422
Box	-5423
TER	-5424
lar	-5425
lhs	-5426
pkg	-5427
▁sn	-5428
ders	-5429
dump	-5430
heit	-5431
hren	-5432
loop	-5433
▁128	-5434
▁den	-5435
▁Also	-5436
▁TIME	-5437
▁lock	-5438
▁rack	-5439
helper	-5440
itical	-5441
mitted	-5442
rowser	-5443
scores	-5444
▁blank	-5445
collide	-5446
compute	-5447
▁Thread	-5448
▁behavi	-5449
▁notify	-5450
hrenheit	-5451
▁Integer	-5452
▁balance	-5453
▁calling	-5454
▁flatten	-5455
Reference	-5456
thumbnail	-5457
▁getSplunk	-5458
▁associated	-5459
62	-5460
^{	-5461
asn	-5462
▁Al	-5463
MENT	-5464
expr	-5465
ping	-5466
▁mix	-5467
▁pid	-5468
shift	-5469
▁Copy	-5470
MPRESS	-5471
▁along	-5472
▁click	-5473
formats	-5474
▁packet	-5475
constant	-5476
gaussian	-5477
installer	-5478
▁baseline	-5479
▁datasets	-5480
▁starting	-5481
Parameters	-5482
▁closurized	-5483
PH	-5484
Doc	-5485
Map	-5486
cum	-5487
▁56	-5488
▁DE	-5489
▁dm	-5490
▁pq	-5491
▁sd	-5492
Like	-5493
Redi	-5494
osds	-5495
tack	-5496
wrap	-5497
▁0.8	-5498
Batch	-5499
ppers	-5500
ships	-5501
▁Date	-5502
▁conv	-5503
▁prod	-5504
▁Inter	-5505
▁Using	-5506
▁again	-5507
▁noise	-5508
odation	-5509
▁Should	-5510
▁engine	-5511
scriptor	-5512
validator	-5513
kubernetes	-5514
SMS	-5515
ckan	-5516
each	-5517
▁Use	-5518
▁pal	-5519
categ	-5520
ivity	-5521
strip	-5522
istics	-5523
▁consi	-5524
▁least	-5525
cluster	-5526
scrimin	-5527
▁scopes	-5528
▁formula	-5529
clockwise	-5530
variables	-5531
▁protocol	-5532
▁tokenize	-5533
RECURRENTS	-5534
extensions	-5535
▁discrimin	-5536
▁partition	-5537
▁LayeredUpdates	-5538
gt	-5539
001	-5540
[0]	-5541
_\\	-5542
can	-5543
sts	-5544
win	-5545
Mult	-5546
cipe	-5547
ffic	-5548
five	-5549
same	-5550
▁256	-5551
▁Pub	-5552
▁rxn	-5553
▁vec	-5554
VALUE	-5555
atell	-5556
debug	-5557
super	-5558
▁Rect	-5559
▁done	-5560
▁fill	-5561
concat	-5562
▁Parse	-5563
▁cause	-5564
▁codec	-5565
symlink	-5566
▁bottom	-5567
▁Dataset	-5568
▁paralle	-5569
▁updates	-5570
workspace	-5571
▁Hashable	-5572
▁installed	-5573
dev	-5574
neg	-5575
Item	-5576
Text	-5577
bind	-5578
lots	-5579
▁[0,	-5580
▁bds	-5581
▁deg	-5582
▁dna	-5583
▁git	-5584
▁pur	-5585
▁Mult	-5586
▁oper	-5587
▁well	-5588
Random	-5589
bounds	-5590
lation	-5591
▁adjac	-5592
▁flange	-5593
▁pieces	-5594
Metadata	-5595
enchmark	-5596
interpol	-5597
multiple	-5598
▁collide	-5599
▁padding	-5600
paragraph	-5601
timezones	-5602
''	-5603
La	-5604
bc	-5605
[0,	-5606
fun	-5607
▁pp	-5608
▁rv	-5609
adle	-5610
drop	-5611
▁120	-5612
▁4.5	-5613
▁aug	-5614
▁eps	-5615
▁tup	-5616
piece	-5617
▁beta	-5618
frames	-5619
lasmid	-5620
▁mount	-5621
Address	-5622
ampling	-5623
imation	-5624
▁Maadle	-5625
▁identi	-5626
▁signal	-5627
Curation	-5628
▁channels	-5629
Identifier	-5630
▁remaining	-5631
VP	-5632
`)	-5633
▁$	-5634
(\\	-5635
And	-5636
FIX	-5637
KEN	-5638
bus	-5639
cel	-5640
occ	-5641
tin	-5642
▁TS	-5643
▁Up	-5644
▁es	-5645
▁wk	-5646
LOCK	-5647
This	-5648
alog	-5649
ense	-5650
logs	-5651
phan	-5652
▁dsa	-5653
▁dum	-5654
▁lam	-5655
domin	-5656
inger	-5657
ority	-5658
▁Each	-5659
▁crop	-5660
Filter	-5661
angles	-5662
lambda	-5663
square	-5664
Encoder	-5665
charact	-5666
cording	-5667
getattr	-5668
storage	-5669
▁Delete	-5670
▁Verify	-5671
▁define	-5672
bitdepth	-5673
novation	-5674
functions	-5675
▁complete	-5676
================	-5677
-8	-5678
/.	-5679
ov	-5680
32'	-5681
ali	-5682
cer	-5683
ras	-5684
▁23	-5685
▁37	-5686
▁Pi	-5687
enal	-5688
hold	-5689
moid	-5690
shot	-5691
unch	-5692
▁511	-5693
▁All	-5694
▁fig	-5695
▁lay	-5696
enter	-5697
▁simp	-5698
oolean	-5699
▁petab	-5700
▁weeks	-5701
bsocket	-5702
cluding	-5703
sampler	-5704
▁orient	-5705
▁reduce	-5706
▁IsFirst	-5707
▁fileobj	-5708
▁fixture	-5709
▁outcome	-5710
▁queries	-5711
▁replaced	-5712
▁distances	-5713
▁necessary	-5714
▁preprocess	-5715
'}	-5716
REF	-5717
Req	-5718
arr	-5719
til	-5720
▁<<	-5721
▁mp	-5722
▁na	-5723
lore	-5724
sity	-5725
▁'./	-5726
▁DSA	-5727
▁css	-5728
▁own	-5729
▁tar	-5730
▁tol	-5731
Local	-5732
magic	-5733
upper	-5734
uting	-5735
▁Tree	-5736
▁alts	-5737
▁band	-5738
▁pkcs	-5739
▁uses	-5740
lidays	-5741
lidean	-5742
states	-5743
velope	-5744
▁penal	-5745
▁IsLast	-5746
▁Please	-5747
▁chunks	-5748
▁dumped	-5749
notation	-5750
previous	-5751
▁Unicode	-5752
▁fastqio	-5753
▁altscope	-5754
▁constant	-5755
▁amplitude	-5756
():	-5757
710	-5758
__'	-5759
▁cm	-5760
JECT	-5761
OINT	-5762
city	-5763
good	-5764
reen	-5765
▁Red	-5766
▁aip	-5767
imate	-5768
terns	-5769
▁BASE	-5770
degree	-5771
issuer	-5772
premis	-5773
▁Utils	-5774
TIMEOUT	-5775
setitem	-5776
▁choose	-5777
▁rotate	-5778
document	-5779
ionError	-5780
uclidean	-5781
▁satisfy	-5782
▁symbols	-5783
00000000'	-5784
▁randfunc	-5785
▁automatic	-5786
▁getPathway	-5787
▁recipients	-5788
▁AssertionError	-5789
1)	-5790
OT	-5791
nat	-5792
sun	-5793
▁Ro	-5794
_1_0	-5795
buil	-5796
exit	-5797
ALPix	-5798
Count	-5799
spath	-5800
▁0.05	-5801
hidden	-5802
priate	-5803
▁joins	-5804
▁marke	-5805
▁pairs	-5806
▁robot	-5807
outcome	-5808
ventory	-5809
randfunc	-5810
segments	-5811
▁assumed	-5812
▁patient	-5813
▁revoked	-5814
positions	-5815
▁dependen	-5816
▁velocity	-5817
identifier	-5818
▁fulfillment	-5819
NamespacesInfo	-5820
(?	-5821
=%	-5822
OD	-5823
px	-5824
vm	-5825
IVE	-5826
src	-5827
▁ap	-5828
cost	-5829
velo	-5830
▁'[^	-5831
cards	-5832
going	-5833
stops	-5834
bucket	-5835
clause	-5836
itable	-5837
minion	-5838
▁could	-5839
▁needs	-5840
▁press	-5841
▁toler	-5842
▁isfile	-5843
▁enabled	-5844
▁healpix	-5845
▁percent	-5846
▁holidays	-5847
positional	-5848
▁plaintext	-5849
▁assertNotEqual	-5850
27	-5851
tf	-5852
.1.	-5853
130	-5854
SER	-5855
abs	-5856
cwd	-5857
vio	-5858
▁dp	-5859
▁vc	-5860
conc	-5861
▁Ali	-5862
▁PEM	-5863
REGEX	-5864
▁bins	-5865
▁clas	-5866
▁nick	-5867
▁none	-5868
amount	-5869
ources	-5870
▁steps	-5871
▁super	-5872
▁timer	-5873
▁wrong	-5874
▁itself	-5875
▁syntax	-5876
Required	-5877
analysis	-5878
▁plasmid	-5879
▁properly	-5880
ationError	-5881
▁determine	-5882
▁preferred	-5883
compression	-5884
▁appropriate	-5885
▁assertIsNot	-5886
▁communicator	-5887
IF	-5888
fp	-5889
oe	-5890
{'	-5891
▁\	-5892
-9]	-5893
Cal	-5894
]],	-5895
cio	-5896
etc	-5897
upy	-5898
ura	-5899
▁cc	-5900
▁dy	-5901
▁sw	-5902
pict	-5903
scra	-5904
walk	-5905
▁5.0	-5906
▁des	-5907
▁fun	-5908
found	-5909
iness	-5910
▁1024	-5911
▁tick	-5912
▁yaml	-5913
nested	-5914
remote	-5915
▁flush	-5916
▁rapid	-5917
▁saved	-5918
▁sites	-5919
▁slice	-5920
Process	-5921
matches	-5922
▁plural	-5923
boundary	-5924
▁batches	-5925
▁vectors	-5926
calculate	-5927
dominated	-5928
▁anything	-5929
▁identifi	-5930
>`	-5931
At	-5932
ae	-5933
-1'	-5934
inv	-5935
vil	-5936
▁('	-5937
000'	-5938
Mask	-5939
amer	-5940
hour	-5941
okie	-5942
▁Can	-5943
▁lst	-5944
')``.	-5945
guess	-5946
octet	-5947
owner	-5948
▁Tiny	-5949
▁clip	-5950
▁dims	-5951
detect	-5952
▁still	-5953
▁tiles	-5954
OSITION	-5955
▁nested	-5956
lacement	-5957
mpletion	-5958
packages	-5959
▁HEALPix	-5960
▁archive	-5961
▁asyncio	-5962
▁changes	-5963
▁hamming	-5964
▁install	-5965
▁library	-5966
▁accepted	-5967
registered	-5968
▁decorator	-5969
▁dimensional	-5970
46	-5971
BC	-5972
_'	-5973
RED	-5974
bre	-5975
dst	-5976
sec	-5977
OCKS	-5978
PORT	-5979
amma	-5980
frac	-5981
orie	-5982
uuid	-5983
▁300	-5984
▁bgd	-5985
▁dct	-5986
▁dra	-5987
learn	-5988
neuron	-5989
▁infer	-5990
astropy	-5991
backend	-5992
▁attemp	-5993
▁logged	-5994
research	-5995
▁counter	-5996
▁deleted	-5997
▁examples	-5998
▁prodname	-5999
BU	-6000
FO	-6001
403	-6002
Baz	-6003
ire	-6004
adns	-6005
bins	-6006
orth	-6007
rict	-6008
▁500	-6009
▁Sim	-6010
▁arc	-6011
▁rsc	-6012
==1.2	-6013
ville	-6014
▁sess	-6015
cancel	-6016
double	-6017
effect	-6018
others	-6019
▁epoch	-6020
▁fasta	-6021
DEFAULT	-6022
depends	-6023
provide	-6024
▁enable	-6025
▁actions	-6026
▁quality	-6027
▁wrapped	-6028
Extension	-6029
statement	-6030
▁component	-6031
requirement	-6032
▁amityville	-6033
▁curriculum	-6034
▁observations	-6035
41	-6036
GS	-6037
Mo	-6038
sd	-6039
600	-6040
One	-6041
PRE	-6042
agg	-6043
hub	-6044
sci	-6045
▁'5	-6046
▁cv	-6047
View	-6048
asis	-6049
atti	-6050
ulus	-6051
▁NUM	-6052
▁``-	-6053
▁obs	-6054
dummy	-6055
produ	-6056
▁dset	-6057
▁pull	-6058
CONFIG	-6059
Tensor	-6060
images	-6061
▁peaks	-6062
contact	-6063
scripts	-6064
hostname	-6065
mappings	-6066
▁Contain	-6067
▁cleanup	-6068
▁generic	-6069
▁manager	-6070
▁synonym	-6071
▁actually	-6072
▁filetype	-6073
▁forecasts	-6074
temperature	-6075
▁AbstractGroup	-6076
▁assertIsNotNone	-6077
NN	-6078
SD	-6079
dr	-6080
}{	-6081
Api	-6082
OLD	-6083
REQ	-6084
SHA	-6085
UTC	-6086
9999	-6087
Mark	-6088
TEST	-6089
▁Max	-6090
▁rec	-6091
POINT	-6092
ender	-6093
orary	-6094
steps	-6095
▁gain	-6096
▁hard	-6097
▁ndim	-6098
antile	-6099
solver	-6100
▁``(',	-6101
▁tools	-6102
▁bodies	-6103
▁edition	-6104
▁randint	-6105
embedding	-6106
boundaries	-6107
expression	-6108
▁inclusive	-6109
▁calculated	-6110
Ps	-6111
Wr	-6112
Fix	-6113
PER	-6114
css	-6115
eip	-6116
iba	-6117
▁fr	-6118
Temp	-6119
akoe	-6120
fied	-6121
kind	-6122
rief	-6123
Gener	-6124
allow	-6125
diffe	-6126
loose	-6127
usage	-6128
verts	-6129
▁Long	-6130
▁TYPE	-6131
▁beam	-6132
▁walk	-6133
▁wide	-6134
assign	-6135
ycoord	-6136
▁Hyper	-6137
▁magic	-6138
▁topic	-6139
▁approx	-6140
▁consul	-6141
▁places	-6142
▁runner	-6143
▁urllib	-6144
Requires	-6145
▁outfile	-6146
distances	-6147
dshealpix	-6148
▁segments	-6149
candidates	-6150
▁extensions	-6151
LS	-6152
vg	-6153
0}'	-6154
BLE	-6155
RES	-6156
URI	-6157
lis	-6158
opy	-6159
pas	-6160
two	-6161
▁AP	-6162
▁yq	-6163
[0])	-6164
aran	-6165
beam	-6166
cial	-6167
dirs	-6168
▁400	-6169
▁Cur	-6170
▁Ens	-6171
▁Ent	-6172
▁Imp	-6173
▁mis	-6174
▁mne	-6175
▁thr	-6176
rules	-6177
white	-6178
▁HOST	-6179
CREATE	-6180
choice	-6181
symbol	-6182
▁TDBIT	-6183
▁today	-6184
▁trial	-6185
▁Report	-6186
▁raster	-6187
▁workdir	-6188
increment	-6189
indexhook	-6190
▁RDBQCNUM	-6191
▁capacity	-6192
▁sanitize	-6193
▁separate	-6194
▁gregorian	-6195
▁conditions	-6196
▁registered	-6197
▁distributions	-6198
searchindexhook	-6199
fs	-6200
069	-6201
:0'	-6202
Ref	-6203
▁(*	-6204
▁ev	-6205
▁sb	-6206
▁te	-6207
best	-6208
ergy	-6209
site	-6210
▁ear	-6211
▁red	-6212
▁smp	-6213
iline	-6214
omial	-6215
oring	-6216
sites	-6217
▁capt	-6218
▁ceph	-6219
▁enum	-6220
cached	-6221
▁delay	-6222
▁digit	-6223
▁embed	-6224
▁shuff	-6225
▁Output	-6226
callable	-6227
▁Decimal	-6228
algorithm	-6229
generator	-6230
▁fallback	-6231
▁reaction	-6232
▁barcodeid	-6233
Environment	-6234
▁Hyperlinked	-6235
▁observation	-6236
----------------	-6237
/{	-6238
0-	-6239
08	-6240
VO	-6241
_7	-6242
Job	-6243
NAT	-6244
cit	-6245
ene	-6246
mes	-6247
oid	-6248
vcf	-6249
▁pb	-6250
9517	-6251
CHAR	-6252
Dist	-6253
elsi	-6254
▁NOT	-6255
▁Sub	-6256
▁cos	-6257
▁dlm	-6258
▁eas	-6259
▁que	-6260
Exist	-6261
Input	-6262
hicle	-6263
leton	-6264
▁cond	-6265
▁even	-6266
▁fact	-6267
▁mesh	-6268
345678	-6269
FORMAT	-6270
[0])``	-6271
elsius	-6272
starts	-6273
▁Bytes	-6274
▁curve	-6275
▁flops	-6276
Warning	-6277
related	-6278
sources	-6279
without	-6280
▁cached	-6281
▁energy	-6282
allclose	-6283
dynamics	-6284
▁Boolean	-6285
▁classes	-6286
component	-6287
testrealm	-6288
▁checksum	-6289
▁workflow	-6290
compatible	-6291
▁sequences	-6292
riendlyname	-6293
▁aggregator	-6294
▁deprecated	-6295
▁unregister	-6296
7,	-6297
GE	-6298
Su	-6299
][	-6300
idb	-6301
std	-6302
▁1-	-6303
▁Bo	-6304
0171	-6305
dget	-6306
ebaf	-6307
plus	-6308
▁2.5	-6309
▁3.5	-6310
▁DNS	-6311
▁Job	-6312
▁LOG	-6313
▁lar	-6314
▁sec	-6315
▁via	-6316
Queue	-6317
exopy	-6318
inite	-6319
stemp	-6320
times	-6321
vered	-6322
viden	-6323
▁DATA	-6324
▁Load	-6325
▁adds	-6326
▁area	-6327
Search	-6328
export	-6329
inline	-6330
limits	-6331
▁docid	-6332
▁stand	-6333
adapter	-6334
fastqio	-6335
modules	-6336
refresh	-6337
targets	-6338
▁applic	-6339
▁compar	-6340
▁effect	-6341
reaction	-6342
translate	-6343
▁Pipeline	-6344
▁describe	-6345
▁geometry	-6346
▁markdown	-6347
▁dbsession	-6348
▁efficient	-6349
▁'00000000'	-6350
▁determined	-6351
.6	-6352
8_	-6353
]]	-6354
().	-6355
3.4	-6356
Mix	-6357
▁'"	-6358
▁[[	-6359
CTOR	-6360
Call	-6361
OVER	-6362
dian	-6363
iful	-6364
sage	-6365
▁'2.	-6366
▁Dms	-6367
▁MAG	-6368
▁inp	-6369
chars	-6370
delay	-6371
rypto	-6372
▁prev	-6373
Driver	-6374
ertain	-6375
proper	-6376
stdout	-6377
upload	-6378
▁pause	-6379
autiful	-6380
encrypt	-6381
ryption	-6382
▁strike	-6383
Protocol	-6384
operator	-6385
▁centers	-6386
▁failure	-6387
▁provide	-6388
▁trusted	-6389
OSITIONAL	-6390
direction	-6391
▁customer	-6392
serialized	-6393
▁according	-6394
▁aggregate	-6395
GT	-6396
rs	-6397
zy	-6398
RIT	-6399
TML	-6400
vec	-6401
▁uv	-6402
_{\\	-6403
pand	-6404
pear	-6405
perm	-6406
▁Rot	-6407
▁dec	-6408
▁dic	-6409
▁sha	-6410
▁sun	-6411
akura	-6412
final	-6413
▁'200	-6414
▁elem	-6415
▁happ	-6416
▁java	-6417
▁perm	-6418
▁prop	-6419
livery	-6420
sively	-6421
vidend	-6422
▁Given	-6423
percent	-6424
▁Result	-6425
▁builds	-6426
▁criter	-6427
▁trials	-6428
training	-6429
transfer	-6430
▁abspath	-6431
▁enforce	-6432
▁forward	-6433
▁inspect	-6434
▁nearest	-6435
▁receive	-6436
▁writing	-6437
connected	-6438
▁activate	-6439
▁clusters	-6440
▁strftime	-6441
▁Beautiful	-6442
▁backslash	-6443
▁locations	-6444
▁subscribe	-6445
▁constraint	-6446
▁regression	-6447
▁interaction	-6448
▁nondominated	-6449
HistoryBuilder	-6450
MI	-6451
Py	-6452
SN	-6453
Com	-6454
ada	-6455
boo	-6456
dia	-6457
rgb	-6458
▁1)	-6459
▁EX	-6460
▁KE	-6461
HIST	-6462
REQU	-6463
edit	-6464
▁'00	-6465
▁'='	-6466
▁eml	-6467
▁our	-6468
acket	-6469
actor	-6470
rides	-6471
hashes	-6472
socket	-6473
stderr	-6474
▁Basic	-6475
Connect	-6476
balance	-6477
delitem	-6478
execute	-6479
nothing	-6480
▁clsDpt	-6481
▁family	-6482
▁recent	-6483
registry	-6484
rollment	-6485
▁BytesIO	-6486
▁checked	-6487
▁skipped	-6488
▁tempDpt	-6489
TypeError	-6490
▁oldIdDpt	-6491
Connection	-6492
resolution	-6493
▁Malformed	-6494
▁providedBy	-6495
▁translation	-6496
▁MalformedHeader	-6497
90	-6498
CA	-6499
If	-6500
ko	-6501
pc	-6502
ys	-6503
})	-6504
-10	-6505
ACK	-6506
bra	-6507
sep	-6508
{}/	-6509
▁Pr	-6510
'``.	-6511
Meta	-6512
eggs	-6513
pkey	-6514
push	-6515
uous	-6516
▁art	-6517
▁bel	-6518
Boxes	-6519
attis	-6520
pause	-6521
tract	-6522
ulian	-6523
▁Move	-6524
▁UUID	-6525
▁tell	-6526
System	-6527
select	-6528
▁Notes	-6529
▁human	-6530
▁links	-6531
▁world	-6532
openssl	-6533
plugins	-6534
uantity	-6535
▁spaces	-6536
atellite	-6537
frequency	-6538
▁operator	-6539
▁stations	-6540
multiplier	-6541
▁MatchType	-6542
▁components	-6543
▁equivalent	-6544
▁probability	-6545
▁successfully	-6546
77	-6547
Of	-6548
sn	-6549
':'	-6550
cas	-6551
mul	-6552
ral	-6553
uzz	-6554
▁'^	-6555
▁LC	-6556
▁fd	-6557
azoo	-6558
near	-6559
otal	-6560
▁0.9	-6561
▁Dpt	-6562
▁Fil	-6563
▁dag	-6564
▁vir	-6565
derer	-6566
exact	-6567
▁soft	-6568
Loader	-6569
Update	-6570
fellow	-6571
ipping	-6572
orders	-6573
widget	-6574
▁-----	-6575
▁MAGIC	-6576
▁ascii	-6577
▁focus	-6578
▁solar	-6579
▁spect	-6580
▁union	-6581
HISTORY	-6582
▁adding	-6583
▁exceed	-6584
▁preser	-6585
▁shared	-6586
▁shipId	-6587
▁simply	-6588
examples	-6589
external	-6590
timedelta	-6591
▁filtered	-6592
▁shipment	-6593
▁attention	-6594
▁connector	-6595
▁estimator	-6596
nonnegative	-6597
registration	-6598
'\	-6599
45	-6600
65	-6601
YY	-6602
ao	-6603
}.	-6604
'],	-6605
Pre	-6606
vie	-6607
▁Md	-6608
▁gs	-6609
Desc	-6610
Soup	-6611
Spec	-6612
agon	-6613
ardi	-6614
capt	-6615
ette	-6616
ired	-6617
oted	-6618
proc	-6619
▁4.0	-6620
▁dms	-6621
▁don	-6622
▁pdu	-6623
▁usu	-6624
OrExt	-6625
▁exit	-6626
▁font	-6627
▁stre	-6628
ofweek	-6629
▁'0000	-6630
▁agent	-6631
▁dummy	-6632
▁rooms	-6633
▁triml	-6634
▁trunc	-6635
ability	-6636
members	-6637
offsets	-6638
▁masses	-6639
wrappers	-6640
OrExtends	-6641
▁neighbor	-6642
ValueError	-6643
▁dayofweek	-6644
▁reactions	-6645
▁ciphertext	-6646
▁executable	-6647
▁references	-6648
▁trimlength	-6649
▁discriminant	-6650
▁BeautifulSoup	-6651
▁Specification	-6652
AND	-6653
New	-6654
dcd	-6655
ied	-6656
ulk	-6657
▁-1	-6658
▁gt	-6659
▁zo	-6660
LOPs	-6661
cols	-6662
draw	-6663
▁'+'	-6664
▁cat	-6665
▁ind	-6666
Mixin	-6667
Query	-6668
TOKEN	-6669
certs	-6670
curve	-6671
sizes	-6672
solar	-6673
▁idIs	-6674
charge	-6675
modify	-6676
payoff	-6677
pieces	-6678
▁Float	-6679
▁avoid	-6680
▁moves	-6681
changes	-6682
expired	-6683
▁Player	-6684
▁inside	-6685
baseline	-6686
particip	-6687
▁disable	-6688
▁persist	-6689
▁program	-6690
endpoints	-6691
▁deepcopy	-6692
▁classifier	-6693
▁compressed	-6694
displacement	-6695
▁ApiResponse	-6696
▁transformed	-6697
▁automatically	-6698
▁expectedbarcode	-6699
IM	-6700
dh	-6701
ARY	-6702
Sup	-6703
aaa	-6704
▁fg	-6705
CESS	-6706
Char	-6707
Hash	-6708
sock	-6709
uzzy	-6710
▁KEY	-6711
▁Var	-6712
Start	-6713
Tests	-6714
chiba	-6715
cimen	-6716
etrie	-6717
forge	-6718
oauth	-6719
under	-6720
▁Temp	-6721
▁gene	-6722
▁geom	-6723
OBJECT	-6724
▁genes	-6725
▁multi	-6726
▁until	-6727
forward	-6728
outputs	-6729
species	-6730
▁Module	-6731
▁angles	-6732
▁clause	-6733
▁descri	-6734
▁mocker	-6735
Resource	-6736
iterable	-6737
▁certain	-6738
▁respect	-6739
IsPrivate	-6740
▁getfirst	-6741
▁rollmean	-6742
targetlink	-6743
▁addresses	-6744
▁elevation	-6745
▁IndexError	-6746
MC	-6747
My	-6748
WN	-6749
sb	-6750
]+'	-6751
her	-6752
irs	-6753
▁ha	-6754
-01'	-6755
▁Pri	-6756
▁eol	-6757
Child	-6758
Hello	-6759
ategy	-6760
front	-6761
moves	-6762
olved	-6763
rives	-6764
▁10.0	-6765
▁NOTE	-6766
▁etcd	-6767
PREFIX	-6768
enario	-6769
tumblr	-6770
▁'1234	-6771
▁white	-6772
pasilla	-6773
▁mutant	-6774
Registry	-6775
Variable	-6776
handlers	-6777
▁depends	-6778
ListEqual	-6779
duplicate	-6780
▁suitable	-6781
dictionary	-6782
▁Condition	-6783
▁resulting	-6784
▁translate	-6785
▁Connection	-6786
▁covariance	-6787
▁determines	-6788
▁findPathwaysBy	-6789
▁assertListEqual	-6790
42	-6791
97	-6792
CP	-6793
LOW	-6794
MAC	-6795
bfb	-6796
hrc	-6797
sin	-6798
▁(2	-6799
▁-2	-6800
▁PI	-6801
7102	-6802
Safe	-6803
▁0.3	-6804
▁rsp	-6805
▁vac	-6806
▁yet	-6807
celer	-6808
codes	-6809
crets	-6810
false	-6811
kazoo	-6812
posed	-6813
reply	-6814
tries	-6815
ulses	-6816
▁Used	-6817
▁free	-6818
▁kill	-6819
▁made	-6820
▁scra	-6821
▁sear	-6822
Cannot	-6823
energy	-6824
screen	-6825
writer	-6826
▁usage	-6827
▁cutoff	-6828
▁lowres	-6829
atedBoxes	-6830
▁parallel	-6831
dependency	-6832
commodation	-6833
▁background	-6834
▁isOrExtends	-6835
CL	-6836
Za	-6837
nb	-6838
rb	-6839
*).	-6840
12:	-6841
AME	-6842
Dis	-6843
PRO	-6844
dfs	-6845
dic	-6846
umi	-6847
▁5,	-6848
▁nc	-6849
****	-6850
Iter	-6851
Numb	-6852
Only	-6853
Page	-6854
iple	-6855
mesh	-6856
prnr	-6857
▁'_'	-6858
▁Lat	-6859
▁UTF	-6860
cross	-6861
demux	-6862
slots	-6863
▁Char	-6864
▁atol	-6865
▁lead	-6866
▁repr	-6867
acerts	-6868
ballot	-6869
lonlat	-6870
proces	-6871
quared	-6872
tables	-6873
▁Regex	-6874
▁Start	-6875
▁dense	-6876
▁0.0001	-6877
▁smooth	-6878
▁ellipse	-6879
▁reflect	-6880
cientific	-6881
▁collided	-6882
▁endswith	-6883
▁patterns	-6884
subprocess	-6885
▁tolerance	-6886
▁websocket	-6887
$'	-6888
-'	-6889
-4	-6890
Ad	-6891
XY	-6892
Arg	-6893
Fat	-6894
NON	-6895
_34	-6896
ced	-6897
hor	-6898
ili	-6899
uch	-6900
▁LI	-6901
▁xs	-6902
1305	-6903
conn	-6904
enum	-6905
flat	-6906
land	-6907
valu	-6908
Inter	-6909
asked	-6910
blank	-6911
chron	-6912
isson	-6913
▁edit	-6914
▁lost	-6915
▁vals	-6916
Change	-6917
bosity	-6918
epochs	-6919
▁Queue	-6920
▁abund	-6921
▁theta	-6922
▁Checks	-6923
▁blocks	-6924
▁please	-6925
▁stride	-6926
pherical	-6927
▁Creates	-6928
▁noreply	-6929
Incorrect	-6930
localhost	-6931
▁DateTime	-6932
▁profiles	-6933
▁shutdown	-6934
properties	-6935
distributions	-6936
=2	-6937
DR	-6938
OF	-6939
kk	-6940
mr	-6941
tm	-6942
{1	-6943
"."	-6944
01_	-6945
crl	-6946
dag	-6947
xyz	-6948
}`,	-6949
▁8,	-6950
▁ER	-6951
▁Le	-6952
▁OS	-6953
▁sr	-6954
SION	-6955
aise	-6956
goog	-6957
ious	-6958
poll	-6959
▁Fix	-6960
▁dmx	-6961
NUMER	-6962
alloc	-6963
ulary	-6964
▁Find	-6965
▁GetC	-6966
▁Gets	-6967
▁Post	-6968
▁city	-6969
▁face	-6970
▁sock	-6971
▁twoD	-6972
attemp	-6973
ograph	-6974
recipi	-6975
▁books	-6976
▁uuids	-6977
▁wants	-6978
Testing	-6979
cending	-6980
compare	-6981
display	-6982
foreign	-6983
running	-6984
ullable	-6985
▁Search	-6986
▁deploy	-6987
▁frames	-6988
▁reblog	-6989
ENDPOINT	-6990
identity	-6991
keypatch	-6992
shipment	-6993
▁Address	-6994
▁TinyFat	-6995
▁certsrv	-6996
▁consist	-6997
▁declare	-6998
▁formats	-6999
▁inverse	-7000
partition	-7001
▁doctypes	-7002
+----+----	-7003
▁byteorder	-7004
▁indicates	-7005
▁iteritems	-7006
attachments	-7007
▁intersection	-7008
▁ontologyTerm	-7009
▁datastructure	-7010
0/	-7011
Ag	-7012
PY	-7013
yd	-7014
36_	-7015
Sim	-7016
ado	-7017
arm	-7018
han	-7019
oop	-7020
▁ay	-7021
lize	-7022
mime	-7023
urse	-7024
▁'3'	-7025
▁alt	-7026
▁ann	-7027
▁emp	-7028
▁ima	-7029
admin	-7030
aging	-7031
draft	-7032
ffset	-7033
stral	-7034
ymbol	-7035
▁boto	-7036
▁proj	-7037
▁pytz	-7038
▁undo	-7039
Values	-7040
gnment	-7041
ically	-7042
mitive	-7043
styles	-7044
tuples	-7045
▁visit	-7046
testing	-7047
▁driven	-7048
▁season	-7049
▁unless	-7050
Provides	-7051
capacity	-7052
putation	-7053
▁decoder	-7054
▁degrees	-7055
subscribe	-7056
▁comments	-7057
▁computed	-7058
▁services	-7059
Classifier	-7060
characters	-7061
▁extracted	-7062
▁performed	-7063
▁subclasses	-7064
presentation	-7065
▁measurement	-7066
1-	-7067
28	-7068
▁~	-7069
Inf	-7070
_2'	-7071
acy	-7072
fut	-7073
obs	-7074
tic	-7075
▁SE	-7076
▁fc	-7077
INIT	-7078
POST	-7079
Pool	-7080
vlan	-7081
▁EVP	-7082
▁MIN	-7083
▁cle	-7084
▁fib	-7085
▁occ	-7086
▁rsa	-7087
▁sli	-7088
begin	-7089
ester	-7090
gered	-7091
imits	-7092
slope	-7093
▁1234	-7094
▁nxpe	-7095
▁seen	-7096
▁stra	-7097
▁sure	-7098
Digest	-7099
indent	-7100
lihood	-7101
signal	-7102
static	-7103
▁Const	-7104
▁Query	-7105
▁confi	-7106
demuxed	-7107
disable	-7108
fficult	-7109
license	-7110
▁atomic	-7111
▁gmtime	-7112
▁launch	-7113
accounts	-7114
bilities	-7115
ellRange	-7116
openness	-7117
positive	-7118
▁against	-7119
▁datastr	-7120
▁encoder	-7121
▁COMPRESS	-7122
▁behavior	-7123
▁identify	-7124
▁nullable	-7125
Collection	-7126
difference	-7127
individual	-7128
▁ArrayLike	-7129
▁considered	-7130
▁prediction	-7131
▁revisionNumb	-7132
%(	-7133
%3	-7134
68	-7135
SK	-7136
sw	-7137
don	-7138
gps	-7139
omy	-7140
tun	-7141
yes	-7142
▁45	-7143
▁`.	-7144
▁bp	-7145
▁ct	-7146
▁px	-7147
Font	-7148
Tags	-7149
apse	-7150
flag	-7151
hrcc	-7152
leaf	-7153
rece	-7154
rome	-7155
sync	-7156
tool	-7157
▁-->	-7158
▁PRO	-7159
▁PUT	-7160
▁etc	-7161
dient	-7162
oogle	-7163
roman	-7164
▁PIPE	-7165
▁quar	-7166
▁trig	-7167
:00:00	-7168
bright	-7169
upyter	-7170
▁alive	-7171
▁front	-7172
▁ident	-7173
▁numer	-7174
▁phone	-7175
▁small	-7176
▁those	-7177
▁trees	-7178
Network	-7179
choices	-7180
ignored	-7181
ilarity	-7182
numbers	-7183
ositive	-7184
produci	-7185
windows	-7186
▁Logger	-7187
▁Random	-7188
delivery	-7189
fragment	-7190
▁Keyword	-7191
▁colored	-7192
▁iterate	-7193
necessary	-7194
orization	-7195
serialize	-7196
▁Database	-7197
▁keyboard	-7198
▁sections	-7199
▁verified	-7200
PrivateKey	-7201
closurized	-7202
▁bootstrap	-7203
▁debugging	-7204
illiseconds	-7205
Ma	-7206
$$$	-7207
12'	-7208
128	-7209
Has	-7210
MAP	-7211
Too	-7212
bla	-7213
mro	-7214
rou	-7215
viz	-7216
▁Ac	-7217
▁IS	-7218
0-9.	-7219
ATCH	-7220
Zone	-7221
ango	-7222
ived	-7223
sole	-7224
tile	-7225
~~~~	-7226
▁180	-7227
▁CPU	-7228
OrReq	-7229
VALID	-7230
flops	-7231
▁'1.2	-7232
▁'\\'	-7233
▁orig	-7234
▁pose	-7235
▁uint	-7236
▁wave	-7237
Bright	-7238
antine	-7239
bundle	-7240
bypass	-7241
health	-7242
▁black	-7243
▁fixup	-7244
0-9.]+'	-7245
Outcome	-7246
declare	-7247
dynamic	-7248
entries	-7249
filters	-7250
gorical	-7251
mkstemp	-7252
relation	-7253
▁accepts	-7254
▁country	-7255
▁setattr	-7256
▁vartype	-7257
overrides	-7258
platforms	-7259
▁alphabet	-7260
▁fraction	-7261
▁testSafe	-7262
transcript	-7263
▁Parameter	-7264
▁recurrent	-7265
transformed	-7266
▁GenerateId	-7267
▁computation	-7268
▁lostsprites	-7269
▁moduleOrReq	-7270
▁nonnegative	-7271
CD	-7272
EV	-7273
Mon	-7274
Tra	-7275
ane	-7276
baz	-7277
edu	-7278
sen	-7279
usd	-7280
▁gp	-7281
▁gw	-7282
▁sl	-7283
...'	-7284
Load	-7285
MPLE	-7286
Poly	-7287
_2_0	-7288
amel	-7289
disc	-7290
font	-7291
oled	-7292
urls	-7293
▁New	-7294
▁aop	-7295
▁txn	-7296
▁uni	-7297
▁veg	-7298
apply	-7299
pheno	-7300
▁tmpl	-7301
Remove	-7302
ential	-7303
ferred	-7304
kernel	-7305
parsed	-7306
rotate	-7307
▁Field	-7308
▁Month	-7309
▁facts	-7310
▁molar	-7311
plotlib	-7312
fficulty	-7313
▁augment	-7314
▁exactly	-7315
▁getlast	-7316
▁parsing	-7317
▁passing	-7318
▁patches	-7319
▁shuffle	-7320
▁adjacent	-7321
▁identity	-7322
▁queryset	-7323
▁savepath	-7324
▁selected	-7325
▁singular	-7326
annotation	-7327
controller	-7328
coordinate	-7329
vingspaces	-7330
identifiers	-7331
▁generation	-7332
▁quarantine	-7333
▁monkeypatch	-7334
.*	-7335
AY	-7336
Mi	-7337
'`.	-7338
Hex	-7339
IND	-7340
NaN	-7341
csi	-7342
▁(4	-7343
▁TF	-7344
▁vm	-7345
255,	-7346
Tree	-7347
acon	-7348
rend	-7349
rics	-7350
soft	-7351
▁0.7	-7352
▁pem	-7353
▁tan	-7354
esian	-7355
prior	-7356
▁Dpkg	-7357
▁Line	-7358
▁axes	-7359
▁blue	-7360
▁cone	-7361
▁fast	-7362
▁know	-7363
▁memo	-7364
▁turn	-7365
▁vina	-7366
getnew	-7367
member	-7368
probab	-7369
rouped	-7370
switch	-7371
▁orbit	-7372
NUMERIC	-7373
Product	-7374
Session	-7375
Storage	-7376
failure	-7377
jupyter	-7378
▁dsaObj	-7379
▁reload	-7380
Executor	-7381
finished	-7382
standard	-7383
▁Replace	-7384
▁Unknown	-7385
▁baseurl	-7386
▁summary	-7387
instances	-7388
separator	-7389
▁activity	-7390
▁business	-7391
▁obtained	-7392
▁pairwise	-7393
getnewargs	-7394
▁spherical	-7395
▁triggered	-7396
▁reallocate	-7397
intersection	-7398
▁milliseconds	-7399
▁Authentication	-7400
.8	-7401
67	-7402
ja	-7403
pn	-7404
Cur	-7405
LAG	-7406
SUB	-7407
ade	-7408
ely	-7409
mtx	-7410
ups	-7411
HEAD	-7412
Note	-7413
ball	-7414
uses	-7415
▁'?'	-7416
▁Com	-7417
▁agg	-7418
▁ren	-7419
▁std	-7420
ately	-7421
audio	-7422
epoch	-7423
obser	-7424
circle	-7425
curves	-7426
kmeans	-7427
llegal	-7428
luster	-7429
pulses	-7430
▁isdir	-7431
▁phase	-7432
▁plain	-7433
▁radar	-7434
Factory	-7435
pending	-7436
ription	-7437
uristic	-7438
▁CONFIG	-7439
Provider	-7440
artesian	-7441
▁Service	-7442
▁literal	-7443
▁nameDpt	-7444
▁outside	-7445
▁assemble	-7446
▁sampling	-7447
▁urlparse	-7448
Annotation	-7449
allocation	-7450
conditions	-7451
▁Alignment	-7452
fulfillment	-7453
▁similarity	-7454
▁assertIsNone	-7455
##	-7456
%#	-7457
FS	-7458
OC	-7459
123	-7460
===	-7461
DSA	-7462
ERY	-7463
INT	-7464
Oct	-7465
dns	-7466
see	-7467
▁55	-7468
▁DB	-7469
▁OR	-7470
Form	-7471
Rece	-7472
asdf	-7473
dify	-7474
mium	-7475
parm	-7476
virt	-7477
▁'@'	-7478
▁ABC	-7479
▁RSA	-7480
▁div	-7481
▁doy	-7482
▁got	-7483
based	-7484
cloud	-7485
imple	-7486
lfile	-7487
▁four	-7488
etrics	-7489
lished	-7490
listed	-7491
mutant	-7492
queued	-7493
quoted	-7494
▁creds	-7495
▁knows	-7496
▁props	-7497
▁rever	-7498
▁watch	-7499
complex	-7500
partial	-7501
patches	-7502
▁Entity	-7503
▁adjust	-7504
▁button	-7505
▁digits	-7506
▁lonlat	-7507
▁xrange	-7508
Infinity	-7509
pipeline	-7510
▁geohash	-7511
▁varname	-7512
imization	-7513
mutations	-7514
solutions	-7515
▁circular	-7516
▁commands	-7517
▁straight	-7518
▁depending	-7519
▁annotation	-7520
▁substitute	-7521
eventOutcome	-7522
▁ValidationError	-7523
.3	-7524
BO	-7525
MB	-7526
ZZ	-7527
fd	-7528
js	-7529
7-0	-7530
7.0	-7531
May	-7532
SUM	-7533
Uri	-7534
ari	-7535
scp	-7536
▁%(	-7537
:00'	-7538
DIRE	-7539
LATE	-7540
Size	-7541
ives	-7542
prom	-7543
rant	-7544
rink	-7545
▁123	-7546
▁``_	-7547
▁bro	-7548
▁flo	-7549
links	-7550
matic	-7551
ngram	-7552
wards	-7553
▁HTML	-7554
▁east	-7555
▁loss	-7556
▁nype	-7557
▁uris	-7558
▁virt	-7559
Writer	-7560
almost	-7561
minate	-7562
neighb	-7563
smooth	-7564
▁bases	-7565
▁truth	-7566
Matcher	-7567
Problem	-7568
encoded	-7569
ilinear	-7570
machine	-7571
measure	-7572
▁premis	-7573
▁rename	-7574
▁resume	-7575
▁splits	-7576
izations	-7577
▁letters	-7578
▁matcher	-7579
▁plugins	-7580
▁premium	-7581
▁special	-7582
preferred	-7583
▁Executor	-7584
containers	-7585
Application	-7586
▁attachment	-7587
▁compliance	-7588
▁expiration	-7589
▁repository	-7590
▁Application	-7591
▁directories	-7592
&'	-7593
LY	-7594
ru	-7595
xe	-7596
(['	-7597
.0,	-7598
01\	-7599
AGE	-7600
IES	-7601
IFY	-7602
KED	-7603
Sto	-7604
mix	-7605
mpt	-7606
▁"'	-7607
▁My	-7608
Fail	-7609
REVO	-7610
gast	-7611
heat	-7612
ough	-7613
▁')'	-7614
▁How	-7615
▁Web	-7616
▁``.	-7617
▁did	-7618
bases	-7619
fices	-7620
poses	-7621
sions	-7622
▁2017	-7623
▁dash	-7624
Failed	-7625
arante	-7626
indows	-7627
viding	-7628
▁There	-7629
▁fixed	-7630
▁maybe	-7631
▁picks	-7632
REVOKED	-7633
gnitude	-7634
▁fileno	-7635
▁finger	-7636
▁scaled	-7637
checkexc	-7638
chronous	-7639
▁creates	-7640
▁expires	-7641
▁ignores	-7642
checkname	-7643
converter	-7644
dependent	-7645
▁discards	-7646
executable	-7647
▁execution	-7648
▁satellite	-7649
▁threading	-7650
unallocated	-7651
▁Serializer	-7652
▁explicitly	-7653
▁concatenate	-7654
▁compresslevel	-7655
05	-7656
AP	-7657
HO	-7658
Sm	-7659
fq	-7660
hi	-7661
":"	-7662
').	-7663
()`	-7664
999	-7665
Jan	-7666
six	-7667
vac	-7668
{\\	-7669
▁6,	-7670
▁Ad	-7671
▁[]	-7672
▁rm	-7673
Find	-7674
TTER	-7675
fake	-7676
▁aws	-7677
▁csr	-7678
▁kon	-7679
▁ssl	-7680
[0-9]	-7681
alect	-7682
appro	-7683
asset	-7684
cores	-7685
pages	-7686
pedia	-7687
tures	-7688
▁Indi	-7689
▁Must	-7690
▁bbox	-7691
▁circ	-7692
▁ping	-7693
▁reco	-7694
REFUND	-7695
colors	-7696
failed	-7697
gether	-7698
racker	-7699
within	-7700
▁basis	-7701
▁cards	-7702
▁conti	-7703
▁thumb	-7704
Metrics	-7705
started	-7706
▁Calcul	-7707
▁Server	-7708
▁checks	-7709
▁genome	-7710
▁higher	-7711
pictures	-7712
▁Setting	-7713
▁configs	-7714
▁grammar	-7715
▁palette	-7716
▁species	-7717
▁artifact	-7718
▁evaluate	-7719
▁pressure	-7720
▁trailing	-7721
categories	-7722
covariance	-7723
▁validated	-7724
MethodField	-7725
▁experiment	-7726
▁IsExtraRequire	-7727
SF	-7728
pm	-7729
20_	-7730
ELD	-7731
End	-7732
_36	-7733
csr	-7734
ppy	-7735
tia	-7736
▁AL	-7737
▁AR	-7738
▁Am	-7739
Back	-7740
bias	-7741
iler	-7742
ison	-7743
nick	-7744
pred	-7745
stor	-7746
this	-7747
▁'*'	-7748
▁0.4	-7749
▁2**	-7750
▁Ref	-7751
▁Tri	-7752
▁VAR	-7753
▁spa	-7754
andle	-7755
brief	-7756
digit	-7757
linux	-7758
loyee	-7759
▁curr	-7760
▁oral	-7761
▁swap	-7762
Detail	-7763
NATIVE	-7764
arding	-7765
orient	-7766
orters	-7767
prices	-7768
▁alert	-7769
▁brain	-7770
▁clone	-7771
▁repex	-7772
KEYWORD	-7773
diction	-7774
virtual	-7775
▁Sample	-7776
▁degree	-7777
▁interp	-7778
▁lesson	-7779
▁starts	-7780
▁timing	-7781
NAMESPAC	-7782
missions	-7783
▁ordinal	-7784
▁squared	-7785
▁directly	-7786
▁durations	-7787
▁encrypted	-7788
▁iteration	-7789
Redirection	-7790
▁POSITIONAL	-7791
▁whitespace	-7792
▁transactions	-7793
▁GetClosurized	-7794
13	-7795
BZ	-7796
EP	-7797
Ge	-7798
_6	-7799
tl	-7800
AAA	-7801
BER	-7802
COD	-7803
LEV	-7804
VAR	-7805
VOL	-7806
bds	-7807
lag	-7808
▁""	-7809
▁33	-7810
▁[%	-7811
▁xr	-7812
Work	-7813
defi	-7814
dest	-7815
erms	-7816
hard	-7817
slug	-7818
ully	-7819
▁'01	-7820
▁DAG	-7821
▁pin	-7822
▁tab	-7823
confi	-7824
elect	-7825
vance	-7826
▁cand	-7827
▁puts	-7828
▁role	-7829
▁soup	-7830
Device	-7831
Parent	-7832
Script	-7833
affine	-7834
atomic	-7835
hicles	-7836
letter	-7837
▁blast	-7838
▁chdir	-7839
▁gamma	-7840
▁retry	-7841
▁ships	-7842
deficit	-7843
globals	-7844
hamming	-7845
nonzero	-7846
ynomial	-7847
▁Header	-7848
▁minute	-7849
▁saving	-7850
▁sparse	-7851
Contents	-7852
director	-7853
district	-7854
replicas	-7855
▁isclose	-7856
▁restore	-7857
installed	-7858
languages	-7859
wikipedia	-7860
▁creation	-7861
▁currency	-7862
▁scanline	-7863
▁versions	-7864
serializer	-7865
whitespace	-7866
▁centering	-7867
▁dependents	-7868
07	-7869
29	-7870
3-	-7871
yo	-7872
Feb	-7873
Gra	-7874
INE	-7875
Web	-7876
pse	-7877
▁22	-7878
▁26	-7879
▁AC	-7880
▁ix	-7881
▁rs	-7882
Args	-7883
Vars	-7884
avas	-7885
bian	-7886
izon	-7887
sens	-7888
tyle	-7889
▁Vec	-7890
▁lig	-7891
▁utf	-7892
alert	-7893
folds	-7894
issue	-7895
itial	-7896
mongo	-7897
rates	-7898
yield	-7899
▁')``	-7900
▁'{0}	-7901
▁PKey	-7902
▁Page	-7903
▁Term	-7904
▁pred	-7905
MPLATE	-7906
Pixels	-7907
ardize	-7908
cimate	-7909
digits	-7910
▁'1.2.	-7911
▁anyio	-7912
▁cprnr	-7913
▁exprs	-7914
▁quiet	-7915
▁stage	-7916
Browser	-7917
itedict	-7918
▁Update	-7919
▁around	-7920
▁budget	-7921
▁slight	-7922
specific	-7923
xception	-7924
▁RDBQCFT	-7925
▁RDBQCST	-7926
▁``(',',	-7927
▁highest	-7928
▁highres	-7929
▁nothing	-7930
▁pointer	-7931
Challenge	-7932
avascript	-7933
verbosity	-7934
▁Latitude	-7935
▁RDBQCSTR	-7936
▁abstract	-7937
▁bitarray	-7938
▁decimate	-7939
▁fullname	-7940
▁linspace	-7941
celeration	-7942
elevations	-7943
pabilities	-7944
▁callbacks	-7945
▁deviation	-7946
▁including	-7947
▁difficulty	-7948
▁spritedict	-7949
▁COMPRESSION	-7950
▁countPixels	-7951
producibility	-7952
▁friendlyname	-7953
SetVerboseLevel	-7954
Ac	-7955
Ne	-7956
dl	-7957
ACT	-7958
Aug	-7959
BUG	-7960
Car	-7961
Dec	-7962
Lay	-7963
Row	-7964
SET	-7965
SQL	-7966
cli	-7967
deg	-7968
dup	-7969
▁29	-7970
▁Fa	-7971
▁fs	-7972
Cent	-7973
HTTP	-7974
Port	-7975
ests	-7976
heet	-7977
indb	-7978
opts	-7979
safe	-7980
voke	-7981
▁'10	-7982
▁0],	-7983
▁bat	-7984
▁fps	-7985
.0.1'	-7986
.0000	-7987
decor	-7988
fully	-7989
lator	-7990
phone	-7991
vault	-7992
where	-7993
yrdoy	-7994
▁lazy	-7995
▁slug	-7996
DictBy	-7997
cident	-7998
follow	-7999
opener	-8000
scrape	-8001
vorite	-8002
▁bfile	-8003
▁chall	-8004
▁fully	-8005
▁whole	-8006
Created	-8007
Dataset	-8008
Specifi	-8009
indexes	-8010
resolve	-8011
youtube	-8012
▁Stream	-8013
▁during	-8014
▁reader	-8015
Encoding	-8016
adastral	-8017
envelope	-8018
networks	-8019
specimen	-8020
▁astropy	-8021
▁pending	-8022
▁signers	-8023
▁unknown	-8024
enticated	-8025
reactions	-8026
▁critical	-8027
▁playlist	-8028
▁refactor	-8029
▁CellRange	-8030
▁CharField	-8031
▁Transform	-8032
▁hexdigest	-8033
▁intersect	-8034
▁localized	-8035
readability	-8036
▁predictions	-8037
▁IsExtraProvide	-8038
69	-8039
AF	-8040
NE	-8041
:``	-8042
Apr	-8043
DEC	-8044
Jun	-8045
MIN	-8046
Nov	-8047
Sep	-8048
Val	-8049
cce	-8050
ini	-8051
ond	-8052
roy	-8053
tls	-8054
▁4.	-8055
▁48	-8056
▁bx	-8057
6666	-8058
_34_	-8059
acme	-8060
alan	-8061
flux	-8062
maph	-8063
udio	-8064
uite	-8065
▁coe	-8066
EVENT	-8067
FLOPs	-8068
asite	-8069
iving	-8070
media	-8071
rowth	-8072
while	-8073
▁-2**	-8074
▁AUTH	-8075
▁Disp	-8076
▁buff	-8077
▁easy	-8078
▁prep	-8079
▁snap	-8080
maxima	-8081
onical	-8082
sorted	-8083
umeric	-8084
▁Reset	-8085
▁pages	-8086
▁produ	-8087
angular	-8088
centers	-8089
chaindb	-8090
geojson	-8091
getlist	-8092
install	-8093
maphore	-8094
reorder	-8095
secrets	-8096
▁Object	-8097
▁issuer	-8098
▁julian	-8099
▁listen	-8100
▁native	-8101
▁scroll	-8102
Positive	-8103
datasets	-8104
strument	-8105
▁aliases	-8106
▁prevent	-8107
▁sigmoid	-8108
operating	-8109
▁Argument	-8110
▁handling	-8111
▁mutation	-8112
▁security	-8113
▁slightly	-8114
curriculum	-8115
downloaded	-8116
namedtuple	-8117
▁ascending	-8118
▁paragraph	-8119
▁rectangle	-8120
▁MockSocket	-8121
Authorization	-8122
▁organization	-8123
"]	-8124
GH	-8125
bl	-8126
ART	-8127
UTF	-8128
`).	-8129
dge	-8130
inn	-8131
kit	-8132
mak	-8133
met	-8134
rab	-8135
sal	-8136
ums	-8137
xxx	-8138
zen	-8139
zer	-8140
▁2)	-8141
▁CA	-8142
▁["	-8143
▁tl	-8144
LAST	-8145
PKCS	-8146
RESP	-8147
ames	-8148
repe	-8149
sell	-8150
wire	-8151
▁'20	-8152
▁UID	-8153
▁bst	-8154
▁npt	-8155
▁tdm	-8156
▁{},	-8157
LEVEL	-8158
Small	-8159
Style	-8160
clone	-8161
denom	-8162
idata	-8163
jango	-8164
micro	-8165
mysql	-8166
ticle	-8167
▁chip	-8168
▁dado	-8169
▁nums	-8170
▁once	-8171
▁wild	-8172
NUMBER	-8173
chunks	-8174
expand	-8175
lashes	-8176
nccorr	-8177
ocrypt	-8178
▁'10.0	-8179
▁0.001	-8180
▁euler	-8181
▁later	-8182
▁power	-8183
▁sales	-8184
▁yrdoy	-8185
IsLocal	-8186
Resolve	-8187
calorie	-8188
highest	-8189
setattr	-8190
▁Declar	-8191
▁choice	-8192
▁equals	-8193
Identity	-8194
activity	-8195
imported	-8196
revision	-8197
▁1000000	-8198
▁Compute	-8199
▁collect	-8200
important	-8201
mplements	-8202
▁Quantity	-8203
▁bilinear	-8204
▁builders	-8205
▁internal	-8206
▁priority	-8207
Coordinate	-8208
Serializer	-8209
enrollment	-8210
experiment	-8211
repository	-8212
▁Longitude	-8213
▁Resources	-8214
▁getDictBy	-8215
▁inventory	-8216
▁positions	-8217
▁Declarator	-8218
▁translator	-8219
▁performance	-8220
▁dependencies	-8221
reproducibility	-8222
/%	-8223
=1	-8224
Ab	-8225
mu	-8226
vs	-8227
'))	-8228
-0.	-8229
;16	-8230
AML	-8231
DDL	-8232
clx	-8233
flg	-8234
nps	-8235
spl	-8236
tid	-8237
xms	-8238
▁99	-8239
READ	-8240
aked	-8241
crop	-8242
geno	-8243
▁Def	-8244
▁Tag	-8245
▁fst	-8246
▁mit	-8247
▁psf	-8248
▁sci	-8249
QUERY	-8250
inner	-8251
joint	-8252
lates	-8253
major	-8254
rozen	-8255
staff	-8256
verti	-8257
vocab	-8258
▁Call	-8259
▁Java	-8260
▁Moto	-8261
▁Pool	-8262
▁Pure	-8263
▁Save	-8264
▁Stri	-8265
▁adam	-8266
▁cron	-8267
▁dief	-8268
▁geno	-8269
▁spaw	-8270
Marker	-8271
ackage	-8272
gsuite	-8273
plicit	-8274
rapper	-8275
stride	-8276
▁'2016	-8277
▁fuzzy	-8278
▁posts	-8279
revoked	-8280
▁Action	-8281
▁closed	-8282
▁spikes	-8283
CopyFile	-8284
PBuilder	-8285
Provided	-8286
getfirst	-8287
security	-8288
▁Element	-8289
▁complic	-8290
▁defines	-8291
▁fulfill	-8292
▁ordered	-8293
Converter	-8294
addresses	-8295
euclidean	-8296
DmsBuilder	-8297
SmsBuilder	-8298
ifications	-8299
normalized	-8300
transition	-8301
▁Recurrent	-8302
▁documents	-8303
▁conversion	-8304
▁descriptor	-8305
▁executeDDL	-8306
accommodation	-8307
3)	-8308
61	-8309
RC	-8310
_5	-8311
vn	-8312
+00	-8313
-07	-8314
1.0	-8315
>=2	-8316
AST	-8317
Opt	-8318
air	-8319
opa	-8320
ric	-8321
tld	-8322
▁1]	-8323
▁3,	-8324
▁dw	-8325
▁ke	-8326
BASE	-8327
IGIN	-8328
Used	-8329
cing	-8330
inke	-8331
leap	-8332
osen	-8333
suid	-8334
▁EOL	-8335
▁[1]	-8336
▁acl	-8337
▁eid	-8338
▁rem	-8339
▁wsr	-8340
Total	-8341
clean	-8342
endor	-8343
ngine	-8344
prepa	-8345
spend	-8346
stock	-8347
▁2016	-8348
▁Some	-8349
▁lose	-8350
▁meth	-8351
ORIGIN	-8352
Plugin	-8353
Series	-8354
Struct	-8355
VERIFY	-8356
inkexe	-8357
packet	-8358
paired	-8359
readth	-8360
restri	-8361
synony	-8362
▁Multi	-8363
▁OAuth	-8364
▁Usage	-8365
▁floor	-8366
▁tpDoc	-8367
▁tsuid	-8368
▁tukey	-8369
exclude	-8370
ificant	-8371
mpleted	-8372
primary	-8373
updated	-8374
▁contra	-8375
▁infile	-8376
▁lowest	-8377
▁market	-8378
explicit	-8379
products	-8380
progress	-8381
quantile	-8382
▁MdUtils	-8383
▁Project	-8384
▁contact	-8385
▁fellows	-8386
▁regular	-8387
Transform	-8388
challenge	-8389
locations	-8390
recursive	-8391
▁TermType	-8392
▁listener	-8393
▁plinkexe	-8394
▁shipping	-8395
▁contained	-8396
▁optimizer	-8397
▁providing	-8398
▁SmsBuilder	-8399
OntologyTerm	-8400
▁implementedBy	-8401
▁tpDocClassifier	-8402
/1	-8403
73	-8404
SL	-8405
cb	-8406
wl	-8407
="5	-8408
ANG	-8409
Alm	-8410
Bin	-8411
EFT	-8412
LOC	-8413
Pop	-8414
jpg	-8415
qop	-8416
ros	-8417
tsv	-8418
▁1'	-8419
▁NT	-8420
▁Pl	-8421
▁Sk	-8422
▁mx	-8423
JSON	-8424
MOTO	-8425
Root	-8426
Task	-8427
Util	-8428
amed	-8429
igma	-8430
moto	-8431
onac	-8432
race	-8433
riov	-8434
seto	-8435
ydro	-8436
▁'4'	-8437
▁1.1	-8438
▁And	-8439
▁nex	-8440
▁oth	-8441
▁qop	-8442
▁sff	-8443
▁sta	-8444
([[0,	-8445
Layer	-8446
ashrc	-8447
chema	-8448
cvlan	-8449
dians	-8450
ertia	-8451
retty	-8452
ridge	-8453
▁Clar	-8454
▁FROM	-8455
▁Fore	-8456
▁LEFT	-8457
▁moto	-8458
▁prom	-8459
CONSUM	-8460
anisms	-8461
asdict	-8462
lapsed	-8463
masked	-8464
tested	-8465
▁REAlm	-8466
▁Table	-8467
▁fails	-8468
▁metal	-8469
▁mkdir	-8470
▁snake	-8471
▁solve	-8472
matched	-8473
refunds	-8474
spacing	-8475
unknown	-8476
▁Either	-8477
▁MinMax	-8478
▁compat	-8479
▁listed	-8480
▁manage	-8481
▁maxmem	-8482
▁maxval	-8483
▁others	-8484
▁stores	-8485
▁vacant	-8486
gateways	-8487
paramref	-8488
urations	-8489
▁Clarity	-8490
▁expired	-8491
▁explore	-8492
▁fitness	-8493
▁focused	-8494
CONSUMING	-8495
OntologyT	-8496
generated	-8497
tfrecords	-8498
▁TFRecord	-8499
▁calendar	-8500
▁streamed	-8501
▁supposed	-8502
EntityType	-8503
researcher	-8504
▁HTTPretty	-8505
▁benchmark	-8506
▁exceeding	-8507
▁scheduled	-8508
▁scheduler	-8509
▁something	-8510
▁subtitles	-8511
▁everything	-8512
▁processing	-8513
▁specifying	-8514
▁complicated	-8515
▁deserialize	-8516
▁efficiently	-8517
▁barcodelength	-8518
▁randomerlength	-8519
49	-8520
OP	-8521
-04	-8522
ARN	-8523
CES	-8524
Cre	-8525
Jul	-8526
Mar	-8527
NET	-8528
YLE	-8529
ptr	-8530
rum	-8531
yml	-8532
▁CR	-8533
▁PY	-8534
▁sf	-8535
▁{1	-8536
1234	-8537
3:06	-8538
Card	-8539
HERE	-8540
diac	-8541
mosp	-8542
nums	-8543
reco	-8544
runs	-8545
uint	-8546
xist	-8547
▁eip	-8548
▁nom	-8549
▁rst	-8550
EXTRA	-8551
Units	-8552
_136_	-8553
above	-8554
amera	-8555
anner	-8556
metal	-8557
wrong	-8558
▁Dmtx	-8559
▁bear	-8560
▁bulk	-8561
▁feat	-8562
▁kwds	-8563
▁rtol	-8564
Helper	-8565
ergast	-8566
ermsBy	-8567
wpoint	-8568
▁Print	-8569
▁These	-8570
▁adata	-8571
▁hyper	-8572
▁makes	-8573
Options	-8574
episode	-8575
futures	-8576
longest	-8577
mdutils	-8578
surface	-8579
▁1000.0	-8580
▁Kattis	-8581
▁Status	-8582
▁merged	-8583
▁pprint	-8584
▁sqlite	-8585
absolute	-8586
currency	-8587
▁'12345'	-8588
▁GetFile	-8589
▁Pattern	-8590
▁escaped	-8591
▁modules	-8592
▁offsets	-8593
▁penalty	-8594
▁reactor	-8595
uplicates	-8596
▁replicas	-8597
▁together	-8598
cdshealpix	-8599
descriptor	-8600
▁Appending	-8601
▁cadastral	-8602
▁difference	-8603
▁matplotlib	-8604
▁particular	-8605
▁represents	-8606
============	-8607
CurationTags	-8608
▁orientation	-8609
IdentityField	-8610
▁RotatedBoxes	-8611
OntologyTermsBy	-8612
.9	-8613
89	-8614
../	-8615
={}	-8616
>`_	-8617
ICE	-8618
ORK	-8619
`::	-8620
iff	-8621
iou	-8622
mth	-8623
rad	-8624
vas	-8625
▁EC	-8626
▁Jo	-8627
▁Su	-8628
▁er	-8629
▁fq	-8630
▁jd	-8631
▁mf	-8632
ABLE	-8633
Keys	-8634
LECT	-8635
Long	-8636
ONLY	-8637
USER	-8638
does	-8639
omic	-8640
unct	-8641
veni	-8642
▁aid	-8643
▁ans	-8644
▁bmc	-8645
▁gpg	-8646
▁sil	-8647
MATCH	-8648
STYLE	-8649
atter	-8650
balan	-8651
fname	-8652
hemer	-8653
ident	-8654
ining	-8655
occup	-8656
redis	-8657
▁'./'	-8658
▁coer	-8659
▁cost	-8660
arrays	-8661
cookie	-8662
corpse	-8663
define	-8664
onacci	-8665
ortran	-8666
▁sakoe	-8667
Example	-8668
Unknown	-8669
aliases	-8670
clusion	-8671
ignores	-8672
▁System	-8673
▁Yields	-8674
▁annual	-8675
▁getcwd	-8676
▁longer	-8677
▁reward	-8678
▁thresh	-8679
Validate	-8680
modified	-8681
populate	-8682
venience	-8683
▁CheckIs	-8684
▁analyze	-8685
▁bdsweek	-8686
▁gpsweek	-8687
▁grouped	-8688
▁itakura	-8689
▁lengths	-8690
▁variant	-8691
Generator	-8692
benchmark	-8693
singleton	-8694
traceback	-8695
▁curation	-8696
▁datasize	-8697
▁deviceID	-8698
▁imported	-8699
▁prepared	-8700
▁relation	-8701
▁repeated	-8702
conversion	-8703
innovation	-8704
webservice	-8705
▁Statement	-8706
▁transport	-8707
▁transpose	-8708
▁Calculates	-8709
▁Closurized	-8710
▁References	-8711
▁completion	-8712
Distribution	-8713
▁interpolate	-8714
▁transcripts	-8715
NotFoundError	-8716
▁serializable	-8717
▁IsFirstProvide	-8718
>,	-8719
GA	-8720
SB	-8721
bt	-8722
dc	-8723
zh	-8724
01'	-8725
aka	-8726
cis	-8727
dit	-8728
may	-8729
nni	-8730
uck	-8731
▁"%	-8732
▁(3	-8733
▁ly	-8734
▁oh	-8735
▁sz	-8736
CODE	-8737
Over	-8738
buff	-8739
cons	-8740
phen	-8741
prev	-8742
ulia	-8743
▁2.1	-8744
▁AND	-8745
▁Man	-8746
▁XML	-8747
▁mZZ	-8748
▁pbm	-8749
▁tax	-8750
Agent	-8751
COVAR	-8752
TYPES	-8753
ables	-8754
align	-8755
cells	-8756
edirs	-8757
lying	-8758
rator	-8759
▁'0.0	-8760
▁From	-8761
▁Meta	-8762
▁crps	-8763
▁frmt	-8764
Cipher	-8765
Packet	-8766
pandas	-8767
▁issub	-8768
▁kwarg	-8769
▁mouse	-8770
▁refer	-8771
▁whose	-8772
AddUsed	-8773
Changes	-8774
dequote	-8775
getlast	-8776
indrome	-8777
mention	-8778
monitor	-8779
▁chosen	-8780
▁crypto	-8781
▁moment	-8782
▁subset	-8783
calendar	-8784
▁discard	-8785
▁history	-8786
▁pkgpath	-8787
▁printed	-8788
▁spacing	-8789
▁Pubtator	-8790
▁Variable	-8791
▁combined	-8792
▁creating	-8793
▁purposes	-8794
▁searched	-8795
AddCreated	-8796
NAMESPACES	-8797
processing	-8798
scientific	-8799
▁Generally	-8800
▁pluralize	-8801
▁retrieved	-8802
▁configured	-8803
▁transcript	-8804
▁GetProvided	-8805
▁GetRequired	-8806
▁ProcessToken	-8807
▁IsLastProvide	-8808
▁IsLastRequire	-8809
▁documentation	-8810
▁IsFirstRequire	-8811
▁abstractmethod	-8812
AddUsedNamespace	-8813
'-	-8814
((	-8815
6,	-8816
6_	-8817
85	-8818
CN	-8819
DO	-8820
GO	-8821
LR	-8822
Ti	-8823
10'	-8824
=1.	-8825
ASH	-8826
Bar	-8827
buy	-8828
iso	-8829
odb	-8830
rea	-8831
sth	-8832
▁00	-8833
▁Fe	-8834
▁Py	-8835
▁So	-8836
▁TE	-8837
▁mg	-8838
WORK	-8839
coin	-8840
frmt	-8841
hint	-8842
lead	-8843
lsst	-8844
ongs	-8845
pull	-8846
writ	-8847
▁16.	-8848
▁199	-8849
▁Exp	-8850
▁NON	-8851
▁acc	-8852
▁cli	-8853
▁hor	-8854
▁smo	-8855
▁udf	-8856
SPACE	-8857
ached	-8858
asons	-8859
idade	-8860
inalg	-8861
paint	-8862
parts	-8863
ppend	-8864
tical	-8865
toler	-8866
vince	-8867
▁Thus	-8868
▁Uses	-8869
▁anti	-8870
▁dirs	-8871
▁fall	-8872
Params	-8873
Thread	-8874
adcode	-8875
pandoc	-8876
▁MATCH	-8877
▁booze	-8878
▁reads	-8879
REQUEST	-8880
collect	-8881
decoder	-8882
implied	-8883
methods	-8884
persons	-8885
veloped	-8886
▁frozen	-8887
▁recipe	-8888
▁rstrip	-8889
▁shrink	-8890
▁shutil	-8891
▁silent	-8892
Multiple	-8893
manifest	-8894
pngsuite	-8895
provides	-8896
▁belongs	-8897
▁idIsInt	-8898
▁smaller	-8899
▁testGet	-8900
fractions	-8901
▁criteria	-8902
▁estimate	-8903
▁notation	-8904
▁produced	-8905
▁question	-8906
embeddings	-8907
▁databases	-8908
▁exclusive	-8909
▁therefore	-8910
CurationTag	-8911
spritegroup	-8912
transactions	-8913
▁calculation	-8914
▁replacement	-8915
▁significant	-8916
▁getPathwaysBy	-8917
▁interpolation	-8918
▁ontologyTermId	-8919
▁getCurationTags	-8920
*3	-8921
=0	-8922
SG	-8923
mg	-8924
wb	-8925
}}	-8926
+\\	-8927
OUR	-8928
VMS	-8929
acl	-8930
epo	-8931
fly	-8932
hmm	-8933
pag	-8934
rsp	-8935
▁44	-8936
▁AN	-8937
▁Ge	-8938
▁kb	-8939
ATET	-8940
_256	-8941
cles	-8942
ened	-8943
loss	-8944
nela	-8945
otor	-8946
oute	-8947
rams	-8948
vols	-8949
▁'&'	-8950
▁pvo	-8951
▁scr	-8952
▁{0}	-8953
Exons	-8954
Names	-8955
accum	-8956
aming	-8957
probe	-8958
sriov	-8959
stems	-8960
weave	-8961
▁Func	-8962
▁Mark	-8963
▁deps	-8964
▁disk	-8965
▁emit	-8966
▁flux	-8967
▁pods	-8968
▁refl	-8969
Module	-8970
accept	-8971
alphan	-8972
attack	-8973
contin	-8974
ialize	-8975
levels	-8976
locked	-8977
months	-8978
recipe	-8979
riding	-8980
tected	-8981
thresh	-8982
▁marks	-8983
ATETIME	-8984
chunked	-8985
flannel	-8986
macvlan	-8987
olation	-8988
predict	-8989
triplex	-8990
▁Plugin	-8991
▁entire	-8992
▁extent	-8993
▁issues	-8994
▁likely	-8995
▁logout	-8996
▁routes	-8997
33333333	-8998
Template	-8999
collides	-9000
dividend	-9001
upstream	-9002
▁Ensures	-9003
▁Maximum	-9004
▁derives	-9005
▁ranking	-9006
▁related	-9007
Specified	-9008
processed	-9009
terminals	-9010
▁mismatch	-9011
▁observed	-9012
▁pvolfile	-9013
▁renderer	-9014
networking	-9015
references	-9016
▁Calculate	-9017
▁Generator	-9018
▁phenofile	-9019
▁readlines	-9020
Requirement	-9021
translation	-9022
▁controller	-9023
▁converting	-9024
▁encryption	-9025
▁inputtrace	-9026
▁structures	-9027
▁submission	-9028
alphanumeric	-9029
participants	-9030
▁asynchronous	-9031
▁respectively	-9032
0000000000000000	-9033
">	-9034
60	-9035
63	-9036
79	-9037
?)	-9038
Cs	-9039
JP	-9040
OG	-9041
ui	-9042
3",	-9043
ACV	-9044
MEM	-9045
TTT	-9046
dor	-9047
hue	-9048
iki	-9049
men	-9050
▁	-9051
e	-9052
t	-9053
s	-9054
a	-9055
r	-9056
n	-9057
i	-9058
o	-9059
l	-9060
.	-9061
d	-9062
_	-9063
f	-9064
c	-9065
p	-9066
u	-9067
m	-9068
)	-9069
(	-9070
,	-9071
:	-9072
h	-9073
g	-9074
'	-9075
=	-9076
y	-9077
b	-9078
v	-9079
k	-9080
w	-9081
"	-9082
x	-9083
0	-9084
-	-9085
1	-9086
N	-9087
T	-9088
[	-9089
E	-9090
]	-9091
F	-9092
S	-9093
q	-9094
C	-9095
2	-9096
`	-9097
A	-9098
D	-9099
L	-9100
R	-9101
I	-9102
j	-9103
*	-9104
P	-9105
>	-9106
z	-9107
O	-9108
/	-9109
M	-9110
3	-9111
5	-9112
B	-9113
U	-9114
4	-9115
{	-9116
}	-9117
8	-9118
G	-9119
6	-9120
+	-9121
H	-9122
9	-9123
V	-9124
W	-9125
7	-9126
\	-9127
%	-9128
X	-9129
K	-9130
Y	-9131
<	-9132
@	-9133
J	-9134
Q	-9135
Z	-9136
!	-9137
;	-9138
|	-9139
#	-9140
?	-9141
&	-9142
~	-9143
$	-9144
^	-9145
的	-9146
а	-9147
и	-9148
о	-9149
е	-9150
т	-9151
с	-9152
л	-9153
の	-9154
н	-9155
数	-9156
字	-9157
·	-9158
р	-9159
文	-9160
一	-9161
é	-9162
用	-9163
为	-9164
取	-9165
本	-9166
в	-9167
ú	-9168
日	-9169
返	-9170
ä	-9171
’	-9172
列	-9173
ö	-9174
к	-9175
下	-9176
志	-9177
у	-9178
ц	-9179
м	-9180
上	-9181
件	-9182
获	-9183
回	-9184
ッ	-9185
分	-9186
í	-9187
ь	-9188
を	-9189
例	-9190
行	-9191
б	-9192
す	-9193
メ	-9194
入	-9195
至	-9196
á	-9197
п	-9198
“	-9199
”	-9200
级	-9201
ć	-9202
ч	-9203
я	-9204
。	-9205
し	-9206
是	-9207
测	-9208
试	-9209
ü	-9210
д	-9211
れ	-9212
シ	-9213
ト	-9214
不	-9215
名	-9216
比	-9217
点	-9218
‘	-9219
、	-9220
个	-9221
向	-9222
如	-9223
时	-9224
ã	-9225
ÿ	-9226
λ	-9227
ュ	-9228
出	-9229
接	-9230
果	-9231
ç	-9232
х	-9233
ы	-9234
中	-9235
从	-9236
百	-9237
对	-9238
成	-9239
模	-9240
片	-9241
集	-9242
た	-9243
に	-9244
る	-9245
幕	-9246
径	-9247
路	-9248
输	-9249
ó	-9250
ж	-9251
ф	-9252
–	-9253
さ	-9254
リ	-9255
信	-9256
力	-9257
可	-9258
地	-9259
♥	-9260
て	-9261
以	-9262
值	-9263
区	-9264
度	-9265
有	-9266
à	-9267
г	-9268
ー	-9269
偏	-9270
别	-9271
图	-9272
定	-9273
应	-9274
股	-9275
表	-9276
ǎ	-9277
ǝ	-9278
ə	-9279
з	-9280
い	-9281
ス	-9282
元	-9283
参	-9284
息	-9285
政	-9286
方	-9287
最	-9288
移	-9289
要	-9290
间	-9291
μ	-9292
单	-9293
发	-9294
口	-9295
右	-9296
在	-9297
样	-9298
求	-9299
¥	-9300
β	-9301
─	-9302
と	-9303
オ	-9304
三	-9305
于	-9306
函	-9307
大	-9308
容	-9309
対	-9310
左	-9311
市	-9312
户	-9313
据	-9314
次	-9315
置	-9316
й	-9317
ە	-9318
√	-9319
か	-9320
ま	-9321
动	-9322
啦	-9323
小	-9324
征	-9325
書	-9326
特	-9327
素	-9328
结	-9329
转	-9330
选	-9331
量	-9332
×	-9333
è	-9334
ı	-9335
ž	-9336
ю	-9337
は	-9338
了	-9339
二	-9340
人	-9341
使	-9342
到	-9343
后	-9344
和	-9345
坐	-9346
屏	-9347
打	-9348
机	-9349
来	-9350
板	-9351
标	-9352
根	-9353
票	-9354
符	-9355
第	-9356
类	-9357
设	-9358
请	-9359
送	-9360
～	-9361
🥳	-9362
å	-9363
š	-9364
щ	-9365
ر	-9366
う	-9367
ジ	-9368
フ	-9369
位	-9370
作	-9371
去	-9372
各	-9373
否	-9374
夹	-9375
套	-9376
引	-9377
或	-9378
所	-9379
指	-9380
清	-9381
索	-9382
組	-9383
终	-9384
能	-9385
读	-9386
起	-9387
这	-9388
面	-9389
Ć	-9390
Đ	-9391
đ	-9392
Š	-9393
Ž	-9394
ˈ	-9395
Π	-9396
—	-9397
€	-9398
✘	-9399
あ	-9400
そ	-9401
で	-9402
ら	-9403
串	-9404
交	-9405
兼	-9406
内	-9407
印	-9408
型	-9409
子	-9410
年	-9411
执	-9412
止	-9413
滑	-9414
版	-9415
象	-9416
过	-9417
进	-9418
通	-9419
邮	-9420
配	-9421
除	-9422
æ	-9423
ñ	-9424
ɔ	-9425
ʎ	-9426
ـ	-9427
ه	-9428
و	-9429
ᴉ	-9430
→	-9431
−	-9432
え	-9433
互	-9434
传	-9435
候	-9436
写	-9437
则	-9438
包	-9439
匹	-9440
原	-9441
只	-9442
号	-9443
址	-9444
天	-9445
好	-9446
序	-9447
开	-9448
式	-9449
応	-9450
总	-9451
情	-9452
手	-9453
择	-9454
正	-9455
沌	-9456
混	-9457
现	-9458
番	-9459
目	-9460
相	-9461
秒	-9462
端	-9463
算	-9464
経	-9465
結	-9466
緯	-9467
被	-9468
认	-9469
详	-9470
资	-9471
連	-9472
键	-9473
默	-9474
😇	-9475
🧼	-9476
°	-9477
»	-9478
â	-9479
ì	-9480
õ	-9481
ł	-9482
ō	-9483
γ	-9484
κ	-9485
ز	-9486
∨	-9487
⛿	-9488
✔	-9489
な	-9490
ア	-9491
ク	-9492
セ	-9493
ド	-9494
ラ	-9495
ル	-9496
产	-9497
令	-9498
兩	-9499
准	-9500
划	-9501
制	-9502
前	-9503
加	-9504
勝	-9505
句	-9506
命	-9507
四	-9508
处	-9509
失	-9510
头	-9511
存	-9512
安	-9513
家	-9514
建	-9515
当	-9516
录	-9517
想	-9518
意	-9519
找	-9520
报	-9521
持	-9522
按	-9523
换	-9524
控	-9525
放	-9526
无	-9527
明	-9528
時	-9529
条	-9530
查	-9531
柴	-9532
格	-9533
理	-9534
田	-9535
直	-9536
码	-9537
确	-9538
续	-9539
苹	-9540
解	-9541
語	-9542
说	-9543
调	-9544
败	-9545
超	-9546
音	-9547
页	-9548
黑	-9549
녕	-9550
안	-9551
𠮟	-9552
Ä	-9553
ş	-9554
ɐ	-9555
ʞ	-9556
П	-9557
ب	-9558
ن	-9559
←	-9560
↑	-9561
└	-9562
く	-9563
み	-9564
ェ	-9565
カ	-9566
コ	-9567
タ	-9568
プ	-9569
ペ	-9570
两	-9571
他	-9572
供	-9573
値	-9574
关	-9575
典	-9576
击	-9577
创	-9578
删	-9579
削	-9580
功	-9581
及	-9582
台	-9583
合	-9584
同	-9585
含	-9586
响	-9587
器	-9588
固	-9589
域	-9590
場	-9591
始	-9592
尔	-9593
常	-9594
弹	-9595
很	-9596
必	-9597
才	-9598
拟	-9599
掉	-9600
提	-9601
插	-9602
搜	-9603
整	-9604
新	-9605
横	-9606
此	-9607
每	-9608
洞	-9609
率	-9610
生	-9611
由	-9612
界	-9613
矩	-9614
短	-9615
种	-9616
程	-9617
空	-9618
窗	-9619
纵	-9620
细	-9621
给	-9622
统	-9623
者	-9624
联	-9625
自	-9626
节	-9627
芒	-9628
英	-9629
装	-9630
该	-9631
谢	-9632
边	-9633
述	-9634
速	-9635
部	-9636
都	-9637
长	-9638
阵	-9639
限	-9640
順	-9641
须	-9642
顿	-9643
📋	-9644
🧪	-9645
¬	-9646
À	-9647
Á	-9648
Å	-9649
Ç	-9650
ê	-9651
ï	-9652
ô	-9653
ą	-9654
ğ	-9655
ǐ	-9656
ɹ	-9657
ʇ	-9658
В	-9659
Р	-9660
Т	-9661
Ф	-9662
ئ	-9663
ھ	-9664
ی	-9665
∧	-9666
␉	-9667
├	-9668
☃	-9669
☻	-9670
✓	-9671
❝	-9672
❞	-9673
が	-9674
っ	-9675
り	-9676
イ	-9677
キ	-9678
グ	-9679
ゲ	-9680
サ	-9681
デ	-9682
ナ	-9683
パ	-9684
ブ	-9685
ロ	-9686
万	-9687
义	-9688
也	-9689
五	-9690
仅	-9691
代	-9692
任	-9693
何	-9694
個	-9695
側	-9696
先	-9697
全	-9698
公	-9699
册	-9700
净	-9701
割	-9702
化	-9703
単	-9704
博	-9705
城	-9706
基	-9707
多	-9708
奇	-9709
学	-9710
完	-9711
实	-9712
少	-9713
就	-9714
并	-9715
彩	-9716
後	-9717
快	-9718
性	-9719
我	-9720
描	-9721
操	-9722
支	-9723
收	-9724
效	-9725
晴	-9726
更	-9727
替	-9728
期	-9729
未	-9730
权	-9731
析	-9732
架	-9733
框	-9734
桩	-9735
森	-9736
段	-9737
気	-9738
法	-9739
洗	-9740
流	-9741
添	-9742
物	-9743
登	-9744
睡	-9745
知	-9746
禁	-9747
积	-9748
站	-9749
筛	-9750
简	-9751
纬	-9752
线	-9753
经	-9754
络	-9755
网	-9756
色	-9757
规	-9758
計	-9759
警	-9760
计	-9761
话	-9762
语	-9763
跳	-9764
载	-9765
还	-9766
连	-9767
适	-9768
逆	-9769
道	-9770
金	-9771
链	-9772
锁	-9773
随	-9774
需	-9775
頭	-9776
频	-9777
ꯍ	-9778
¡	-9779
¢	-9780
«	-9781
Â	-9782
É	-9783
Î	-9784
Ð	-9785
Ñ	-9786
Ó	-9787
Ø	-9788
Ý	-9789
ß	-9790
î	-9791
÷	-9792
û	-9793
ā	-9794
ē	-9795
ę	-9796
ř	-9797
ś	-9798
ż	-9799
ɾ	-9800
э	-9801
ا	-9802
ت	-9803
ك	-9804
م	-9805
ي	-9806
٠	-9807
١	-9808
٢	-9809
٣	-9810
٤	-9811
٥	-9812
٦	-9813
٧	-9814
٨	-9815
٩	-9816
ڕ	-9817
ک	-9818
گ	-9819
۰	-9820
۱	-9821
۲	-9822
۳	-9823
۴	-9824
۵	-9825
۶	-9826
۷	-9827
۸	-9828
۹	-9829
က	-9830
›	-9831
∞	-9832
␊	-9833
【	-9834
】	-9835
お	-9836
ぞ	-9837
だ	-9838
ど	-9839
べ	-9840
も	-9841
ァ	-9842
エ	-9843
ソ	-9844
ダ	-9845
チ	-9846
ネ	-9847
ム	-9848
モ	-9849
レ	-9850
ン	-9851
与	-9852
业	-9853
両	-9854
么	-9855
乌	-9856
会	-9857
体	-9858
便	-9859
储	-9860
具	-9861
再	-9862
况	-9863
几	-9864
切	-9865
务	-9866
匀	-9867
医	-9868
华	-9869
占	-9870
即	-9871
吃	-9872
味	-9873
唤	-9874
啟	-9875
块	-9876
報	-9877
境	-9878
士	-9879
备	-9880
変	-9881
外	-9882
奥	-9883
官	-9884
実	-9885
密	-9886
寧	-9887
将	-9888
尾	-9889
展	-9890
島	-9891
州	-9892
工	-9893
已	-9894
带	-9895
广	-9896
弱	-9897
強	-9898
形	-9899
影	-9900
待	-9901
得	-9902
怎	-9903
惰	-9904
慮	-9905
截	-9906
承	-9907
拂	-9908
拖	-9909
拼	-9910
拽	-9911
排	-9912
換	-9913
播	-9914
料	-9915
晚	-9916
服	-9917
望	-9918
末	-9919
束	-9920
极	-9921
林	-9922
柏	-9923
某	-9924
残	-9925
母	-9926
没	-9927
注	-9928
海	-9929
深	-9930
滚	-9931
滤	-9932
潘	-9933
然	-9934
照	-9935
熵	-9936
玮	-9937
異	-9938
白	-9939
盈	-9940
益	-9941
盘	-9942
看	-9943
真	-9944
着	-9945
磁	-9946
示	-9947
离	-9948
称	-9949
種	-9950
箱	-9951
系	-9952
終	-9953
绝	-9954
继	-9955
考	-9956
若	-9957
觉	-9958
記	-9959
設	-9960
譬	-9961
让	-9962
议	-9963
贵	-9964
距	-9965
退	-9966
那	-9967
錄	-9968
针	-9969
银	-9970
開	-9971
関	-9972
闭	-9973
闸	-9974
附	-9975
际	-9976
隔	-9977
非	-9978
領	-9979
類	-9980
飞	-9981
饭	-9982
세	-9983
영	-9984
요	-9985
일	-9986
하	-9987
🂠	-9988
👋	-9989
🠦	-9990
