<unk>	0
<s>	0
</s>	0
\n	0
<INDENT>	0
<DEDENT>	0
<BOS>	0
<EOS>	0
▁(	-0
▁)	-1
▁.	-2
se	-3
▁,	-4
de	-5
▁:	-6
on	-7
in	-8
▁de	-9
st	-10
▁se	-11
▁def	-12
te	-13
re	-14
▁=	-15
lf	-16
..	-17
▁self	-18
▁...	-19
th	-20
ti	-21
▁a	-22
en	-23
er	-24
or	-25
al	-26
▁'	-27
▁c	-28
tion	-29
ar	-30
me	-31
le	-32
▁p	-33
▁f	-34
at	-35
▁i	-36
ge	-37
▁n	-38
▁re	-39
ra	-40
un	-41
ec	-42
▁in	-43
▁th	-44
▁s	-45
▁t	-46
▁d	-47
ce	-48
▁b	-49
▁_	-50
▁o	-51
""	-52
lo	-53
▁[	-54
ur	-55
ame	-56
li	-57
▁]	-58
ing	-59
an	-60
ro	-61
▁the	-62
▁m	-63
ate	-64
one	-65
▁e	-66
ue	-67
get	-68
▁N	-69
it	-70
▁te	-71
fi	-72
ss	-73
ction	-74
▁w	-75
ser	-76
la	-77
▁None	-78
▁st	-79
ri	-80
ver	-81
ct	-82
▁test	-83
co	-84
ent	-85
ve	-86
--	-87
▁get	-88
▁T	-89
ut	-90
pe	-91
ch	-92
▁as	-93
▁1	-94
mp	-95
unction	-96
di	-97
▁v	-98
eck	-99
ul	-100
ter	-101
qu	-102
urn	-103
id	-104
turn	-105
▁k	-106
ad	-107
"""	-108
ata	-109
heck	-110
▁to	-111
eng	-112
ength	-113
sert	-114
▁is	-115
▁"""	-116
si	-117
il	-118
es	-119
▁0	-120
Function	-121
▁assert	-122
▁for	-123
▁of	-124
name	-125
ol	-126
▁con	-127
he	-128
con	-129
Length	-130
Check	-131
um	-132
▁-	-133
FunctionLength	-134
▁if	-135
list	-136
▁an	-137
ype	-138
ed	-139
pa	-140
ot	-141
De	-142
alue	-143
▁l	-144
▁return	-145
as	-146
▁ex	-147
up	-148
▁str	-149
ck	-150
fin	-151
ts	-152
▁di	-153
▁g	-154
ode	-155
Se	-156
▁*	-157
ity	-158
▁pa	-159
ma	-160
ey	-161
▁F	-162
am	-163
ition	-164
gs	-165
finition	-166
ror	-167
Definition	-168
▁lo	-169
el	-170
ation	-171
om	-172
▁be	-173
▁__	-174
CheckDefinition	-175
bj	-176
der	-177
``	-178
ith	-179
xt	-180
ment	-181
od	-182
▁h	-183
▁fi	-184
put	-185
par	-186
Sever	-187
Severity	-188
ult	-189
alse	-190
to	-191
▁2	-192
ect	-193
▁{	-194
▁u	-195
ta	-196
ble	-197
▁data	-198
▁ra	-199
▁value	-200
▁res	-201
is	-202
rue	-203
----	-204
▁->	-205
▁and	-206
type	-207
nt	-208
vi	-209
▁par	-210
ray	-211
▁False	-212
00	-213
▁A	-214
ted	-215
qual	-216
int	-217
time	-218
file	-219
__	-220
▁name	-221
rom	-222
▁ar	-223
dict	-224
Re	-225
pp	-226
▁me	-227
lass	-228
▁==	-229
▁or	-230
ze	-231
▁ma	-232
est	-233
ist	-234
and	-235
▁en	-236
▁P	-237
▁I	-238
▁co	-239
▁C	-240
▁}	-241
ption	-242
vel	-243
res	-244
age	-245
Equal	-246
sion	-247
▁not	-248
pec	-249
ig	-250
conf	-251
ds	-252
fo	-253
▁ne	-254
bject	-255
ph	-256
us	-257
mat	-258
▁path	-259
bo	-260
str	-261
▁+	-262
▁assertEqual	-263
po	-264
que	-265
code	-266
▁True	-267
▁input	-268
set	-269
▁al	-270
key	-271
fa	-272
ort	-273
ase	-274
▁set	-275
low	-276
▁D	-277
ly	-278
fig	-279
▁S	-280
param	-281
▁list	-282
ise	-283
et	-284
▁**	-285
war	-286
mple	-287
ho	-288
ines	-289
▁ad	-290
cal	-291
rror	-292
per	-293
pi	-294
Error	-295
ub	-296
error	-297
▁log	-298
▁file	-299
>>	-300
ls	-301
▁with	-302
mo	-303
for	-304
▁y	-305
ust	-306
ine	-307
quest	-308
ns	-309
▁po	-310
tem	-311
ance	-312
reate	-313
date	-314
umb	-315
path	-316
▁np	-317
▁x	-318
able	-319
▁key	-320
ht	-321
level	-322
wargs	-323
▁j	-324
▁he	-325
▁r	-326
ure	-327
▁pro	-328
▁class	-329
ord	-330
▁int	-331
▁``	-332
▁3	-333
unt	-334
▁M	-335
dex	-336
url	-337
▁Re	-338
▁The	-339
son	-340
data	-341
ry	-342
test	-343
▁kwargs	-344
ader	-345
ctor	-346
atch	-347
▁ro	-348
▁from	-349
▁bo	-350
▁error	-351
ger	-352
▁that	-353
red	-354
end	-355
cate	-356
ay	-357
read	-358
alid	-359
nd	-360
sed	-361
art	-362
▁fil	-363
ty	-364
umber	-365
ken	-366
▁la	-367
pon	-368
ion	-369
ex	-370
▁object	-371
pro	-372
oc	-373
▁L	-374
tri	-375
ces	-376
bu	-377
pt	-378
ameter	-379
stance	-380
▁add	-381
▁`	-382
array	-383
ename	-384
ize	-385
▁ch	-386
ample	-387
ke	-388
▁string	-389
▁Test	-390
.0	-391
▁pre	-392
spa	-393
▁array	-394
all	-395
▁new	-396
▁ver	-397
ow	-398
text	-399
qui	-400
ne	-401
▁col	-402
of	-403
pected	-404
rent	-405
ack	-406
tes	-407
sc	-408
▁el	-409
ator	-410
uth	-411
fe	-412
log	-413
ip	-414
▁format	-415
CheckDefinitionA	-416
▁un	-417
▁raise	-418
loat	-419
ary	-420
ponse	-421
ms	-422
ill	-423
ssage	-424
▁wh	-425
turns	-426
dir	-427
▁config	-428
pla	-429
▁expected	-430
▁time	-431
pre	-432
thod	-433
▁on	-434
▁E	-435
py	-436
ind	-437
roup	-438
our	-439
vent	-440
init	-441
▁U	-442
tra	-443
▁mode	-444
▁out	-445
pli	-446
▁else	-447
▁dict	-448
▁request	-449
▁tra	-450
▁''	-451
quen	-452
und	-453
▁create	-454
Be	-455
ha	-456
ach	-457
ener	-458
rame	-459
ock	-460
mage	-461
▁are	-462
cess	-463
▁will	-464
▁app	-465
tain	-466
▁type	-467
out	-468
▁number	-469
ask	-470
▁by	-471
▁4	-472
ule	-473
value	-474
ac	-475
ptional	-476
cation	-477
▁"	-478
ments	-479
▁len	-480
▁node	-481
▁check	-482
ork	-483
ther	-484
ast	-485
Test	-486
▁defa	-487
==	-488
▁V	-489
pth	-490
▁up	-491
ding	-492
Below	-493
lu	-494
▁result	-495
im	-496
▁R	-497
ustom	-498
ssion	-499
▁%	-500
▁function	-501
eld	-502
bove	-503
▁user	-504
quence	-505
▁G	-506
lient	-507
rst	-508
▁text	-509
▁>>	-510
by	-511
move	-512
▁at	-513
▁float	-514
ash	-515
ave	-516
rite	-517
ag	-518
▁item	-519
yer	-520
▁per	-521
ic	-522
tr	-523
space	-524
▁----	-525
▁If	-526
▁max	-527
vice	-528
▁>>>	-529
▁default	-530
if	-531
ile	-532
no	-533
▁5	-534
ded	-535
▁Returns	-536
ir	-537
▁O	-538
▁filename	-539
from	-540
▁'/	-541
ren	-542
arch	-543
raph	-544
rint	-545
ok	-546
▁comp	-547
val	-548
size	-549
▁start	-550
fix	-551
▁all	-552
ps	-553
▁url	-554
▁H	-555
BelowSeverity	-556
lat	-557
uple	-558
▁it	-559
In	-560
ameters	-561
▁custom	-562
ody	-563
count	-564
com	-565
▁B	-566
▁can	-567
RE	-568
▁param	-569
ten	-570
▁obj	-571
bel	-572
ument	-573
▁valid	-574
▁date	-575
▁match	-576
den	-577
cur	-578
uld	-579
▁spec	-580
nge	-581
▁this	-582
info	-583
string	-584
▁header	-585
ari	-586
ree	-587
▁id	-588
mb	-589
▁exce	-590
way	-591
plit	-592
ource	-593
▁qu	-594
op	-595
▁py	-596
fil	-597
▁read	-598
sco	-599
▁method	-600
tent	-601
ifi	-602
▁index	-603
ven	-604
ak	-605
class	-606
▁we	-607
▁sub	-608
lan	-609
▁run	-610
▁sho	-611
uil	-612
boveSeverity	-613
▁parse	-614
port	-615
▁doc	-616
word	-617
arget	-618
own	-619
back	-620
ink	-621
tifi	-622
:`	-623
▁response	-624
▁args	-625
▁cls	-626
▁imp	-627
ctory	-628
ff	-629
▁@	-630
ler	-631
▁W	-632
rig	-633
tial	-634
ration	-635
fault	-636
ong	-637
arcode	-638
▁cur	-639
▁os	-640
ints	-641
coding	-642
▁pass	-643
▁gi	-644
▁group	-645
quire	-646
odule	-647
▁contain	-648
ap	-649
ark	-650
form	-651
ting	-652
adata	-653
ON	-654
▁bool	-655
ery	-656
▁no	-657
▁find	-658
▁depth	-659
▁token	-660
lement	-661
ab	-662
▁0.	-663
▁load	-664
ci	-665
▁<	-666
▁print	-667
▁jo	-668
sition	-669
▁values	-670
iz	-671
ults	-672
▁ac	-673
node	-674
atus	-675
).	-676
cs	-677
ars	-678
lock	-679
index	-680
yn	-681
ify	-682
',	-683
lete	-684
▁event	-685
enerate	-686
▁optional	-687
\\	-688
col	-689
gist	-690
line	-691
▁num	-692
lines	-693
▁10	-694
config	-695
min	-696
▁Ar	-697
ight	-698
ml	-699
not	-700
For	-701
▁version	-702
Lines	-703
▁com	-704
▁dist	-705
With	-706
we	-707
▁X	-708
▁line	-709
▁model	-710
▁update	-711
tit	-712
▁mo	-713
▁used	-714
▁lines	-715
ress	-716
▁info	-717
hape	-718
▁params	-719
▁/	-720
▁should	-721
clu	-722
ual	-723
▁ser	-724
ER	-725
▁first	-726
with	-727
instance	-728
late	-729
tive	-730
▁auth	-731
▁code	-732
place	-733
▁output	-734
.'	-735
load	-736
pr	-737
▁li	-738
Le	-739
tadata	-740
▁image	-741
▁>	-742
▁Th	-743
user	-744
pping	-745
tp	-746
▁base	-747
):	-748
default	-749
cre	-750
igh	-751
ump	-752
▁size	-753
▁sequence	-754
ant	-755
01	-756
og	-757
pri	-758
object	-759
ath	-760
▁Se	-761
▁append	-762
ST	-763
Level	-764
ME	-765
ome	-766
▁has	-767
▁use	-768
item	-769
os	-770
men	-771
ste	-772
ature	-773
Con	-774
idth	-775
pen	-776
orm	-777
▁given	-778
▁List	-779
base	-780
▁trans	-781
▁end	-782
▁whi	-783
▁min	-784
ww	-785
▁Value	-786
ard	-787
feren	-788
No	-789
mpty	-790
return	-791
message	-792
Name	-793
▁target	-794
valid	-795
layer	-796
▁do	-797
▁Args	-798
//	-799
True	-800
auth	-801
header	-802
▁100	-803
andler	-804
▁req	-805
▁Data	-806
ute	-807
ptions	-808
▁range	-809
▁conver	-810
▁pi	-811
▁cal	-812
unc	-813
▁im	-814
sg	-815
stru	-816
▁try	-817
ers	-818
ild	-819
▁pytest	-820
AT	-821
://	-822
▁remove	-823
▁This	-824
uration	-825
▁Par	-826
ict	-827
ures	-828
_1	-829
enti	-830
▁split	-831
OR	-832
▁specifi	-833
▁6	-834
ndom	-835
▁--------	-836
token	-837
▁any	-838
▁fast	-839
▁room	-840
add	-841
scri	-842
▁ValueError	-843
▁join	-844
uilder	-845
▁content	-846
▁except	-847
▁fa	-848
rectory	-849
▁message	-850
ctionary	-851
▁An	-852
ning	-853
▁val	-854
version	-855
tSeverity	-856
map	-857
ache	-858
cy	-859
io	-860
ew	-861
json	-862
tions	-863
amples	-864
ference	-865
ulti	-866
mand	-867
▁which	-868
▁delete	-869
1'	-870
▁pd	-871
▁encoding	-872
api	-873
cale	-874
▁query	-875
tribu	-876
pix	-877
action	-878
▁z	-879
▁bit	-880
▁work	-881
ID	-882
allo	-883
ory	-884
▁msg	-885
IN	-886
▁mark	-887
ies	-888
sts	-889
oo	-890
ll	-891
sing	-892
length	-893
▁count	-894
gument	-895
▁Con	-896
ron	-897
state	-898
ws	-899
▁context	-900
▁Function	-901
nec	-902
Builder	-903
12	-904
▁De	-905
▁eli	-906
▁replace	-907
les	-908
▁module	-909
PE	-910
bs	-911
ep	-912
old	-913
▁tuple	-914
▁logger	-915
files	-916
▁client	-917
▁headers	-918
mit	-919
▁label	-920
LE	-921
ign	-922
max	-923
▁metadata	-924
comp	-925
olu	-926
▁filter	-927
sta	-928
▁barcode	-929
▁must	-930
start	-931
▁generate	-932
▁Un	-933
ormal	-934
▁nd	-935
inter	-936
work	-937
▁isinstance	-938
are	-939
mode	-940
▁fastq	-941
mi	-942
▁other	-943
▁In	-944
tils	-945
{}	-946
http	-947
▁elif	-948
▁8	-949
params	-950
request	-951
▁Ex	-952
mail	-953
ull	-954
ated	-955
▁person	-956
stra	-957
reads	-958
====	-959
▁shape	-960
ErrorLevel	-961
▁last	-962
▁call	-963
Body	-964
▁le	-965
tail	-966
frame	-967
elds	-968
▁FunctionBody	-969
lector	-970
()	-971
Type	-972
▁state	-973
uc	-974
▁setting	-975
lation	-976
Frame	-977
ude	-978
▁Parameters	-979
▁db	-980
▁non	-981
uron	-982
▁assertTrue	-983
▁one	-984
cated	-985
▁dictionary	-986
led	-987
ape	-988
ations	-989
ids	-990
clude	-991
quirements	-992
▁------	-993
▁ndarray	-994
▁----------	-995
▁save	-996
ou	-997
▁ax	-998
tera	-999
obj	-1000
▁current	-1001
ribu	-1002
gest	-1003
▁json	-1004
sub	-1005
ound	-1006
▁validate	-1007
▁search	-1008
lip	-1009
mension	-1010
▁extra	-1011
md	-1012
▁prefix	-1013
▁fe	-1014
▁word	-1015
net	-1016
▁tag	-1017
▁only	-1018
▁write	-1019
unk	-1020
TT	-1021
AL	-1022
Path	-1023
▁+=	-1024
20	-1025
ream	-1026
▁whe	-1027
gment	-1028
▁mock	-1029
atures	-1030
lose	-1031
▁import	-1032
ner	-1033
ving	-1034
▁level	-1035
ang	-1036
▁regist	-1037
ext	-1038
na	-1039
thon	-1040
title	-1041
▁temp	-1042
filename	-1043
Co	-1044
gn	-1045
Par	-1046
che	-1047
nel	-1048
▁password	-1049
len	-1050
▁random	-1051
KE	-1052
▁blog	-1053
▁secon	-1054
▁cor	-1055
▁over	-1056
keys	-1057
▁graph	-1058
cer	-1059
cul	-1060
FunctionLengths	-1061
▁sa	-1062
itial	-1063
uri	-1064
▁table	-1065
NoL	-1066
Ex	-1067
▁ent	-1068
▁field	-1069
')	-1070
St	-1071
▁mapping	-1072
xy	-1073
gin	-1074
run	-1075
rigger	-1076
temp	-1077
▁cer	-1078
order	-1079
▁width	-1080
point	-1081
method	-1082
format	-1083
50	-1084
parse	-1085
jo	-1086
!=	-1087
sh	-1088
ords	-1089
▁when	-1090
inal	-1091
ized	-1092
ys	-1093
▁api	-1094
▁DataFrame	-1095
ises	-1096
names	-1097
▁Dict	-1098
ange	-1099
▁Any	-1100
▁server	-1101
lection	-1102
Id	-1103
▁ht	-1104
group	-1105
ters	-1106
▁1.0	-1107
_2	-1108
rip	-1109
ref	-1110
host	-1111
process	-1112
orted	-1113
▁each	-1114
rect	-1115
quired	-1116
▁inter	-1117
event	-1118
▁mask	-1119
create	-1120
▁session	-1121
AR	-1122
▁-------	-1123
▁element	-1124
ost	-1125
▁pri	-1126
ception	-1127
▁dec	-1128
label	-1129
client	-1130
Data	-1131
tic	-1132
ft	-1133
foo	-1134
▁ty	-1135
▁exist	-1136
ariable	-1137
▁dataset	-1138
lar	-1139
du	-1140
scape	-1141
attr	-1142
▁!=	-1143
olve	-1144
ects	-1145
▁low	-1146
UL	-1147
`,	-1148
ek	-1149
mu	-1150
scope	-1151
▁allow	-1152
▁instance	-1153
lib	-1154
like	-1155
2'	-1156
Not	-1157
▁make	-1158
umns	-1159
▁convert	-1160
ses	-1161
▁height	-1162
▁lat	-1163
▁then	-1164
app	-1165
▁items	-1166
ram	-1167
ield	-1168
spaces	-1169
check	-1170
link	-1171
▁specified	-1172
vide	-1173
▁vi	-1174
TY	-1175
rec	-1176
ants	-1177
▁char	-1178
ging	-1179
▁datetime	-1180
gno	-1181
▁pla	-1182
dentifi	-1183
▁blogname	-1184
▁directory	-1185
ial	-1186
rix	-1187
ni	-1188
▁J	-1189
ote	-1190
▁0.0	-1191
▁lon	-1192
▁escape	-1193
▁position	-1194
1.	-1195
Dec	-1196
oly	-1197
ili	-1198
da	-1199
▁9	-1200
▁bu	-1201
wash	-1202
▁K	-1203
▁point	-1204
off	-1205
ribution	-1206
tern	-1207
▁keys	-1208
match	-1209
iss	-1210
umpy	-1211
depth	-1212
▁username	-1213
ffer	-1214
▁axis	-1215
▁post	-1216
ultus	-1217
so	-1218
dge	-1219
lob	-1220
ckage	-1221
current	-1222
pher	-1223
▁returns	-1224
doc	-1225
▁but	-1226
lements	-1227
TYPE	-1228
nection	-1229
▁parent	-1230
headers	-1231
UT	-1232
right	-1233
▁have	-1234
▁link	-1235
do	-1236
TTP	-1237
Pathway	-1238
sent	-1239
▁igno	-1240
▁length	-1241
lank	-1242
first	-1243
peration	-1244
lable	-1245
▁func	-1246
var	-1247
filter	-1248
enticate	-1249
),	-1250
▁su	-1251
▁argument	-1252
▁``'	-1253
viron	-1254
ear	-1255
▁tri	-1256
▁returned	-1257
▁--	-1258
ping	-1259
tificate	-1260
▁sc	-1261
▁ta	-1262
bit	-1263
'``	-1264
field	-1265
multus	-1266
ba	-1267
river	-1268
function	-1269
nect	-1270
▁seri	-1271
search	-1272
64	-1273
latz	-1274
▁sh	-1275
▁pay	-1276
0000	-1277
ceph	-1278
annel	-1279
▁dtype	-1280
down	-1281
▁Optional	-1282
dent	-1283
▁into	-1284
arning	-1285
▁{}	-1286
zone	-1287
cations	-1288
▁status	-1289
CheckA	-1290
number	-1291
aises	-1292
status	-1293
▁collatz	-1294
ive	-1295
ppl	-1296
pplint	-1297
▁files	-1298
▁7	-1299
room	-1300
▁source	-1301
tribute	-1302
▁normal	-1303
pu	-1304
▁si	-1305
face	-1306
sure	-1307
org	-1308
vate	-1309
▁HTTP	-1310
▁host	-1311
response	-1312
dentifier	-1313
ster	-1314
▁inte	-1315
▁fastqread	-1316
▁vars	-1317
▁where	-1318
▁ws	-1319
write	-1320
▁options	-1321
ollow	-1322
tuple	-1323
▁device	-1324
wd	-1325
▁sup	-1326
image	-1327
unter	-1328
raw	-1329
last	-1330
▁body	-1331
':	-1332
0'	-1333
99	-1334
ld	-1335
▁ob	-1336
KEY	-1337
hash	-1338
▁encode	-1339
List	-1340
lean	-1341
andle	-1342
lipse	-1343
stamp	-1344
faults	-1345
va	-1346
mbda	-1347
update	-1348
rid	-1349
▁raises	-1350
bose	-1351
▁empty	-1352
▁second	-1353
▁verify	-1354
cf	-1355
position	-1356
('	-1357
`.	-1358
IT	-1359
▁env	-1360
fter	-1361
ride	-1362
als	-1363
▁typing	-1364
tension	-1365
equal	-1366
ous	-1367
wise	-1368
▁Type	-1369
handler	-1370
▁report	-1371
",	-1372
UR	-1373
dec	-1374
utf	-1375
▁For	-1376
orter	-1377
day	-1378
GB	-1379
els	-1380
its	-1381
▁sp	-1382
mation	-1383
File	-1384
mon	-1385
▁long	-1386
barcode	-1387
threads	-1388
laration	-1389
ats	-1390
vol	-1391
▁back	-1392
By	-1393
fast	-1394
▁using	-1395
reak	-1396
NA	-1397
ng	-1398
ION	-1399
ffi	-1400
▁ali	-1401
▁exp	-1402
SS	-1403
tps	-1404
▁12	-1405
▁sk	-1406
graph	-1407
▁parameters	-1408
row	-1409
▁'-	-1410
lot	-1411
other	-1412
▁edge	-1413
False	-1414
enter	-1415
my	-1416
sor	-1417
Base	-1418
▁spa	-1419
▁title	-1420
erge	-1421
▁provi	-1422
▁Y	-1423
509	-1424
▁16	-1425
▁dis	-1426
olume	-1427
▁init	-1428
Declaration	-1429
bin	-1430
err	-1431
ics	-1432
tag	-1433
▁rec	-1434
Blank	-1435
range	-1436
▁variable	-1437
CheckDeclaration	-1438
▁Get	-1439
Pro	-1440
fastq	-1441
urons	-1442
▁register	-1443
Foo	-1444
ait	-1445
▁del	-1446
▁sing	-1447
xes	-1448
▁Ser	-1449
▁sign	-1450
▁lower	-1451
▁while	-1452
WithNoL	-1453
▁dimension	-1454
AC	-1455
umn	-1456
www	-1457
None	-1458
▁wra	-1459
To	-1460
mux	-1461
▁sy	-1462
▁initial	-1463
new	-1464
▁parameter	-1465
▁proper	-1466
abc	-1467
ran	-1468
call	-1469
▁year	-1470
ULT	-1471
▁does	-1472
lic	-1473
▁bet	-1474
▁safe	-1475
ain	-1476
result	-1477
terable	-1478
)'	-1479
55	-1480
be	-1481
ca	-1482
detail	-1483
ched	-1484
yle	-1485
orage	-1486
▁patch	-1487
▁trace	-1488
wo	-1489
fer	-1490
main	-1491
▁Trigger	-1492
":	-1493
▁kw	-1494
trans	-1495
▁Check	-1496
▁process	-1497
▁document	-1498
requirements	-1499
mid	-1500
▁Ma	-1501
▁TriggerLines	-1502
▁include	-1503
output	-1504
player	-1505
df	-1506
ipher	-1507
▁than	-1508
▁view	-1509
▁cache	-1510
▁reference	-1511
ana	-1512
icode	-1513
lugin	-1514
▁frame	-1515
▁buffer	-1516
fore	-1517
ility	-1518
▁send	-1519
attern	-1520
▁pathway	-1521
IC	-1522
person	-1523
edge	-1524
pass	-1525
MS	-1526
fy	-1527
hen	-1528
kub	-1529
."""	-1530
abled	-1531
▁found	-1532
cc	-1533
use	-1534
stem	-1535
verage	-1536
terator	-1537
▁bin	-1538
▁warning	-1539
10	-1540
bar	-1541
gre	-1542
▁ca	-1543
▁mon	-1544
8'	-1545
sp	-1546
Res	-1547
ILE	-1548
▁action	-1549
vo	-1550
cle	-1551
dle	-1552
ors	-1553
tity	-1554
float	-1555
▁open	-1556
element	-1557
▁channel	-1558
▁container	-1559
▁raw	-1560
▁you	-1561
▁orig	-1562
dd	-1563
ript	-1564
▁lambda	-1565
structor	-1566
imp	-1567
▁Str	-1568
▁multi	-1569
session	-1570
▁digest	-1571
▁results	-1572
▁callback	-1573
▁TypeError	-1574
num	-1575
char	-1576
prefix	-1577
remove	-1578
fice	-1579
EF	-1580
▁act	-1581
▁mat	-1582
trics	-1583
sort	-1584
verse	-1585
vironment	-1586
▁so	-1587
sets	-1588
▁exec	-1589
culate	-1590
ix	-1591
play	-1592
▁buil	-1593
▁ipix	-1594
pha	-1595
ready	-1596
▁order	-1597
ellipse	-1598
▁groups	-1599
med	-1600
seq	-1601
tree	-1602
▁indi	-1603
▁Union	-1604
ject	-1605
rans	-1606
present	-1607
▁ensure	-1608
▁identifier	-1609
su	-1610
ece	-1611
rop	-1612
hist	-1613
uage	-1614
▁pas	-1615
cni	-1616
post	-1617
ties	-1618
cache	-1619
onent	-1620
▁email	-1621
▁samples	-1622
▁St	-1623
▁integer	-1624
::	-1625
imal	-1626
▁objects	-1627
``.	-1628
▁web	-1629
▁sample	-1630
▁'%	-1631
func	-1632
rypt	-1633
inate	-1634
print	-1635
▁attr	-1636
▁insert	-1637
issing	-1638
regist	-1639
AN	-1640
ips	-1641
anis	-1642
ness	-1643
termin	-1644
input	-1645
▁block	-1646
▁names	-1647
▁required	-1648
ug	-1649
scription	-1650
▁resource	-1651
Do	-1652
▁dump	-1653
▁labels	-1654
34	-1655
older	-1656
ython	-1657
▁namespace	-1658
RGB	-1659
▁pe	-1660
▁sort	-1661
contain	-1662
▁address	-1663
ped	-1664
sic	-1665
lobal	-1666
▁player	-1667
ird	-1668
args	-1669
▁fields	-1670
ordinate	-1671
vingspace	-1672
Bad	-1673
cret	-1674
Class	-1675
thing	-1676
anager	-1677
▁verbose	-1678
56	-1679
ssi	-1680
module	-1681
NT	-1682
Up	-1683
ik	-1684
▁Me	-1685
logy	-1686
▁row	-1687
▁sco	-1688
▁actual	-1689
▁ignore	-1690
▁same	-1691
template	-1692
▁elements	-1693
▁provided	-1694
▁assertEquals	-1695
="	-1696
▁runs	-1697
formation	-1698
AG	-1699
tin	-1700
▁20	-1701
▁port	-1702
▁Set	-1703
nodes	-1704
ollowing	-1705
ync	-1706
resh	-1707
width	-1708
▁cipher	-1709
allocations	-1710
▁q	-1711
▁local	-1712
IP	-1713
cla	-1714
come	-1715
▁entry	-1716
▁resolve	-1717
▁location	-1718
11	-1719
over	-1720
secon	-1721
▁contains	-1722
▁UR	-1723
▁repe	-1724
dition	-1725
lus	-1726
▁map	-1727
bytes	-1728
table	-1729
▁also	-1730
▁example	-1731
sum	-1732
distance	-1733
operation	-1734
▁transform	-1735
ET	-1736
ights	-1737
multi	-1738
▁single	-1739
features	-1740
▁package	-1741
▁collector	-1742
▁It	-1743
▁df	-1744
dius	-1745
vars	-1746
ogram	-1747
▁copy	-1748
▁form	-1749
▁tree	-1750
▁importer	-1751
▁pathwayId	-1752
▁'.	-1753
▁0.5	-1754
▁sum	-1755
af	-1756
ocket	-1757
▁logging	-1758
▁dataframe	-1759
TE	-1760
ore	-1761
pos	-1762
tach	-1763
-0	-1764
uid	-1765
fields	-1766
▁child	-1767
iter	-1768
repr	-1769
▁sta	-1770
itude	-1771
lease	-1772
▁defin	-1773
▁passed	-1774
nan	-1775
arts	-1776
▁strip	-1777
▁serial	-1778
▁handler	-1779
ves	-1780
gen	-1781
gor	-1782
▁ti	-1783
vision	-1784
▁bytes	-1785
Request	-1786
Set	-1787
▁err	-1788
▁some	-1789
▁masked	-1790
],	-1791
NAME	-1792
dist	-1793
sive	-1794
▁two	-1795
indow	-1796
stead	-1797
▁rows	-1798
▁unit	-1799
ources	-1800
uccess	-1801
act	-1802
bet	-1803
vert	-1804
▁parsed	-1805
▁command	-1806
req	-1807
▁net	-1808
struct	-1809
▁timeout	-1810
model	-1811
▁mean	-1812
▁|	-1813
Line	-1814
poch	-1815
target	-1816
▁color	-1817
▁numpy	-1818
▁requests	-1819
3'	-1820
▁day	-1821
2.	-1822
▁ag	-1823
▁sim	-1824
context	-1825
▁segment	-1826
Is	-1827
ele	-1828
▁200	-1829
▁more	-1830
▁step	-1831
▁upper	-1832
▁service	-1833
▁exception	-1834
▁dat	-1835
▁true	-1836
titude	-1837
▁nonce	-1838
▁columns	-1839
]'	-1840
ite	-1841
▁ge	-1842
▁root	-1843
▁'{}	-1844
▁month	-1845
▁charac	-1846
▁containing	-1847
ople	-1848
tend	-1849
score	-1850
close	-1851
network	-1852
straint	-1853
▁instead	-1854
``,	-1855
▁dest	-1856
▁next	-1857
mac	-1858
▁fp	-1859
▁ref	-1860
mplex	-1861
ias	-1862
cheme	-1863
▁case	-1864
▁task	-1865
▁barcodedict	-1866
kg	-1867
hel	-1868
▁hash	-1869
▁full	-1870
▁yield	-1871
1_	-1872
24	-1873
OC	-1874
box	-1875
mbed	-1876
void	-1877
limit	-1878
▁pair	-1879
▁separ	-1880
-8'	-1881
sample	-1882
chedule	-1883
sequence	-1884
▁features	-1885
IO	-1886
ose	-1887
html	-1888
ital	-1889
rate	-1890
xture	-1891
matrix	-1892
▁consts	-1893
oto	-1894
build	-1895
▁merge	-1896
▁parame	-1897
rt	-1898
uto	-1899
Down	-1900
open	-1901
▁gen	-1902
▁close	-1903
▁traceback	-1904
▁requirements	-1905
='	-1906
SON	-1907
▁<=	-1908
▁pod	-1909
labels	-1910
▁const	-1911
enabled	-1912
▁repeat	-1913
========	-1914
interval	-1915
▁strings	-1916
hook	-1917
▁'.'	-1918
▁batch	-1919
aly	-1920
ards	-1921
▁pix	-1922
:`~	-1923
Ser	-1924
ime	-1925
tents	-1926
▁lang	-1927
▁left	-1928
▁train	-1929
bug	-1930
ical	-1931
indi	-1932
wait	-1933
anism	-1934
dicts	-1935
muxed	-1936
▁page	-1937
server	-1938
OK	-1939
▁hel	-1940
▁driver	-1941
▁database	-1942
SE	-1943
▁dir	-1944
▁layer	-1945
▁recur	-1946
pression	-1947
EFA	-1948
nail	-1949
view	-1950
EFAULT	-1951
▁already	-1952
▁Trans	-1953
umbnail	-1954
allocated	-1955
▁arguments	-1956
non	-1957
eval	-1958
▁ret	-1959
exist	-1960
ween	-1961
▁poly	-1962
points	-1963
reated	-1964
ple	-1965
▁Pro	-1966
▁Ver	-1967
respon	-1968
▁decode	-1969
alpix	-1970
▁best	-1971
▁datat	-1972
sen	-1973
Dict	-1974
cfgs	-1975
▁feature	-1976
Al	-1977
ient	-1978
rive	-1979
chema	-1980
extra	-1981
▁align	-1982
returns	-1983
▁cpplint	-1984
cat	-1985
▁dt	-1986
term	-1987
vers	-1988
week	-1989
▁'/'	-1990
titem	-1991
▁created	-1992
▁configuration	-1993
db	-1994
Get	-1995
MET	-1996
rest	-1997
▁ass	-1998
▁tmp	-1999
txt	-2000
▁uri	-2001
▁information	-2002
▁cel	-2003
▁bound	-2004
most	-2005
enerator	-2006
WW	-2007
til	-2008
next	-2009
Raises	-2010
▁named	-2011
▁Series	-2012
**	-2013
ton	-2014
▁exists	-2015
▁account	-2016
▁Cal	-2017
▁JSON	-2018
values	-2019
CH	-2020
mask	-2021
▁fail	-2022
▁infos	-2023
Parameter	-2024
namespace	-2025
▁correspon	-2026
esp	-2027
pid	-2028
▁'2	-2029
utes	-2030
▁old	-2031
espray	-2032
▁events	-2033
▁stream	-2034
▁payment	-2035
▁timestamp	-2036
aml	-2037
vai	-2038
Index	-2039
import	-2040
password	-2041
On	-2042
dis	-2043
ither	-2044
▁meta	-2045
▁seed	-2046
▁handle	-2047
kubespray	-2048
DE	-2049
unds	-2050
unts	-2051
tology	-2052
▁Python	-2053
timezone	-2054
ique	-2055
price	-2056
dential	-2057
▁represent	-2058
Key	-2059
iki	-2060
root	-2061
ctions	-2062
▁Sequence	-2063
▁certificate	-2064
NG	-2065
REC	-2066
tex	-2067
▁'_	-2068
ranch	-2069
secret	-2070
dimension	-2071
▁assertRaises	-2072
▁Co	-2073
▁1000	-2074
arDown	-2075
▁extract	-2076
cit	-2077
cert	-2078
imum	-2079
meth	-2080
▁off	-2081
cision	-2082
▁specify	-2083
mem	-2084
city	-2085
lack	-2086
lect	-2087
ries	-2088
task	-2089
▁after	-2090
Exception	-2091
▁override	-2092
lear	-2093
▁inst	-2094
service	-2095
▁String	-2096
▁iterable	-2097
▁settings	-2098
pay	-2099
utc	-2100
cent	-2101
pper	-2102
▁syn	-2103
local	-2104
▁Path	-2105
delete	-2106
dentials	-2107
▁distance	-2108
namespaces	-2109
any	-2110
ellow	-2111
master	-2112
▁assertFalse	-2113
gex	-2114
body	-2115
ffix	-2116
lunk	-2117
only	-2118
▁org	-2119
▁skip	-2120
parameters	-2121
13	-2122
▁..	-2123
▁sq	-2124
script	-2125
▁sprite	-2126
▁original	-2127
1,	-2128
16	-2129
[0	-2130
000	-2131
ony	-2132
▁style	-2133
lication	-2134
▁template	-2135
def	-2136
iled	-2137
ector	-2138
▁allo	-2139
▁build	-2140
▁stock	-2141
CheckAbove	-2142
cu	-2143
▁#	-2144
▁go	-2145
lust	-2146
▁bold	-2147
▁datatype	-2148
Out	-2149
dms	-2150
head	-2151
▁URL	-2152
entry	-2153
insert	-2154
serial	-2155
stream	-2156
▁inner	-2157
▁contin	-2158
encoding	-2159
▁parametri	-2160
peed	-2161
▁fit	-2162
query	-2163
TR	-2164
licy	-2165
rict	-2166
▁head	-2167
middle	-2168
example	-2169
metadata	-2170
reference	-2171
▁parametrize	-2172
PI	-2173
sist	-2174
▁nuc	-2175
normal	-2176
yscale	-2177
CheckAt	-2178
CheckBelow	-2179
▁transaction	-2180
32	-2181
Fa	-2182
ING	-2183
Ter	-2184
duce	-2185
▁cho	-2186
prites	-2187
random	-2188
▁nodes	-2189
▁matrix	-2190
▁sorted	-2191
datetime	-2192
▁revision	-2193
▁workspace	-2194
}'	-2195
sis	-2196
ForS	-2197
sign	-2198
email	-2199
▁debug	-2200
▁scale	-2201
▁calculate	-2202
dimensional	-2203
authenticate	-2204
36	-2205
Ar	-2206
UN	-2207
csv	-2208
del	-2209
tal	-2210
▁ow	-2211
▁'-'	-2212
round	-2213
▁setUp	-2214
▁utils	-2215
italics	-2216
ization	-2217
▁points	-2218
etch	-2219
page	-2220
https	-2221
▁game	-2222
▁high	-2223
assert	-2224
▁Config	-2225
▁volume	-2226
extension	-2227
▁tearDown	-2228
▁collection	-2229
IME	-2230
gon	-2231
rep	-2232
▁abs	-2233
proxy	-2234
ateway	-2235
ending	-2236
stract	-2237
columns	-2238
▁pixels	-2239
▁tokens	-2240
endpoint	-2241
▁correct	-2242
▁newname	-2243
ati	-2244
ero	-2245
ful	-2246
▁18	-2247
▁{}'	-2248
▁connect	-2249
▁arg	-2250
mount	-2251
ssible	-2252
▁chunk	-2253
▁starts	-2254
scounter	-2255
▁Request	-2256
▁neurons	-2257
▁Exception	-2258
▁distribution	-2259
AX	-2260
OM	-2261
▁property	-2262
/'	-2263
tro	-2264
items	-2265
▁both	-2266
▁rece	-2267
▁alpha	-2268
vailable	-2269
▁connection	-2270
▁ip	-2271
▁rot	-2272
▁top	-2273
▁nucl	-2274
▁center	-2275
▁DEFAULT	-2276
▁require	-2277
▁bitdepth	-2278
▁TestLines	-2279
])	-2280
Ver	-2281
▁seq	-2282
empty	-2283
third	-2284
parser	-2285
directory	-2286
▁repeatscounter	-2287
lon	-2288
mis	-2289
▁1.	-2290
lict	-2291
▁phen	-2292
▁ts	-2293
ithm	-2294
spec	-2295
▁continue	-2296
▁attribute	-2297
▁otherwise	-2298
four	-2299
mean	-2300
stit	-2301
tric	-2302
▁mid	-2303
▁main	-2304
▁missing	-2305
([	-2306
Ch	-2307
En	-2308
make	-2309
pair	-2310
Block	-2311
Empty	-2312
Found	-2313
▁byte	-2314
▁cert	-2315
▁scal	-2316
quires	-2317
▁indent	-2318
AD	-2319
EL	-2320
rc	-2321
rm	-2322
Tri	-2323
tar	-2324
uge	-2325
▁cmd	-2326
▁enc	-2327
utils	-2328
▁plot	-2329
change	-2330
▁depen	-2331
▁right	-2332
indices	-2333
gy	-2334
png	-2335
vok	-2336
vari	-2337
▁await	-2338
▁delta	-2339
mbedded	-2340
▁trigger	-2341
▁expression	-2342
ES	-2343
Does	-2344
copy	-2345
lash	-2346
▁put	-2347
train	-2348
▁iter	-2349
attach	-2350
mplete	-2351
vation	-2352
25	-2353
:'	-2354
GG	-2355
OL	-2356
fn	-2357
shape	-2358
tical	-2359
▁grid	-2360
samples	-2361
seconds	-2362
constraint	-2363
less	-2364
rase	-2365
▁var	-2366
gress	-2367
hosts	-2368
▁detail	-2369
istribution	-2370
▁pop	-2371
gorithm	-2372
▁Raises	-2373
Me	-2374
▁'1	-2375
vial	-2376
▁FILE	-2377
▁they	-2378
parent	-2379
factory	-2380
ndarray	-2381
▁months	-2382
Log	-2383
side	-2384
unit	-2385
Doesnt	-2386
▁called	-2387
Following	-2388
recurrent	-2389
bot	-2390
web	-2391
Plus	-2392
find	-2393
grid	-2394
mote	-2395
▁iss	-2396
▁zip	-2397
rtype	-2398
▁rate	-2399
cessed	-2400
▁errors	-2401
▁CheckFor	-2402
▁Transaction	-2403
configuration	-2404
Un	-2405
_3	-2406
sms	-2407
▁bc	-2408
Huge	-2409
cker	-2410
ynam	-2411
▁hex	-2412
▁like	-2413
Blanks	-2414
▁inclu	-2415
CheckCo	-2416
ForTest	-2417
Trivial	-2418
▁Return	-2419
ForSplit	-2420
LineTest	-2421
callback	-2422
HugeLines	-2423
WithBlock	-2424
BlankLines	-2425
CheckClass	-2426
CheckEmpty	-2427
PlusBlanks	-2428
WithNoLint	-2429
CheckComplex	-2430
CheckTrivial	-2431
ForSplitLineTest	-2432
▁',	-2433
▁fn	-2434
▁pl	-2435
mbol	-2436
▁see	-2437
Image	-2438
NotDe	-2439
aller	-2440
batch	-2441
andard	-2442
terminable	-2443
NotDeterminable	-2444
Or	-2445
▁'[	-2446
▁Po	-2447
▁md	-2448
duct	-2449
long	-2450
▁sen	-2451
Utils	-2452
▁note	-2453
▁wrap	-2454
utable	-2455
▁either	-2456
▁encoded	-2457
▁perform	-2458
▁interface	-2459
▁authenticate	-2460
aded	-2461
types	-2462
Client	-2463
▁column	-2464
▁system	-2465
FI	-2466
ming	-2467
Break	-2468
WithE	-2469
depen	-2470
▁show	-2471
phrase	-2472
source	-2473
bstract	-2474
command	-2475
latform	-2476
▁change	-2477
Response	-2478
TestBase	-2479
contains	-2480
▁Cpplint	-2481
▁CpplintTestBase	-2482
_0	-2483
VER	-2484
Info	-2485
igno	-2486
▁pos	-2487
edges	-2488
ForBad	-2489
▁place	-2490
NoLints	-2491
▁before	-2492
▁parser	-2493
▁demuxed	-2494
▁weights	-2495
▁assertIs	-2496
ForBadTest	-2497
DoesntBreak	-2498
WithNoLints	-2499
WithEmbedded	-2500
WithBlankLines	-2501
AM	-2502
DI	-2503
bc	-2504
sur	-2505
▁To	-2506
mark	-2507
trie	-2508
wiki	-2509
folder	-2510
▁between	-2511
.4	-2512
5'	-2513
▁En	-2514
▁ast	-2515
▁may	-2516
▁break	-2517
options	-2518
▁Device	-2519
tologyTer	-2520
man	-2521
cted	-2522
▁Key	-2523
cript	-2524
voked	-2525
▁zone	-2526
▁chrom	-2527
▁total	-2528
unicode	-2529
▁network	-2530
▁livingspace	-2531
.,	-2532
{}'	-2533
jobs	-2534
upli	-2535
numpy	-2536
▁enum	-2537
▁eval	-2538
▁want	-2539
tokens	-2540
constructor	-2541
▁packageName	-2542
sk	-2543
ason	-2544
olar	-2545
▁fla	-2546
connect	-2547
content	-2548
▁arrays	-2549
fastqread	-2550
▁FILETYPE	-2551
▁functions	-2552
US	-2553
pulation	-2554
notations	-2555
OT	-2556
tz	-2557
OST	-2558
cor	-2559
env	-2560
ered	-2561
ling	-2562
velo	-2563
▁Res	-2564
Pathways	-2565
▁Message	-2566
eb	-2567
ib	-2568
try	-2569
split	-2570
▁addr	-2571
▁colo	-2572
▁flat	-2573
▁solu	-2574
finity	-2575
▁setup	-2576
▁destin	-2577
ordinates	-2578
barcodedict	-2579
▁namedtuple	-2580
AS	-2581
▁>=	-2582
game	-2583
▁was	-2584
▁imple	-2585
package	-2586
▁average	-2587
▁display	-2588
certificate	-2589
▁cs	-2590
▁wr	-2591
orch	-2592
▁'\\	-2593
trace	-2594
▁threads	-2595
▁separator	-2596
40	-2597
96	-2598
az	-2599
pts	-2600
ckle	-2601
mity	-2602
stats	-2603
antity	-2604
▁https	-2605
ability	-2606
▁office	-2607
▁entries	-2608
▁2-	-2609
mary	-2610
ycle	-2611
▁boo	-2612
riter	-2613
mented	-2614
notation	-2615
▁{'	-2616
▁its	-2617
bound	-2618
▁derive	-2619
▁exclude	-2620
▁variables	-2621
alk	-2622
uted	-2623
▁job	-2624
▁async	-2625
▁signature	-2626
▁startswith	-2627
▁Is	-2628
rees	-2629
true	-2630
clock	-2631
▁memb	-2632
▁pkey	-2633
▁stack	-2634
neurons	-2635
ditional	-2636
▁constants	-2637
▁thumbnail	-2638
0,	-2639
2_	-2640
An	-2641
Lo	-2642
reg	-2643
vid	-2644
▁ID	-2645
dout	-2646
▁img	-2647
▁pub	-2648
▁global	-2649
CO	-2650
go	-2651
nr	-2652
▁Q	-2653
kes	-2654
pop	-2655
lang	-2656
odel	-2657
sses	-2658
queue	-2659
onents	-2660
trieve	-2661
verify	-2662
▁final	-2663
msBuilder	-2664
▁matching	-2665
au	-2666
mt	-2667
pack	-2668
plunk	-2669
▁been	-2670
kwargs	-2671
▁Tuple	-2672
▁obser	-2673
getitem	-2674
▁metrics	-2675
CS	-2676
Col	-2677
▁utc	-2678
child	-2679
color	-2680
errors	-2681
▁types	-2682
Returns	-2683
.1	-2684
EN	-2685
ava	-2686
fra	-2687
zip	-2688
META	-2689
▁prior	-2690
metrics	-2691
job	-2692
tio	-2693
▁fo	-2694
▁sm	-2695
▁fix	-2696
cular	-2697
osome	-2698
▁conf	-2699
recast	-2700
strict	-2701
▁limit	-2702
▁prefer	-2703
argument	-2704
resource	-2705
▁compute	-2706
▁pattern	-2707
▁normalize	-2708
▁Distribution	-2709
asic	-2710
mass	-2711
▁race	-2712
amming	-2713
▁piece	-2714
▁torch	-2715
rection	-2716
▁access	-2717
▁offset	-2718
▁contribu	-2719
37	-2720
IL	-2721
ATE	-2722
Pix	-2723
iti	-2724
wra	-2725
rary	-2726
▁0.1	-2727
▁dot	-2728
▁sig	-2729
ocker	-2730
Almost	-2731
digest	-2732
python	-2733
▁longitude	-2734
▁passphrase	-2735
cii	-2736
book	-2737
case	-2738
nsor	-2739
▁2.0	-2740
▁MAX	-2741
▁cre	-2742
▁squ	-2743
State	-2744
▁deal	-2745
▁down	-2746
called	-2747
sitive	-2748
details	-2749
treated	-2750
▁Storage	-2751
▁whether	-2752
▁language	-2753
ass	-2754
gate	-2755
▁Base	-2756
▁expr	-2757
access	-2758
Generate	-2759
required	-2760
▁another	-2761
▁schedule	-2762
AlmostEqual	-2763
▁headername	-2764
tis	-2765
yaml	-2766
▁apply	-2767
▁based	-2768
▁boxes	-2769
▁radius	-2770
▁compare	-2771
▁randomer	-2772
connection	-2773
▁contributions	-2774
86	-2775
the	-2776
▁ct	-2777
▁See	-2778
aries	-2779
tests	-2780
++	-2781
rl	-2782
cir	-2783
▁ds	-2784
eces	-2785
none	-2786
vious	-2787
▁auto	-2788
▁http	-2789
elements	-2790
description	-2791
06	-2792
itch	-2793
▁255	-2794
▁how	-2795
patch	-2796
▁bias	-2797
▁just	-2798
report	-2799
single	-2800
volume	-2801
▁begin	-2802
▁score	-2803
▁stats	-2804
▁script	-2805
--------	-2806
▁derived	-2807
▁seconds	-2808
▁Defaults	-2809
▁latitude	-2810
CT	-2811
eq	-2812
lr	-2813
cls	-2814
exp	-2815
bool	-2816
nown	-2817
ules	-2818
▁idx	-2819
▁Note	-2820
▁move	-2821
▁stop	-2822
alance	-2823
people	-2824
initial	-2825
▁payload	-2826
.5	-2827
alle	-2828
bour	-2829
ummy	-2830
▁ids	-2831
▁opt	-2832
recur	-2833
▁hist	-2834
▁real	-2835
office	-2836
▁clean	-2837
ighbour	-2838
:`~.	-2839
repo	-2840
tact	-2841
▁sli	-2842
Value	-2843
ating	-2844
▁hand	-2845
▁resp	-2846
handle	-2847
address	-2848
segment	-2849
▁validator	-2850
WS	-2851
},	-2852
Com	-2853
▁'<	-2854
▁15	-2855
▁By	-2856
▁LO	-2857
meta	-2858
delta	-2859
dynam	-2860
ystem	-2861
▁book	-2862
▁disc	-2863
▁draw	-2864
plugin	-2865
versal	-2866
perator	-2867
▁series	-2868
DataFile	-2869
▁selector	-2870
▁generated	-2871
▁processed	-2872
17	-2873
27	-2874
TH	-2875
cpu	-2876
hex	-2877
difi	-2878
exec	-2879
Token	-2880
sible	-2881
Object	-2882
▁lists	-2883
convert	-2884
setting	-2885
▁Number	-2886
▁binary	-2887
▁record	-2888
▁Default	-2889
▁substit	-2890
LA	-2891
PD	-2892
eg	-2893
top	-2894
▁Per	-2895
▁cut	-2896
▁pkg	-2897
▁late	-2898
▁there	-2899
healpix	-2900
logging	-2901
project	-2902
reshold	-2903
ression	-2904
▁Abstract	-2905
▁standard	-2906
▁warnings	-2907
entication	-2908
esc	-2909
ims	-2910
ross	-2911
Valid	-2912
quote	-2913
slash	-2914
Return	-2915
center	-2916
latest	-2917
▁cycle	-2918
Content	-2919
private	-2920
tributes	-2921
username	-2922
▁characters	-2923
2,	-2924
ax	-2925
bad	-2926
mun	-2927
rot	-2928
▁No	-2929
ived	-2930
▁Whe	-2931
Config	-2932
height	-2933
proper	-2934
▁Graph	-2935
Manager	-2936
history	-2937
register	-2938
histogram	-2939
FParameter	-2940
lm	-2941
wh	-2942
kcs	-2943
URRE	-2944
site	-2945
tence	-2946
tocol	-2947
▁plan	-2948
Status	-2949
claims	-2950
requen	-2951
▁proxy	-2952
expected	-2953
variance	-2954
▁spatial	-2955
▁sprites	-2956
▁available	-2957
▁demuxeddict	-2958
']	-2959
OS	-2960
des	-2961
mock	-2962
tool	-2963
ural	-2964
ured	-2965
▁force	-2966
ighbours	-2967
PRE	-2968
Rec	-2969
ged	-2970
figs	-2971
ings	-2972
ular	-2973
▁acce	-2974
URRENT	-2975
layers	-2976
trials	-2977
window	-2978
▁Mapping	-2979
▁forecast	-2980
credentials	-2981
▁chromosome	-2982
rv	-2983
eros	-2984
basic	-2985
dered	-2986
isode	-2987
plied	-2988
▁dealer	-2989
▁marker	-2990
▁neuron	-2991
▁resources	-2992
▁solutions	-2993
▁definition	-2994
sw	-2995
rook	-2996
seed	-2997
ward	-2998
▁':'	-2999
block	-3000
losur	-3001
agraph	-3002
scheme	-3003
▁owner	-3004
crement	-3005
▁amount	-3006
▁Example	-3007
▁boolean	-3008
losurized	-3009
4'	-3010
sha	-3011
tty	-3012
ensor	-3013
ported	-3014
▁plugin	-3015
▁gateway	-3016
▁Iterator	-3017
▁overrides	-3018
sm	-3019
leg	-3020
pub	-3021
▁mu	-3022
▁wo	-3023
TRAN	-3024
acti	-3025
oney	-3026
utor	-3027
▁Col	-3028
▁geo	-3029
ascii	-3030
sumer	-3031
▁kind	-3032
comment	-3033
▁fellow	-3034
requency	-3035
attribute	-3036
▁filepath	-3037
▁corresponding	-3038
nal	-3039
▁'{	-3040
cies	-3041
ince	-3042
plot	-3043
▁Foo	-3044
▁dif	-3045
nected	-3046
objects	-3047
▁wrapper	-3048
PathwaysBy	-3049
np	-3050
cap	-3051
mod	-3052
▁11	-3053
▁50	-3054
arge	-3055
plain	-3056
pochs	-3057
▁bets	-3058
▁ones	-3059
custom	-3060
didate	-3061
▁appro	-3062
▁clear	-3063
▁Create	-3064
location	-3065
uplicate	-3066
validate	-3067
▁execute	-3068
▁generator	-3069
00'	-3070
OCK	-3071
PEM	-3072
UTH	-3073
peak	-3074
▁need	-3075
▁would	-3076
▁unique	-3077
NotFound	-3078
▁Whether	-3079
▁operation	-3080
▁overwrite	-3081
aa	-3082
Str	-3083
▁ep	-3084
anti	-3085
▁ang	-3086
atory	-3087
formed	-3088
▁amity	-3089
▁round	-3090
▁common	-3091
▁weight	-3092
▁allowed	-3093
▁matches	-3094
▁supplied	-3095
DMS	-3096
doy	-3097
now	-3098
▁dx	-3099
blem	-3100
inst	-3101
pted	-3102
forms	-3103
imate	-3104
events	-3105
logger	-3106
scribe	-3107
etadata	-3108
▁allows	-3109
▁multip	-3110
RECURRENT	-3111
▁contents	-3112
▁iterator	-3113
▁organism	-3114
▁specifies	-3115
▁population	-3116
")	-3117
very	-3118
▁dev	-3119
prime	-3120
style	-3121
▁calc	-3122
▁getS	-3123
▁dumps	-3124
▁subprocess	-3125
gu	-3126
ud	-3127
▁\\	-3128
▁ce	-3129
cell	-3130
▁Cha	-3131
▁PNG	-3132
covar	-3133
▁notes	-3134
language	-3135
▁decrypt	-3136
▁encrypt	-3137
▁extension	-3138
▁histogram	-3139
2-	-3140
78	-3141
SP	-3142
git	-3143
▁{"	-3144
509_	-3145
flow	-3146
math	-3147
trol	-3148
▁cwd	-3149
▁who	-3150
black	-3151
▁Name	-3152
▁trim	-3153
Parser	-3154
▁assertIn	-3155
▁existing	-3156
▁unallocated	-3157
hs	-3158
ie	-3159
lay	-3160
oth	-3161
pod	-3162
▁-=	-3163
▁NO	-3164
▁nn	-3165
decl	-3166
fact	-3167
omin	-3168
▁'--	-3169
asure	-3170
licit	-3171
▁peak	-3172
▁week	-3173
fixture	-3174
▁possible	-3175
▁converter	-3176
▁&	-3177
ULL	-3178
Var	-3179
AUTH	-3180
User	-3181
erne	-3182
save	-3183
self	-3184
▁box	-3185
tices	-3186
▁covar	-3187
ernetes	-3188
▁project	-3189
9.	-3190
Bo	-3191
aN	-3192
pg	-3193
yy	-3194
eep	-3195
ura	-3196
▁help	-3197
device	-3198
luster	-3199
results	-3200
success	-3201
▁success	-3202
parameter	-3203
tologyTerm	-3204
▁recursive	-3205
Add	-3206
ORD	-3207
▁24	-3208
▁na	-3209
fail	-3210
▁201	-3211
cycle	-3212
▁added	-3213
olution	-3214
▁active	-3215
▁charset	-3216
precision	-3217
livingspace	-3218
EM	-3219
LO	-3220
ice	-3221
used	-3222
▁gre	-3223
▁ran	-3224
vices	-3225
▁Mock	-3226
▁scan	-3227
radius	-3228
▁above	-3229
erature	-3230
mission	-3231
quality	-3232
▁arange	-3233
▁extend	-3234
complete	-3235
defaults	-3236
getstate	-3237
▁polygon	-3238
struction	-3239
▁retrieve	-3240
▁formatter	-3241
▁description	-3242
ML	-3243
0.0	-3244
IST	-3245
dim	-3246
ets	-3247
Code	-3248
vlan	-3249
▁API	-3250
▁sys	-3251
const	-3252
idget	-3253
▁File	-3254
▁expi	-3255
active	-3256
▁thread	-3257
▁registry	-3258
▁timezone	-3259
84	-3260
rs	-3261
MAT	-3262
ORT	-3263
eno	-3264
hic	-3265
sho	-3266
slo	-3267
blog	-3268
icro	-3269
roll	-3270
▁Run	-3271
▁gue	-3272
ached	-3273
chunk	-3274
force	-3275
pairs	-3276
tator	-3277
▁days	-3278
loader	-3279
offset	-3280
▁Image	-3281
▁under	-3282
require	-3283
La	-3284
rg	-3285
can	-3286
ida	-3287
ide	-3288
rls	-3289
gram	-3290
okup	-3291
setup	-3292
▁Task	-3293
▁attrs	-3294
▁quote	-3295
▁models	-3296
▁Version	-3297
mandatory	-3298
▁previous	-3299
▁annotations	-3300
>'	-3301
ED	-3302
▁Di	-3303
Field	-3304
analy	-3305
▁Node	-3306
driver	-3307
Element	-3308
Handler	-3309
utation	-3310
▁inputs	-3311
▁suffix	-3312
▁defined	-3313
normalize	-3314
3.	-3315
:%	-3316
FP	-3317
Cha	-3318
ube	-3319
ugh	-3320
▁At	-3321
▁nx	-3322
▁sw	-3323
Conf	-3324
elem	-3325
▁big	-3326
umblr	-3327
append	-3328
ayment	-3329
counts	-3330
decimal	-3331
▁synony	-3332
▁tmpdir	-3333
optional	-3334
▁getattr	-3335
▁section	-3336
▁multiples	-3337
▁representation	-3338
!'	-3339
18	-3340
66	-3341
NO	-3342
Run	-3343
deg	-3344
fit	-3345
▁Lo	-3346
▁ve	-3347
full	-3348
hand	-3349
step	-3350
stop	-3351
xtra	-3352
▁arr	-3353
▁ite	-3354
words	-3355
▁Comp	-3356
▁rand	-3357
encode	-3358
▁pheno	-3359
▁taken	-3360
▁zeros	-3361
▁enumer	-3362
▁symbol	-3363
attachment	-3364
sem	-3365
tsrv	-3366
▁inf	-3367
▁vip	-3368
ancel	-3369
coder	-3370
ctrls	-3371
▁Unit	-3372
▁pack	-3373
▁static	-3374
intervals	-3375
▁algorithm	-3376
("	-3377
FILE	-3378
illi	-3379
lide	-3380
▁src	-3381
Graph	-3382
tered	-3383
▁Work	-3384
▁hour	-3385
players	-3386
▁raised	-3387
affinity	-3388
▁subject	-3389
timestamp	-3390
▁validation	-3391
▁constructor	-3392
."	-3393
1/	-3394
CC	-3395
cen	-3396
iny	-3397
uct	-3398
Hist	-3399
docs	-3400
some	-3401
▁sha	-3402
▁Text	-3403
▁diff	-3404
ometry	-3405
Provide	-3406
Defaults	-3407
▁targets	-3408
▁enumerate	-3409
▁environment	-3410
39	-3411
▁30	-3412
ario	-3413
phab	-3414
▁now	-3415
redit	-3416
three	-3417
▁song	-3418
▁sqrt	-3419
factor	-3420
vidual	-3421
▁schema	-3422
▁square	-3423
▁stdout	-3424
Instance	-3425
Sequence	-3426
organism	-3427
▁indices	-3428
▁defaults	-3429
AA	-3430
ob	-3431
loc	-3432
por	-3433
▁tz	-3434
Comp	-3435
poly	-3436
rdoy	-3437
coord	-3438
branch	-3439
▁being	-3440
▁cannot	-3441
▁commun	-3442
▁Payment	-3443
▁Callable	-3444
▁character	-3445
3_	-3446
95	-3447
ef	-3448
sq	-3449
iod	-3450
▁op	-3451
▁ph	-3452
addr	-3453
here	-3454
tify	-3455
▁'12	-3456
elems	-3457
store	-3458
▁When	-3459
▁most	-3460
▁tail	-3461
▁them	-3462
uation	-3463
▁login	-3464
▁sfile	-3465
profile	-3466
▁coords	-3467
compress	-3468
▁working	-3469
greyscale	-3470
▁Examples	-3471
Di	-3472
▁40	-3473
arti	-3474
capa	-3475
rust	-3476
uids	-3477
▁man	-3478
rough	-3479
Invalid	-3480
▁determ	-3481
▁diction	-3482
▁allocated	-3483
▁compression	-3484
5_	-3485
aw	-3486
-01	-3487
but	-3488
msg	-3489
pkg	-3490
ush	-3491
sfile	-3492
speed	-3493
▁cate	-3494
▁desi	-3495
▁fake	-3496
minion	-3497
▁false	-3498
▁loads	-3499
History	-3500
▁cursor	-3501
▁middle	-3502
▁window	-3503
fraction	-3504
▁minutes	-3505
ification	-3506
▁multiple	-3507
▁additional	-3508
▁dimensions	-3509
+'	-3510
Po	-3511
PDU	-3512
_1_	-3513
dio	-3514
fine	-3515
rows	-3516
tect	-3517
▁adj	-3518
▁gps	-3519
fasta	-3520
tools	-3521
▁rank	-3522
Output	-3523
▁chain	-3524
Require	-3525
reverse	-3526
▁master	-3527
dependen	-3528
structure	-3529
▁Response	-3530
▁dictionaries	-3531
fg	-3532
oe	-3533
ORY	-3534
URL	-3535
inf	-3536
ents	-3537
rics	-3538
▁mem	-3539
alpha	-3540
angle	-3541
column	-3542
semble	-3543
sprite	-3544
ternal	-3545
▁gives	-3546
equality	-3547
▁getSplunk	-3548
19	-3549
35	-3550
)``	-3551
CON	-3552
EST	-3553
RGBA	-3554
ilar	-3555
once	-3556
sius	-3557
▁bec	-3558
▁cla	-3559
▁exc	-3560
▁sto	-3561
dates	-3562
▁cell	-3563
▁writ	-3564
Logger	-3565
bility	-3566
lative	-3567
▁analy	-3568
▁parts	-3569
▁plain	-3570
persist	-3571
▁colour	-3572
▁orient	-3573
bability	-3574
▁unicode	-3575
0.	-3576
15	-3577
EX	-3578
bb	-3579
gz	-3580
200	-3581
arn	-3582
ont	-3583
▁HE	-3584
▁gr	-3585
ates	-3586
heit	-3587
home	-3588
hren	-3589
loud	-3590
osds	-3591
caten	-3592
mooth	-3593
▁Hash	-3594
classes	-3595
▁dbname	-3596
▁latest	-3597
▁people	-3598
▁remote	-3599
hrenheit	-3600
matching	-3601
▁desired	-3602
▁staticmethod	-3603
3,	-3604
64'	-3605
SMS	-3606
cho	-3607
tax	-3608
▁1:	-3609
freq	-3610
left	-3611
vely	-3612
▁PIL	-3613
domin	-3614
itize	-3615
ppers	-3616
▁roll	-3617
docker	-3618
extend	-3619
▁works	-3620
Command	-3621
▁modifi	-3622
Conflict	-3623
generate	-3624
selector	-3625
▁implicit	-3626
RECURRENTS	-3627
components	-3628
46	-3629
GI	-3630
PS	-3631
ags	-3632
ily	-3633
▁Or	-3634
▁ee	-3635
Band	-3636
iles	-3637
▁Log	-3638
▁men	-3639
legal	-3640
ticip	-3641
▁'201	-3642
▁bits	-3643
scores	-3644
▁Index	-3645
▁alias	-3646
average	-3647
subject	-3648
▁ChaCha	-3649
Curation	-3650
settings	-3651
straints	-3652
▁factory	-3653
resources	-3654
▁baseline	-3655
▁received	-3656
▁neighbours	-3657
▁authentication	-3658
ga	-3659
cfg	-3660
syn	-3661
dify	-3662
gory	-3663
▁bds	-3664
▁bot	-3665
▁deg	-3666
otype	-3667
regex	-3668
▁stat	-3669
▁term	-3670
raises	-3671
▁oauth	-3672
manager	-3673
contents	-3674
velocity	-3675
▁comment	-3676
▁numbers	-3677
kubernetes	-3678
▁following	-3679
▁Ch	-3680
adle	-3681
core	-3682
tags	-3683
▁User	-3684
▁keep	-3685
atible	-3686
global	-3687
▁tasks	-3688
feature	-3689
▁Maadle	-3690
▁respon	-3691
▁decimal	-3692
CurationT	-3693
▁eventual	-3694
▁vertices	-3695
05	-3696
Th	-3697
geo	-3698
sup	-3699
▁21	-3700
▁us	-3701
WSGI	-3702
olds	-3703
part	-3704
prof	-3705
▁seg	-3706
ffici	-3707
venth	-3708
▁NULL	-3709
▁crop	-3710
ferent	-3711
outube	-3712
plicit	-3713
second	-3714
titles	-3715
▁every	-3716
configs	-3717
▁assign	-3718
▁failed	-3719
▁helper	-3720
▁retval	-3721
▁scheme	-3722
00000000	-3723
allocate	-3724
▁invalid	-3725
▁requires	-3726
▁VersionConflict	-3727
STR	-3728
▁tb	-3729
hold	-3730
smid	-3731
ways	-3732
▁Not	-3733
merge	-3734
posit	-3735
solve	-3736
trees	-3737
binary	-3738
▁images	-3739
▁episode	-3740
▁outcome	-3741
RO	-3742
fm	-3743
App	-3744
occ	-3745
▁17	-3746
▁['	-3747
real	-3748
raise	-3749
rooms	-3750
tasks	-3751
Server	-3752
phabet	-3753
pickle	-3754
subnet	-3755
▁below	-3756
Missing	-3757
vations	-3758
▁vector	-3759
novation	-3760
pository	-3761
▁fastqio	-3762
paragraph	-3763
timezones	-3764
▁callable	-3765
▁namespaces	-3766
"'	-3767
2/	-3768
49	-3769
88	-3770
vil	-3771
▁36	-3772
Time	-3773
WORD	-3774
card	-3775
▁App	-3776
▁acc	-3777
▁aip	-3778
▁nan	-3779
▁reg	-3780
ITION	-3781
▁Spec	-3782
▁many	-3783
▁pati	-3784
String	-3785
icator	-3786
ignore	-3787
loaded	-3788
premis	-3789
▁equal	-3790
▁hours	-3791
▁white	-3792
▁compli	-3793
▁domain	-3794
▁python	-3795
existing	-3796
requests	-3797
▁HTTPBad	-3798
▁getPathway	-3799
▁HTTPBadRequest	-3800
23	-3801
HE	-3802
MM	-3803
▁Z	-3804
VAL	-3805
cut	-3806
ell	-3807
lin	-3808
▁dd	-3809
subs	-3810
ALPix	-3811
▁asyn	-3812
▁Match	-3813
▁chars	-3814
outcome	-3815
seventh	-3816
▁intera	-3817
▁policy	-3818
▁within	-3819
▁present	-3820
▁KeyError	-3821
▁duration	-3822
vio	-3823
▁(`	-3824
conc	-3825
raft	-3826
▁Dec	-3827
▁ext	-3828
▁gap	-3829
▁ren	-3830
teger	-3831
▁subs	-3832
pixels	-3833
▁store	-3834
counter	-3835
ulation	-3836
internal	-3837
▁healpix	-3838
▁testing	-3839
▁through	-3840
'"	-3841
SI	-3842
cp	-3843
xx	-3844
chi	-3845
lim	-3846
▁On	-3847
bine	-3848
▁lib	-3849
▁spi	-3850
▁xml	-3851
eader	-3852
ratio	-3853
ssary	-3854
finder	-3855
suffix	-3856
▁Other	-3857
dataset	-3858
activate	-3859
artifact	-3860
platform	-3861
▁plasmid	-3862
▁updated	-3863
▁StringIO	-3864
▁communicator	-3865
mc	-3866
201	-3867
FOR	-3868
PAR	-3869
orr	-3870
sig	-3871
upy	-3872
ause	-3873
expi	-3874
hell	-3875
note	-3876
▁'0'	-3877
▁COM	-3878
provi	-3879
▁cast	-3880
▁href	-3881
▁stri	-3882
▁uuid	-3883
▁fetch	-3884
▁predi	-3885
▁rapid	-3886
▁units	-3887
▁Tensor	-3888
▁plural	-3889
▁Perform	-3890
▁without	-3891
dominated	-3892
▁allocate	-3893
▁explicit	-3894
▁selection	-3895
*.	-3896
1-	-3897
mer	-3898
ssl	-3899
▁tf	-3900
bout	-3901
five	-3902
free	-3903
join	-3904
mime	-3905
▁des	-3906
▁www	-3907
after	-3908
video	-3909
▁Tiny	-3910
▁html	-3911
▁wait	-3912
ingSet	-3913
reater	-3914
▁speed	-3915
section	-3916
▁branch	-3917
▁HEALPix	-3918
▁hamming	-3919
workspace	-3920
▁greyscale	-3921
▁WorkingSet	-3922
-%	-3923
vs	-3924
gic	-3925
▁La	-3926
akes	-3927
auto	-3928
crip	-3929
high	-3930
pkcs	-3931
tran	-3932
▁buf	-3933
antom	-3934
board	-3935
inger	-3936
▁rest	-3937
neuron	-3938
▁dicts	-3939
▁prime	-3940
▁shell	-3941
Verbose	-3942
account	-3943
actions	-3944
release	-3945
▁tensor	-3946
bitdepth	-3947
▁because	-3948
▁ignored	-3949
▁reverse	-3950
ributions	-3951
threshold	-3952
▁consumer	-3953
▁subclass	-3954
Namespaces	-3955
privatekey	-3956
▁candidate	-3957
▁serialize	-3958
VerboseLevel	-3959
▁representing	-3960
1]	-3961
33	-3962
uer	-3963
▁//	-3964
▁19	-3965
▁32	-3966
▁ec	-3967
GGER	-3968
izer	-3969
▁bio	-3970
ATION	-3971
ville	-3972
▁mime	-3973
Create	-3974
verter	-3975
▁edges	-3976
▁space	-3977
archive	-3978
▁reason	-3979
schedule	-3980
▁measure	-3981
▁amityville	-3982
▁defaultdict	-3983
afe	-3984
xml	-3985
▁42	-3986
▁pq	-3987
▁sd	-3988
Date	-3989
axis	-3990
dirs	-3991
trim	-3992
▁Cer	-3993
▁csv	-3994
attis	-3995
lated	-3996
stand	-3997
▁dset	-3998
▁pick	-3999
▁rect	-4000
buffer	-4001
escape	-4002
exists	-4003
series	-4004
▁clock	-4005
weights	-4006
▁factor	-4007
▁pieces	-4008
▁remain	-4009
▁fixture	-4010
▁storage	-4011
▁messages	-4012
QU	-4013
▁SH	-4014
▁au	-4015
Auth	-4016
Item	-4017
▁dna	-4018
▁est	-4019
▁tar	-4020
paths	-4021
stack	-4022
▁atom	-4023
▁flag	-4024
ulated	-4025
▁third	-4026
▁widget	-4027
circular	-4028
messages	-4029
▁Invalid	-4030
▁balance	-4031
▁scaling	-4032
▁synonym	-4033
▁external	-4034
▁forecasts	-4035
▁normalized	-4036
▁destination	-4037
TO	-4038
UM	-4039
Vi	-4040
nn	-4041
The	-4042
bed	-4043
egg	-4044
▁fh	-4045
Read	-4046
akoe	-4047
▁cfg	-4048
▁cir	-4049
Model	-4050
ality	-4051
loose	-4052
▁norm	-4053
vector	-4054
ycoord	-4055
▁basic	-4056
▁fasta	-4057
▁gener	-4058
▁users	-4059
correct	-4060
keyword	-4061
product	-4062
timeout	-4063
▁hasattr	-4064
dataframe	-4065
dshealpix	-4066
▁hostname	-4067
▁integers	-4068
Fi	-4069
UND	-4070
emp	-4071
lug	-4072
opy	-4073
▁IP	-4074
▁dy	-4075
Node	-4076
ckan	-4077
orig	-4078
▁bad	-4079
▁ctx	-4080
▁mne	-4081
▁pid	-4082
Table	-4083
chine	-4084
nonce	-4085
plier	-4086
sites	-4087
▁capa	-4088
▁dele	-4089
rusted	-4090
▁LOGGER	-4091
▁counts	-4092
▁metric	-4093
▁select	-4094
▁socket	-4095
indexhook	-4096
▁Hashable	-4097
▁quantity	-4098
▁beginning	-4099
▁getLogger	-4100
searchindexhook	-4101
".	-4102
58	-4103
DB	-4104
Ro	-4105
mm	-4106
Dis	-4107
rev	-4108
▁27	-4109
Mark	-4110
dies	-4111
▁way	-4112
scale	-4113
▁ceph	-4114
▁tile	-4115
ensure	-4116
OSITION	-4117
invalid	-4118
document	-4119
property	-4120
▁players	-4121
▁reading	-4122
▁removed	-4123
signature	-4124
transform	-4125
▁concaten	-4126
▁barcodeid	-4127
▁individual	-4128
▁responsible	-4129
AB	-4130
OIN	-4131
loy	-4132
NGTH	-4133
TIME	-4134
ropy	-4135
send	-4136
▁','	-4137
▁dlm	-4138
▁qui	-4139
▁too	-4140
olute	-4141
▁drop	-4142
▁heap	-4143
ground	-4144
rowser	-4145
▁about	-4146
▁arbit	-4147
▁cells	-4148
Version	-4149
▁folder	-4150
▁member	-4151
dynamics	-4152
▁arbitrary	-4153
coordinates	-4154
▁performing	-4155
))	-4156
DIR	-4157
idb	-4158
img	-4159
tom	-4160
vas	-4161
▁14	-4162
▁UT	-4163
rand	-4164
▁(``	-4165
▁NaN	-4166
▁fig	-4167
▁rst	-4168
▁vis	-4169
alled	-4170
exopy	-4171
fully	-4172
▁give	-4173
▁recv	-4174
inline	-4175
▁rules	-4176
changed	-4177
channel	-4178
fastqio	-4179
▁direct	-4180
▁period	-4181
ongitude	-4182
▁getlist	-4183
▁station	-4184
▁interval	-4185
mplemented	-4186
▁dbsession	-4187
▁precision	-4188
▁Environment	-4189
▁constraints	-4190
22	-4191
cd	-4192
wa	-4193
ATA	-4194
Fil	-4195
Obj	-4196
WWW	-4197
arg	-4198
▁ho	-4199
From	-4200
scan	-4201
walk	-4202
▁Dms	-4203
▁abc	-4204
▁bar	-4205
▁pad	-4206
amily	-4207
fetch	-4208
marker	-4209
metric	-4210
record	-4211
▁angle	-4212
▁board	-4213
▁doesn	-4214
▁issue	-4215
▁micro	-4216
lusters	-4217
▁attach	-4218
▁author	-4219
▁strike	-4220
fficient	-4221
▁profile	-4222
▁Iterable	-4223
▁separators	-4224
As	-4225
FF	-4226
Qu	-4227
gr	-4228
days	-4229
miss	-4230
Boxes	-4231
PRESS	-4232
lists	-4233
vidend	-4234
▁staff	-4235
ilities	-4236
records	-4237
▁commit	-4238
▁reduce	-4239
▁produce	-4240
▁customer	-4241
▁included	-4242
▁progress	-4243
▁backslash	-4244
▁dependent	-4245
▁different	-4246
▁substituted	-4247
▁nondominated	-4248
HistoryBuilder	-4249
7_	-4250
sy	-4251
...	-4252
100	-4253
_2_	-4254
ina	-4255
▁DE	-4256
▁RE	-4257
▁io	-4258
ices	-4259
leep	-4260
tack	-4261
▁eml	-4262
▁ord	-4263
creen	-4264
white	-4265
▁card	-4266
▁util	-4267
LENGTH	-4268
▁paths	-4269
creation	-4270
rollment	-4271
▁details	-4272
▁paralle	-4273
▁release	-4274
Namespace	-4275
anization	-4276
▁mentions	-4277
▁normally	-4278
▁sentence	-4279
_4	-4280
sd	-4281
ada	-4282
cos	-4283
css	-4284
HIST	-4285
cing	-4286
uler	-4287
▁120	-4288
▁Rec	-4289
▁0.00	-4290
▁Exec	-4291
▁Only	-4292
▁mass	-4293
▁vari	-4294
lookup	-4295
▁peaks	-4296
▁sites	-4297
KEYWORD	-4298
pherical	-4299
scriptor	-4300
▁minimum	-4301
▁download	-4302
▁handlers	-4303
▁MatchType	-4304
▁formatted	-4305
▁properties	-4306
▁As	-4307
dims	-4308
limi	-4309
ring	-4310
uman	-4311
▁mac	-4312
Extra	-4313
andas	-4314
chain	-4315
found	-4316
texts	-4317
undle	-4318
Stream	-4319
policy	-4320
rivate	-4321
schema	-4322
▁exact	-4323
▁reset	-4324
bsocket	-4325
mapping	-4326
replace	-4327
▁option	-4328
▁writer	-4329
▁environ	-4330
▁finally	-4331
▁outfile	-4332
▁youtube	-4333
deredDict	-4334
▁destined	-4335
multiplier	-4336
registered	-4337
*'	-4338
1:	-4339
sn	-4340
CRE	-4341
idx	-4342
ift	-4343
▁0,	-4344
▁mk	-4345
▁oc	-4346
PORT	-4347
aker	-4348
ette	-4349
medi	-4350
▁'1'	-4351
▁``(	-4352
▁dms	-4353
▁dry	-4354
▁pdu	-4355
▁six	-4356
atter	-4357
▁desc	-4358
▁look	-4359
common	-4360
memory	-4361
ofweek	-4362
▁adjac	-4363
▁triml	-4364
HISTORY	-4365
▁Verify	-4366
▁follow	-4367
▁unpack	-4368
children	-4369
duration	-4370
wrappers	-4371
▁members	-4372
OSITIONAL	-4373
arguments	-4374
container	-4375
▁Otherwise	-4376
▁dayofweek	-4377
▁Dictionary	-4378
▁trimlength	-4379
▁coordinates	-4380
Pa	-4381
UB	-4382
▁$	-4383
ALL	-4384
cel	-4385
gra	-4386
hed	-4387
pad	-4388
pic	-4389
▁2,	-4390
▁ap	-4391
Mock	-4392
byte	-4393
ergy	-4394
▁Baz	-4395
▁flo	-4396
▁lst	-4397
▁sql	-4398
moves	-4399
▁ints	-4400
▁pool	-4401
orient	-4402
payoff	-4403
▁Using	-4404
Service	-4405
▁secret	-4406
▁cluster	-4407
validation	-4408
▁implement	-4409
▁unregister	-4410
▁corresponds	-4411
▁interaction	-4412
▁expectedbarcode	-4413
28	-4414
bf	-4415
hn	-4416
':'	-4417
255	-4418
API	-4419
KCS	-4420
lla	-4421
tle	-4422
▁fg	-4423
lore	-4424
▁htt	-4425
▁plt	-4426
▁red	-4427
Cache	-4428
chiba	-4429
forge	-4430
grees	-4431
learn	-4432
▁Game	-4433
▁push	-4434
cursor	-4435
ucture	-4436
▁Valid	-4437
▁epoch	-4438
▁tiles	-4439
allback	-4440
▁energy	-4441
▁expect	-4442
▁screen	-4443
precated	-4444
▁dirname	-4445
▁invoked	-4446
▁matched	-4447
▁relative	-4448
initialize	-4449
targetlink	-4450
▁preferred	-4451
PL	-4452
ao	-4453
tf	-4454
OUT	-4455
REF	-4456
`):	-4457
▁25	-4458
kind	-4459
lied	-4460
pasi	-4461
▁Com	-4462
▁devi	-4463
▁such	-4464
alette	-4465
domain	-4466
gories	-4467
tumblr	-4468
▁aggre	-4469
▁occur	-4470
▁pairs	-4471
pasilla	-4472
▁bodies	-4473
▁builds	-4474
▁obtain	-4475
▁simple	-4476
baseline	-4477
particip	-4478
▁similar	-4479
▁updates	-4480
▁dependen	-4481
▁skipkeys	-4482
▁frequency	-4483
▁inclusive	-4484
▁==========	-4485
▁attributes	-4486
distribution	-4487
▁implemented	-4488
▁findPathwaysBy	-4489
'}	-4490
LI	-4491
NN	-4492
NS	-4493
UE	-4494
mx	-4495
sl	-4496
``)	-4497
fla	-4498
rps	-4499
vis	-4500
▁37	-4501
``),	-4502
okie	-4503
plan	-4504
▁vac	-4505
After	-4506
certs	-4507
noise	-4508
▁math	-4509
▁perm	-4510
▁seek	-4511
charge	-4512
degree	-4513
otated	-4514
▁rooms	-4515
licting	-4516
missing	-4517
▁Custom	-4518
▁vertex	-4519
ferences	-4520
direction	-4521
▁children	-4522
▁training	-4523
otatedBoxes	-4524
▁exceptions	-4525
▁application	-4526
38	-4527
;'	-4528
Ad	-4529
MC	-4530
FIG	-4531
MIT	-4532
SSL	-4533
dag	-4534
etc	-4535
exc	-4536
ght	-4537
let	-4538
siz	-4539
▁'\	-4540
'``.	-4541
Numb	-4542
desc	-4543
prnr	-4544
▁Fil	-4545
▁One	-4546
▁[0,	-4547
Array	-4548
demux	-4549
ester	-4550
known	-4551
reply	-4552
riend	-4553
▁gain	-4554
▁tags	-4555
lambda	-4556
lonlat	-4557
unique	-4558
▁Model	-4559
▁regex	-4560
Context	-4561
pattern	-4562
▁render	-4563
setstate	-4564
exception	-4565
▁boundary	-4566
▁rotation	-4567
▁collections	-4568
26	-4569
XX	-4570
ICT	-4571
umi	-4572
1305	-4573
lare	-4574
rain	-4575
▁'10	-4576
▁RGB	-4577
▁cli	-4578
▁pol	-4579
▁rad	-4580
▁txt	-4581
▁vir	-4582
ithub	-4583
named	-4584
users	-4585
▁java	-4586
▁repo	-4587
tested	-4588
▁slice	-4589
▁Report	-4590
▁smooth	-4591
ceptions	-4592
▁filters	-4593
▁noreply	-4594
▁filetype	-4595
▁specific	-4596
▁converted	-4597
▁increment	-4598
application	-4599
0-	-4600
14	-4601
98	-4602
NC	-4603
].	-4604
mr	-4605
Fat	-4606
ODE	-4607
rgb	-4608
rio	-4609
▁'@	-4610
▁Bo	-4611
band	-4612
show	-4613
▁Add	-4614
▁Pub	-4615
▁URI	-4616
▁dmx	-4617
▁fun	-4618
Maker	-4619
Money	-4620
apter	-4621
loads	-4622
▁0.01	-4623
▁arch	-4624
▁less	-4625
FORMAT	-4626
antile	-4627
charac	-4628
▁books	-4629
▁fname	-4630
Warning	-4631
strings	-4632
tracker	-4633
▁comple	-4634
▁origin	-4635
▁reblog	-4636
▁stored	-4637
mimetype	-4638
▁TinyFat	-4639
▁certsrv	-4640
▁maximum	-4641
▁product	-4642
distances	-4643
duplicate	-4644
▁markdown	-4645
▁platform	-4646
▁connected	-4647
attachments	-4648
▁observation	-4649
▁ontologyTerm	-4650
cm	-4651
Can	-4652
ish	-4653
jor	-4654
sys	-4655
{}/	-4656
▁(%	-4657
▁IO	-4658
▁We	-4659
ency	-4660
pend	-4661
yles	-4662
▁fra	-4663
▁pur	-4664
▁san	-4665
andom	-4666
asked	-4667
hicle	-4668
stral	-4669
ually	-4670
▁yaml	-4671
epochs	-4672
hashes	-4673
linear	-4674
urrent	-4675
▁plink	-4676
▁scope	-4677
formats	-4678
lations	-4679
offsets	-4680
▁Unless	-4681
▁detect	-4682
▁Dataset	-4683
▁combine	-4684
functions	-4685
▁datastructure	-4686
$$	-4687
9'	-4688
AP	-4689
VE	-4690
XT	-4691
And	-4692
hot	-4693
ora	-4694
▁13	-4695
▁23	-4696
▁60	-4697
▁pr	-4698
▁xy	-4699
Poly	-4700
atom	-4701
cosx	-4702
eded	-4703
ired	-4704
sget	-4705
sset	-4706
▁256	-4707
▁All	-4708
▁Ens	-4709
▁loc	-4710
▁shu	-4711
')``.	-4712
ormed	-4713
spect	-4714
ssian	-4715
▁JOIN	-4716
▁assu	-4717
▁iden	-4718
▁null	-4719
▁strs	-4720
▁walk	-4721
Socket	-4722
coords	-4723
ighted	-4724
macosx	-4725
terate	-4726
▁means	-4727
▁sleep	-4728
demuxed	-4729
payload	-4730
warning	-4731
▁Client	-4732
▁Column	-4733
openness	-4734
▁choices	-4735
▁datastr	-4736
▁running	-4737
thumbnail	-4738
▁COMPRESS	-4739
▁datasets	-4740
▁describe	-4741
▁endpoint	-4742
▁positive	-4743
▁provider	-4744
environment	-4745
▁initialize	-4746
▁revisionNumb	-4747
CE	-4748
PA	-4749
fun	-4750
gps	-4751
ian	-4752
pol	-4753
pul	-4754
Spec	-4755
apse	-4756
sian	-4757
▁rel	-4758
acket	-4759
async	-4760
energy	-4761
frames	-4762
lision	-4763
mpling	-4764
upyter	-4765
▁guess	-4766
▁their	-4767
Private	-4768
getattr	-4769
▁runner	-4770
▁scores	-4771
ariables	-4772
▁Convert	-4773
▁compact	-4774
DataFrame	-4775
collection	-4776
▁filenames	-4777
97	-4778
If	-4779
hi	-4780
zz	-4781
ECT	-4782
gue	-4783
ence	-4784
logs	-4785
ront	-4786
urls	-4787
Trans	-4788
VALUE	-4789
arant	-4790
boxes	-4791
rides	-4792
under	-4793
▁HOST	-4794
▁acti	-4795
Result	-4796
gative	-4797
locale	-4798
mitted	-4799
rector	-4800
ressed	-4801
▁large	-4802
▁uuids	-4803
Message	-4804
Outcome	-4805
▁memory	-4806
arantine	-4807
channels	-4808
polation	-4809
▁deleted	-4810
▁aggregate	-4811
Implemented	-4812
dependencies	-4813
tributeError	-4814
So	-4815
1.2	-4816
Hel	-4817
ams	-4818
▁gc	-4819
▁sn	-4820
ount	-4821
▁dig	-4822
▁sur	-4823
endar	-4824
pheno	-4825
realm	-4826
slope	-4827
▁POST	-4828
System	-4829
▁cross	-4830
▁molar	-4831
▁parti	-4832
▁trial	-4833
aussian	-4834
nextset	-4835
riendly	-4836
setitem	-4837
▁trials	-4838
▁useful	-4839
▁Session	-4840
▁archive	-4841
▁predict	-4842
rectories	-4843
▁savepath	-4844
▁tempfile	-4845
Parameters	-4846
positional	-4847
vingspaces	-4848
▁ciphertext	-4849
▁constraint	-4850
▁deprecated	-4851
▁quarantine	-4852
▁credentials	-4853
▁microseconds	-4854
▁specification	-4855
['	-4856
All	-4857
Ref	-4858
adj	-4859
cmd	-4860
csi	-4861
hub	-4862
squ	-4863
tol	-4864
▁my	-4865
Eval	-4866
Mask	-4867
Text	-4868
agic	-4869
imat	-4870
near	-4871
stat	-4872
▁fmt	-4873
▁gra	-4874
▁ste	-4875
First	-4876
hould	-4877
separ	-4878
▁Dpkg	-4879
▁cond	-4880
▁part	-4881
▁spli	-4882
▁vina	-4883
switch	-4884
▁needs	-4885
▁short	-4886
▁times	-4887
cending	-4888
jupyter	-4889
ocation	-4890
provide	-4891
▁always	-4892
▁entity	-4893
Metadata	-4894
agicMock	-4895
download	-4896
filepath	-4897
▁checked	-4898
▁greater	-4899
▁Argument	-4900
▁determin	-4901
▁geometry	-4902
▁connector	-4903
conflicting	-4904
▁OrderedDict	-4905
▁dimensional	-4906
▁AttributeError	-4907
▁NotImplemented	-4908
76	-4909
</	-4910
?'	-4911
IF	-4912
dt	-4913
ee	-4914
ced	-4915
lux	-4916
obs	-4917
sim	-4918
▁1,	-4919
()``	-4920
This	-4921
zero	-4922
▁eps	-4923
Group	-4924
omial	-4925
ssure	-4926
▁fill	-4927
▁gene	-4928
Python	-4929
Regist	-4930
ection	-4931
github	-4932
pulses	-4933
▁wants	-4934
▁weeks	-4935
between	-4936
created	-4937
ventory	-4938
▁bigint	-4939
▁pickle	-4940
▁public	-4941
Reference	-4942
▁Metadata	-4943
tification	-4944
31	-4945
IR	-4946
UP	-4947
ZE	-4948
ja	-4949
LAG	-4950
eri	-4951
inv	-4952
oci	-4953
▁'(	-4954
▁2.	-4955
▁Al	-4956
▁CR	-4957
alog	-4958
glob	-4959
help	-4960
mium	-4961
mpli	-4962
pare	-4963
▁doy	-4964
▁ind	-4965
▁iso	-4966
▁TEST	-4967
▁Tree	-4968
▁glob	-4969
cancel	-4970
curity	-4971
thread	-4972
▁recei	-4973
imation	-4974
storage	-4975
▁expand	-4976
comments	-4977
▁Contain	-4978
▁asarray	-4979
▁colored	-4980
▁geohash	-4981
▁category	-4982
▁singular	-4983
processing	-4984
▁installer	-4985
▁instances	-4986
▁spherical	-4987
▁serialized	-4988
eventOutcome	-4989
▁classmethod	-4990
▁observations	-4991
45	-4992
FS	-4993
_'	-4994
ERS	-4995
bon	-4996
dic	-4997
pem	-4998
tim	-4999
▁3.	-5000
▁Qu	-5001
▁ev	-5002
▁tp	-5003
[0])	-5004
ever	-5005
sity	-5006
uter	-5007
▁lin	-5008
Query	-5009
eries	-5010
ernel	-5011
isson	-5012
lower	-5013
▁TIME	-5014
▁dims	-5015
▁nece	-5016
▁tell	-5017
▁warn	-5018
▁your	-5019
Change	-5020
Filter	-5021
Remove	-5022
angles	-5023
enters	-5024
liptic	-5025
others	-5026
▁again	-5027
▁queue	-5028
compute	-5029
ibility	-5030
▁locale	-5031
▁premis	-5032
analysis	-5033
bitcount	-5034
database	-5035
▁patient	-5036
▁premium	-5037
▁primary	-5038
installer	-5039
▁getvalue	-5040
▁sections	-5041
▁condition	-5042
▁requirement	-5043
_7	-5044
`)	-5045
NET	-5046
alt	-5047
cmp	-5048
▁fc	-5049
▁nc	-5050
Note	-5051
ared	-5052
arte	-5053
cost	-5054
deli	-5055
ears	-5056
enal	-5057
ific	-5058
orld	-5059
rend	-5060
tigu	-5061
▁CON	-5062
▁WWW	-5063
▁cap	-5064
▁dep	-5065
cepts	-5066
dummy	-5067
fices	-5068
rents	-5069
vered	-5070
▁sets	-5071
▁wide	-5072
Bright	-5073
STRICT	-5074
Search	-5075
[0])``	-5076
bosity	-5077
eneral	-5078
modify	-5079
▁black	-5080
▁decor	-5081
▁sigma	-5082
tiguous	-5083
▁bounds	-5084
artesian	-5085
bilities	-5086
▁augment	-5087
▁flatten	-5088
▁anything	-5089
▁discards	-5090
▁mimetype	-5091
▁separate	-5092
2)	-5093
30	-5094
75	-5095
ESS	-5096
[0]	-5097
ply	-5098
derr	-5099
lush	-5100
memb	-5101
otal	-5102
scal	-5103
uuid	-5104
virt	-5105
▁3.0	-5106
▁dag	-5107
▁sio	-5108
accom	-5109
crets	-5110
faces	-5111
hello	-5112
imits	-5113
least	-5114
sizes	-5115
▁cols	-5116
▁done	-5117
▁goog	-5118
▁memo	-5119
▁sent	-5120
▁stre	-5121
assign	-5122
groups	-5123
▁Error	-5124
▁milli	-5125
▁penal	-5126
▁robot	-5127
▁topic	-5128
▁words	-5129
matches	-5130
sertion	-5131
windows	-5132
▁enable	-5133
▁upload	-5134
modation	-5135
strument	-5136
▁centers	-5137
▁complete	-5138
Collection	-5139
▁plaintext	-5140
▁supported	-5141
▁transcrip	-5142
▁covariance	-5143
▁measurement	-5144
▁probability	-5145
''	-5146
sv	-5147
phi	-5148
▁'0	-5149
▁ST	-5150
▁hy	-5151
▁vc	-5152
OCKS	-5153
parm	-5154
▁ssl	-5155
▁tol	-5156
cases	-5157
ested	-5158
login	-5159
ouble	-5160
teral	-5161
▁cone	-5162
▁freq	-5163
▁good	-5164
▁oral	-5165
▁shor	-5166
▁zero	-5167
Detail	-5168
Format	-5169
ferred	-5170
gation	-5171
imator	-5172
itable	-5173
listed	-5174
models	-5175
option	-5176
pieces	-5177
quival	-5178
riteri	-5179
▁Inter	-5180
▁drive	-5181
▁integ	-5182
▁since	-5183
▁today	-5184
▁wrong	-5185
limiter	-5186
▁cutoff	-5187
provider	-5188
▁ordinal	-5189
▁DeviceRe	-5190
▁basename	-5191
▁reaction	-5192
▁unittest	-5193
Annotation	-5194
▁determine	-5195
▁efficient	-5196
▁necessary	-5197
▁reallocate	-5198
▁milliseconds	-5199
2:	-5200
85	-5201
256	-5202
:00	-5203
ASE	-5204
ASN	-5205
VOL	-5206
bds	-5207
uhe	-5208
vac	-5209
▁(1	-5210
▁LG	-5211
▁tu	-5212
RECT	-5213
TEXT	-5214
Tree	-5215
cept	-5216
defi	-5217
lone	-5218
tist	-5219
▁obs	-5220
cards	-5221
chron	-5222
cross	-5223
prior	-5224
uheat	-5225
▁PKCS	-5226
▁deep	-5227
▁docs	-5228
▁puts	-5229
▁side	-5230
Before	-5231
DIRECT	-5232
enario	-5233
lidean	-5234
▁leave	-5235
Testing	-5236
deficit	-5237
delitem	-5238
dynamic	-5239
hamming	-5240
targets	-5241
▁choose	-5242
▁itself	-5243
chronous	-5244
notAfter	-5245
uclidean	-5246
▁builder	-5247
▁ignores	-5248
▁methods	-5249
▁problem	-5250
increment	-5251
▁queryset	-5252
covariance	-5253
▁MagicMock	-5254
▁direction	-5255
▁remaining	-5256
▁compatible	-5257
▁coordinate	-5258
▁substitute	-5259
7,	-5260
OB	-5261
XY	-5262
tx	-5263
}.	-5264
2.0	-5265
ORI	-5266
Oct	-5267
Url	-5268
bio	-5269
buf	-5270
▁TF	-5271
View	-5272
drop	-5273
eric	-5274
expr	-5275
▁Als	-5276
▁MAG	-5277
Count	-5278
folds	-5279
ifier	-5280
yield	-5281
▁conv	-5282
▁reci	-5283
▁trip	-5284
Pixels	-5285
bounds	-5286
bright	-5287
helper	-5288
▁anyio	-5289
▁cprnr	-5290
▁ratio	-5291
▁super	-5292
Browser	-5293
atterns	-5294
▁Format	-5295
▁notify	-5296
operator	-5297
▁counter	-5298
▁disable	-5299
▁palette	-5300
▁provide	-5301
▁channels	-5302
▁decimate	-5303
▁iteration	-5304
temperature	-5305
▁GetMissing	-5306
▁COMPRESSION	-5307
▁computation	-5308
▁countPixels	-5309
-8	-5310
21	-5311
UTC	-5312
dia	-5313
pto	-5314
std	-5315
tak	-5316
tid	-5317
tmp	-5318
win	-5319
ATCH	-5320
buil	-5321
cuit	-5322
done	-5323
moid	-5324
plib	-5325
same	-5326
▁PEM	-5327
▁Ref	-5328
▁Use	-5329
▁mod	-5330
arest	-5331
cates	-5332
ected	-5333
ftime	-5334
retty	-5335
usage	-5336
yrdoy	-5337
▁Also	-5338
▁play	-5339
▁what	-5340
DictBy	-5341
Driver	-5342
readth	-5343
rypted	-5344
starts	-5345
tected	-5346
triple	-5347
▁bfile	-5348
▁click	-5349
▁codes	-5350
astropy	-5351
balance	-5352
control	-5353
testing	-5354
virtual	-5355
▁combin	-5356
▁finger	-5357
▁loader	-5358
adastral	-5359
hostname	-5360
packages	-5361
sections	-5362
▁assumed	-5363
▁Latitude	-5364
▁parallel	-5365
▁component	-5366
▁temperature	-5367
80	-5368
BU	-5369
SD	-5370
gt	-5371
lb	-5372
tc	-5373
ROR	-5374
UID	-5375
cwd	-5376
has	-5377
ffic	-5378
unch	-5379
warg	-5380
▁Pre	-5381
▁ann	-5382
▁lhs	-5383
Multi	-5384
asite	-5385
draft	-5386
idden	-5387
rypto	-5388
times	-5389
▁Read	-5390
▁virt	-5391
direct	-5392
takura	-5393
▁Token	-5394
▁agent	-5395
▁steps	-5396
▁takes	-5397
▁years	-5398
geojson	-5399
secrets	-5400
▁approx	-5401
▁loaded	-5402
constant	-5403
▁IsExtra	-5404
▁Unicode	-5405
▁calling	-5406
▁equival	-5407
▁machine	-5408
▁reshape	-5409
calculate	-5410
▁absolute	-5411
▁allclose	-5412
▁refactor	-5413
▁scanline	-5414
Identifier	-5415
▁executable	-5416
48	-5417
AF	-5418
LY	-5419
ND	-5420
Ti	-5421
VP	-5422
May	-5423
OTO	-5424
SUB	-5425
asn	-5426
exe	-5427
nni	-5428
▁64	-5429
▁SE	-5430
▁Sp	-5431
MENT	-5432
SIZE	-5433
_1_0	-5434
ames	-5435
hour	-5436
pool	-5437
▁foo	-5438
▁sep	-5439
▁uid	-5440
ccorr	-5441
cloud	-5442
epoch	-5443
units	-5444
ution	-5445
▁0.25	-5446
▁dash	-5447
▁none	-5448
fellow	-5449
orters	-5450
▁Point	-5451
▁front	-5452
▁human	-5453
▁route	-5454
▁satis	-5455
▁shift	-5456
▁these	-5457
▁yrdoy	-5458
Convert	-5459
culated	-5460
larator	-5461
▁pandas	-5462
elliptic	-5463
sentence	-5464
▁compile	-5465
▁ellipse	-5466
▁private	-5467
notBefore	-5468
▁getfirst	-5469
▁pairwise	-5470
▁properly	-5471
▁sanitize	-5472
enrollment	-5473
▁construct	-5474
▁delimiter	-5475
▁getDictBy	-5476
unallocated	-5477
▁Declarator	-5478
▁POSITIONAL	-5479
▁background	-5480
----------------	-5481
>`	-5482
NP	-5483
vm	-5484
mes	-5485
rou	-5486
▁Ro	-5487
▁cm	-5488
255,	-5489
SPAC	-5490
bits	-5491
geno	-5492
iven	-5493
prom	-5494
▁180	-5495
▁Vec	-5496
▁bst	-5497
▁did	-5498
▁dim	-5499
▁lar	-5500
▁mis	-5501
▁occ	-5502
▁yet	-5503
Input	-5504
added	-5505
loyee	-5506
slots	-5507
track	-5508
▁Each	-5509
▁Moto	-5510
▁conn	-5511
▁cron	-5512
▁dief	-5513
Marker	-5514
within	-5515
▁10000	-5516
▁MAGIC	-5517
▁Utils	-5518
▁still	-5519
extract	-5520
▁astype	-5521
▁spikes	-5522
▁switch	-5523
PBuilder	-5524
imported	-5525
protocol	-5526
▁Runtime	-5527
▁program	-5528
▁written	-5529
interface	-5530
▁Generate	-5531
DmsBuilder	-5532
SmsBuilder	-5533
▁Longitude	-5534
▁Recurrent	-5535
▁distances	-5536
▁recurrent	-5537
▁RuntimeError	-5538
/.	-5539
/{	-5540
DD	-5541
fq	-5542
sa	-5543
20_	-5544
FIX	-5545
IFY	-5546
Jan	-5547
inc	-5548
tld	-5549
vin	-5550
▁33	-5551
▁Fa	-5552
▁Md	-5553
▁cp	-5554
▁fs	-5555
amma	-5556
ante	-5557
hood	-5558
norm	-5559
ongo	-5560
▁GET	-5561
▁Web	-5562
▁You	-5563
▁bel	-5564
▁wsr	-5565
licen	-5566
ocial	-5567
▁opts	-5568
▁sess	-5569
▁undo	-5570
VERIFY	-5571
opener	-5572
paired	-5573
racker	-5574
synony	-5575
tensor	-5576
▁Multi	-5577
▁dummy	-5578
▁posts	-5579
▁realm	-5580
▁sched	-5581
▁trees	-5582
▁visit	-5583
▁Player	-5584
▁tables	-5585
▁urllib	-5586
services	-5587
▁MdUtils	-5588
▁applied	-5589
▁fellows	-5590
▁monthly	-5591
▁parsing	-5592
preferred	-5593
▁Executor	-5594
▁modified	-5595
▁plinkexe	-5596
Connection	-5597
▁assertNot	-5598
▁websocket	-5599
▁SmsBuilder	-5600
▁extensions	-5601
▁registered	-5602
Authenticate	-5603
OntologyTerm	-5604
5,	-5605
Fe	-5606
IG	-5607
Sm	-5608
`:	-5609
ru	-5610
{'	-5611
12'	-5612
36_	-5613
ARG	-5614
Lay	-5615
Req	-5616
VAR	-5617
asy	-5618
dig	-5619
oft	-5620
▁ed	-5621
INIT	-5622
MOTO	-5623
agon	-5624
bias	-5625
moto	-5626
ocab	-5627
onom	-5628
perm	-5629
riov	-5630
urse	-5631
▁500	-5632
▁emp	-5633
▁foc	-5634
▁mit	-5635
delay	-5636
gered	-5637
getne	-5638
losed	-5639
▁Gets	-5640
▁moto	-5641
▁ndim	-5642
▁take	-5643
▁uses	-5644
REFUND	-5645
lannel	-5646
parsed	-5647
remote	-5648
rouped	-5649
tively	-5650
▁Bytes	-5651
▁TFRec	-5652
▁along	-5653
▁exclu	-5654
▁flags	-5655
▁tests	-5656
lformed	-5657
plotlib	-5658
polygon	-5659
refunds	-5660
▁Please	-5661
▁Remove	-5662
▁associ	-5663
▁chunks	-5664
▁export	-5665
▁maxmem	-5666
▁needed	-5667
▁stride	-5668
▁vacant	-5669
examples	-5670
paramref	-5671
requires	-5672
▁classes	-5673
▁quality	-5674
▁records	-5675
▁trusted	-5676
Extension	-5677
supported	-5678
tfrecords	-5679
▁accepted	-5680
▁constant	-5681
Coordinate	-5682
extensions	-5683
getnewargs	-5684
▁HTTPretty	-5685
▁Parameter	-5686
▁simulation	-5687
▁barcodelength	-5688
▁distributions	-5689
▁randomerlength	-5690
At	-5691
Mi	-5692
PH	-5693
PU	-5694
fc	-5695
cio	-5696
inn	-5697
rel	-5698
usd	-5699
▁Do	-5700
▁bp	-5701
DATA	-5702
TEST	-5703
VERS	-5704
area	-5705
bins	-5706
gast	-5707
msBy	-5708
uate	-5709
wrap	-5710
▁'1.	-5711
▁-->	-5712
▁4.0	-5713
▁Sim	-5714
▁spr	-5715
_136_	-5716
cator	-5717
final	-5718
ports	-5719
utput	-5720
▁lose	-5721
▁trig	-5722
pubkey	-5723
▁adata	-5724
▁calls	-5725
▁cases	-5726
▁known	-5727
▁major	-5728
▁picks	-5729
▁quiet	-5730
▁ready	-5731
▁small	-5732
▁toler	-5733
contact	-5734
display	-5735
mdutils	-5736
▁Kattis	-5737
▁recent	-5738
gaussian	-5739
networks	-5740
quantile	-5741
▁1000000	-5742
▁asyncio	-5743
▁criteri	-5744
▁surface	-5745
▁fallback	-5746
▁starting	-5747
cdshealpix	-5748
▁cadastral	-5749
▁installed	-5750
▁localized	-5751
▁structure	-5752
Environment	-5753
OntologyTer	-5754
▁attachment	-5755
CurationTags	-5756
▁assertIsNot	-5757
▁RotatedBoxes	-5758
OntologyTermsBy	-5759
'.	-5760
09	-5761
GT	-5762
_6	-5763
34_	-5764
7-0	-5765
ATH	-5766
Aug	-5767
Baz	-5768
Feb	-5769
Nov	-5770
Row	-5771
Sep	-5772
bal	-5773
edu	-5774
iso	-5775
lex	-5776
▁fq	-5777
ONLY	-5778
TTER	-5779
adns	-5780
exon	-5781
goog	-5782
pear	-5783
slug	-5784
uite	-5785
year	-5786
▁400	-5787
▁VAR	-5788
▁aut	-5789
▁bmc	-5790
==1.2	-5791
appro	-5792
mtime	-5793
pedia	-5794
perty	-5795
ulate	-5796
▁'\\'	-5797
▁loop	-5798
Loader	-5799
amount	-5800
arante	-5801
colors	-5802
issuer	-5803
oolean	-5804
origin	-5805
rotate	-5806
▁blank	-5807
▁cause	-5808
▁mount	-5809
▁sakoe	-5810
Process	-5811
depends	-5812
sprites	-5813
▁cached	-5814
▁isfile	-5815
▁pretty	-5816
Validate	-5817
relation	-5818
▁BytesIO	-5819
▁atleast	-5820
▁bdsweek	-5821
▁contact	-5822
▁gpsweek	-5823
▁indexes	-5824
▁prepare	-5825
overrides	-5826
wikipedia	-5827
▁adjacent	-5828
▁comments	-5829
▁deviceID	-5830
characters	-5831
downloaded	-5832
exceptions	-5833
webservice	-5834
▁Arguments	-5835
▁ascending	-5836
▁currently	-5837
▁performed	-5838
▁threshold	-5839
CurationTag	-5840
requirement	-5841
▁closurized	-5842
▁determines	-5843
-1	-5844
PT	-5845
wr	-5846
Map	-5847
One	-5848
TER	-5849
agg	-5850
sql	-5851
▁('	-5852
▁AP	-5853
▁`.	-5854
▁ly	-5855
▁{0	-5856
Case	-5857
JECT	-5858
cols	-5859
enum	-5860
snps	-5861
ware	-5862
▁'__	-5863
▁Dis	-5864
▁LOG	-5865
▁csr	-5866
▁let	-5867
COVAR	-5868
dence	-5869
occup	-5870
posed	-5871
umped	-5872
▁Open	-5873
▁crps	-5874
▁pkcs	-5875
▁rule	-5876
author	-5877
choice	-5878
ective	-5879
hicles	-5880
mitive	-5881
ording	-5882
▁Event	-5883
▁Notes	-5884
Changes	-5885
changes	-5886
dequote	-5887
ignores	-5888
modules	-5889
related	-5890
▁button	-5891
▁frames	-5892
▁tzinfo	-5893
iterator	-5894
▁Setting	-5895
▁Specifi	-5896
▁getlast	-5897
▁httplib	-5898
▁itakura	-5899
available	-5900
generator	-5901
perations	-5902
▁Pubtator	-5903
▁computed	-5904
▁executor	-5905
▁Calculate	-5906
▁hexdigest	-5907
▁pluralize	-5908
▁triggered	-5909
▁successfully	-5910
▁assertIsNotNone	-5911
(?	-5912
QL	-5913
Apr	-5914
ICE	-5915
Jul	-5916
Jun	-5917
boo	-5918
dot	-5919
sep	-5920
sth	-5921
▁'#	-5922
▁gp	-5923
Zone	-5924
acci	-5925
amel	-5926
corr	-5927
dian	-5928
fake	-5929
flat	-5930
reen	-5931
simu	-5932
▁cat	-5933
▁eff	-5934
.0000	-5935
inted	-5936
month	-5937
mport	-5938
▁jobs	-5939
▁pull	-5940
▁sock	-5941
▁trun	-5942
PREFIX	-5943
engine	-5944
export	-5945
region	-5946
▁-----	-5947
▁Array	-5948
▁MATCH	-5949
▁whole	-5950
▁Header	-5951
▁Stream	-5952
▁angles	-5953
▁automa	-5954
▁infile	-5955
▁lonlat	-5956
▁merged	-5957
▁please	-5958
▁unless	-5959
iterable	-5960
▁failure	-5961
▁keyword	-5962
▁partial	-5963
▁revoked	-5964
verbosity	-5965
▁examples	-5966
▁segments	-5967
▁tokenize	-5968
executable	-5969
innovation	-5970
resolution	-5971
simulation	-5972
transformed	-5973
▁Connection	-5974
▁getPathwaysBy	-5975
SetVerboseLevel	-5976
▁ontologyTermId	-5977
================	-5978
▁getCurationTags	-5979
.6	-5980
My	-5981
OD	-5982
SB	-5983
fs	-5984
00\	-5985
aaa	-5986
cas	-5987
ccc	-5988
sal	-5989
▁Ad	-5990
▁Mo	-5991
crop	-5992
ells	-5993
nela	-5994
oled	-5995
oted	-5996
phen	-5997
pull	-5998
rank	-5999
tili	-6000
tome	-6001
vols	-6002
▁bro	-6003
▁inv	-6004
▁ter	-6005
Layer	-6006
Start	-6007
audio	-6008
sriov	-6009
weave	-6010
▁pods	-6011
affine	-6012
attack	-6013
chunks	-6014
decode	-6015
ectors	-6016
presen	-6017
tempts	-6018
▁moves	-6019
▁noise	-6020
DEFAULT	-6021
Dataset	-6022
flannel	-6023
macvlan	-6024
numbers	-6025
rective	-6026
triplex	-6027
without	-6028
▁dumped	-6029
▁exceed	-6030
▁family	-6031
▁raster	-6032
dividend	-6033
▁IsFirst	-6034
▁Pattern	-6035
▁conside	-6036
▁discard	-6037
▁enabled	-6038
▁compress	-6039
▁suitable	-6040
dictionary	-6041
networking	-6042
▁bytearray	-6043
▁correctly	-6044
▁databases	-6045
▁phenofile	-6046
▁requested	-6047
readability	-6048
▁inputtrace	-6049
▁similarity	-6050
accommodation	-6051
▁implementation	-6052
CI	-6053
rb	-6054
-1'	-6055
01_	-6056
06:	-6057
12:	-6058
New	-6059
[0,	-6060
dev	-6061
ike	-6062
lap	-6063
obi	-6064
raf	-6065
▁29	-6066
▁CA	-6067
▁PI	-6068
▁[%	-6069
Last	-6070
coin	-6071
ders	-6072
igma	-6073
orth	-6074
proc	-6075
stor	-6076
tems	-6077
▁Can	-6078
Basic	-6079
Small	-6080
alloc	-6081
ancer	-6082
false	-6083
nsity	-6084
▁Used	-6085
▁exon	-6086
▁gpml	-6087
▁stra	-6088
Header	-6089
Packet	-6090
Writer	-6091
anisms	-6092
double	-6093
styles	-6094
xtures	-6095
▁flush	-6096
▁magic	-6097
▁pconf	-6098
include	-6099
payment	-6100
▁IsLast	-6101
▁annual	-6102
▁rotate	-6103
▁sparse	-6104
alphabet	-6105
balancer	-6106
clusters	-6107
progress	-6108
▁Ensures	-6109
▁Integer	-6110
▁backend	-6111
▁control	-6112
▁enforce	-6113
▁randint	-6114
▁recurso	-6115
frequency	-6116
separator	-6117
sionlimit	-6118
validator	-6119
▁actually	-6120
▁alphabet	-6121
▁filtered	-6122
▁imported	-6123
▁patterns	-6124
referenced	-6125
▁phenotype	-6126
▁barcodeseq	-6127
▁prediction	-6128
GraphElement	-6129
▁instruction	-6130
▁averageBright	-6131
.9	-6132
29	-6133
71	-6134
CA	-6135
][	-6136
dl	-6137
DIT	-6138
NUM	-6139
RES	-6140
URI	-6141
abs	-6142
cis	-6143
her	-6144
ima	-6145
kel	-6146
▁'5	-6147
▁(:	-6148
:06:	-6149
Keys	-6150
acer	-6151
adcs	-6152
disc	-6153
dump	-6154
naps	-6155
odon	-6156
ully	-6157
ulus	-6158
▁---	-6159
▁511	-6160
▁[1]	-6161
▁rev	-6162
ORIES	-6163
Provi	-6164
ctags	-6165
rules	-6166
toler	-6167
uture	-6168
▁Load	-6169
▁Time	-6170
Cipher	-6171
Failed	-6172
failed	-6173
lihood	-6174
prints	-6175
signed	-6176
▁tsvio	-6177
hnccorr	-6178
▁Search	-6179
▁stderr	-6180
Required	-6181
boundary	-6182
reaction	-6183
revision	-6184
runLevel	-6185
synonyms	-6186
▁changed	-6187
▁fastaio	-6188
▁manager	-6189
Directory	-6190
InBrowser	-6191
SUBDIRECT	-6192
generated	-6193
indexable	-6194
phenotype	-6195
timedelta	-6196
traceback	-6197
▁analysis	-6198
ValueError	-6199
expression	-6200
properties	-6201
▁inputtest	-6202
▁timedelta	-6203
▁associated	-6204
▁calculated	-6205
▁fahrenheit	-6206
▁specifying	-6207
▁submission	-6208
participants	-6209
▁asynchronous	-6210
NamespacesInfo	-6211
SUBDIRECTORIES	-6212
PathwayInBrowser	-6213
-'	-6214
MA	-6215
.0.	-6216
:``	-6217
ACT	-6218
Mar	-6219
SER	-6220
aka	-6221
tsn	-6222
zed	-6223
▁8,	-6224
▁Ph	-6225
▁UN	-6226
▁["	-6227
▁rm	-6228
Card	-6229
_34_	-6230
ball	-6231
cond	-6232
heap	-6233
helm	-6234
lize	-6235
▁'@'	-6236
▁5.0	-6237
▁DAG	-6238
▁dct	-6239
▁eid	-6240
▁fin	-6241
▁inc	-6242
▁nmr	-6243
▁pem	-6244
▁sff	-6245
Parse	-6246
attle	-6247
entra	-6248
ridge	-6249
▁CRPS	-6250
▁Pure	-6251
Method	-6252
OBJECT	-6253
bottom	-6254
cookie	-6255
▁fixer	-6256
▁track	-6257
▁union	-6258
adapter	-6259
amtools	-6260
ynomial	-6261
▁scalar	-6262
▁scaled	-6263
izations	-6264
▁Creates	-6265
▁General	-6266
▁against	-6267
▁breadth	-6268
▁fileobj	-6269
▁inspect	-6270
▁refresh	-6271
▁gpmlCode	-6272
▁listener	-6273
▁protocol	-6274
▁skycoord	-6275
definition	-6276
▁receiving	-6277
▁scheduler	-6278
▁IndexError	-6279
▁completion	-6280
▁determined	-6281
loadbalancer	-6282
ReferenceSystem	-6283
%(	-6284
44	-6285
53	-6286
73	-6287
AY	-6288
EO	-6289
Ma	-6290
SA	-6291
]]	-6292
lt	-6293
(['	-6294
01'	-6295
OLD	-6296
Pre	-6297
TML	-6298
]+'	-6299
ibi	-6300
ipy	-6301
lue	-6302
vor	-6303
▁':	-6304
▁Be	-6305
▁PO	-6306
▁Up	-6307
▁sz	-6308
Only	-6309
orts	-6310
▁'00	-6311
▁0.3	-6312
▁0.8	-6313
▁Max	-6314
▁mak	-6315
AFULT	-6316
arted	-6317
ately	-6318
aware	-6319
ished	-6320
magic	-6321
olver	-6322
piece	-6323
proto	-6324
stemp	-6325
tends	-6326
▁PIPE	-6327
▁bibi	-6328
▁core	-6329
▁enti	-6330
▁even	-6331
▁site	-6332
▁were	-6333
▁wild	-6334
CONFIG	-6335
cached	-6336
lected	-6337
menter	-6338
resses	-6339
ritems	-6340
splunk	-6341
stride	-6342
▁Start	-6343
▁Tests	-6344
▁fully	-6345
▁piles	-6346
▁saved	-6347
▁testS	-6348
expired	-6349
lisions	-6350
napshot	-6351
resolve	-6352
tically	-6353
▁Logger	-6354
▁POTTER	-6355
▁Server	-6356
▁concat	-6357
▁layers	-6358
▁splits	-6359
▁strict	-6360
latforms	-6361
reformat	-6362
skycoord	-6363
▁Certsrv	-6364
▁DEAFULT	-6365
▁Process	-6366
▁certain	-6367
▁focused	-6368
▁grouped	-6369
▁latBand	-6370
▁percent	-6371
terminals	-6372
▁listitem	-6373
▁negative	-6374
▁sampling	-6375
▁straight	-6376
attributes	-6377
descriptor	-6378
▁decorator	-6379
▁exceeding	-6380
▁iteritems	-6381
orientation	-6382
pairedreads	-6383
titleprefix	-6384
▁orientation	-6385
1)	-6386
4,	-6387
72	-6388
89	-6389
=%	-6390
><	-6391
FO	-6392
fd	-6393
ln	-6394
-05	-6395
20'	-6396
;16	-6397
={}	-6398
Sub	-6399
ZIP	-6400
aad	-6401
baz	-6402
bwa	-6403
mar	-6404
ots	-6405
sli	-6406
▁sb	-6407
3456	-6408
LOCK	-6409
PATH	-6410
aked	-6411
dora	-6412
draw	-6413
xist	-6414
▁128	-6415
▁dtw	-6416
▁met	-6417
ghtly	-6418
onomy	-6419
owner	-6420
raper	-6421
short	-6422
uuids	-6423
▁'./'	-6424
▁ends	-6425
▁font	-6426
▁four	-6427
▁getD	-6428
Plugin	-6429
enable	-6430
onames	-6431
weight	-6432
▁Input	-6433
▁Sigma	-6434
▁flops	-6435
▁links	-6436
▁optim	-6437
▁shuff	-6438
caption	-6439
execute	-6440
ritical	-6441
station	-6442
▁Credit	-6443
▁Tumblr	-6444
▁compar	-6445
▁connec	-6446
▁descri	-6447
▁respec	-6448
▁signal	-6449
mbedding	-6450
possible	-6451
▁bcfound	-6452
▁changes	-6453
▁smaller	-6454
connected	-6455
enticator	-6456
positions	-6457
▁deepcopy	-6458
▁keywords	-6459
▁operator	-6460
▁slightly	-6461
contiguous	-6462
▁Interface	-6463
riendlyname	-6464
▁equivalent	-6465
▁organization	-6466
▁assertNotEqual	-6467
Ps	-6468
]+	-6469
ae	-6470
fp	-6471
ko	-6472
pc	-6473
ql	-6474
').	-6475
▁	-6476
e	-6477
t	-6478
s	-6479
a	-6480
n	-6481
i	-6482
r	-6483
o	-6484
l	-6485
.	-6486
d	-6487
f	-6488
_	-6489
c	-6490
p	-6491
u	-6492
m	-6493
(	-6494
)	-6495
,	-6496
:	-6497
h	-6498
g	-6499
'	-6500
=	-6501
y	-6502
b	-6503
v	-6504
k	-6505
w	-6506
"	-6507
x	-6508
-	-6509
0	-6510
T	-6511
1	-6512
N	-6513
F	-6514
[	-6515
]	-6516
C	-6517
E	-6518
L	-6519
S	-6520
q	-6521
`	-6522
D	-6523
2	-6524
A	-6525
R	-6526
I	-6527
*	-6528
P	-6529
j	-6530
>	-6531
/	-6532
z	-6533
B	-6534
O	-6535
M	-6536
3	-6537
8	-6538
5	-6539
{	-6540
}	-6541
4	-6542
U	-6543
G	-6544
6	-6545
+	-6546
H	-6547
9	-6548
V	-6549
W	-6550
7	-6551
%	-6552
\	-6553
X	-6554
K	-6555
Y	-6556
<	-6557
@	-6558
J	-6559
!	-6560
;	-6561
Q	-6562
Z	-6563
#	-6564
|	-6565
?	-6566
&	-6567
$	-6568
~	-6569
^	-6570
·	-6571
ú	-6572
é	-6573
ä	-6574
一	-6575
的	-6576
日	-6577
’	-6578
ö	-6579
志	-6580
本	-6581
ć	-6582
为	-6583
í	-6584
“	-6585
”	-6586
á	-6587
‘	-6588
ã	-6589
–	-6590
♥	-6591
。	-6592
字	-6593
ü	-6594
不	-6595
是	-6596
模	-6597
股	-6598
ǝ	-6599
件	-6600
别	-6601
成	-6602
数	-6603
用	-6604
ç	-6605
上	-6606
ó	-6607
β	-6608
级	-6609
要	-6610
ÿ	-6611
а	-6612
√	-6613
以	-6614
市	-6615
書	-6616
集	-6617
ž	-6618
三	-6619
中	-6620
大	-6621
文	-6622
板	-6623
果	-6624
票	-6625
🥳	-6626
š	-6627
μ	-6628
р	-6629
信	-6630
可	-6631
套	-6632
容	-6633
組	-6634
¥	-6635
å	-6636
Ć	-6637
Đ	-6638
đ	-6639
Š	-6640
Ž	-6641
ǎ	-6642
Π	-6643
и	-6644
€	-6645
✘	-6646
二	-6647
内	-6648
出	-6649
印	-6650
发	-6651
各	-6652
和	-6653
地	-6654
年	-6655
打	-6656
接	-6657
版	-6658
行	-6659
这	-6660
邮	-6661
量	-6662
æ	-6663
è	-6664
ñ	-6665
ɔ	-6666
ʎ	-6667
е	-6668
о	-6669
ᴉ	-6670
串	-6671
了	-6672
于	-6673
候	-6674
写	-6675
到	-6676
取	-6677
啦	-6678
在	-6679
对	-6680
小	-6681
应	-6682
总	-6683
时	-6684
最	-6685
正	-6686
符	-6687
获	-6688
被	-6689
资	-6690
送	-6691
😇	-6692
🧼	-6693
×	-6694
â	-6695
γ	-6696
κ	-6697
к	-6698
у	-6699
−	-6700
✔	-6701
产	-6702
位	-6703
兩	-6704
准	-6705
则	-6706
制	-6707
去	-6708
句	-6709
只	-6710
号	-6711
名	-6712
否	-6713
回	-6714
夹	-6715
定	-6716
息	-6717
手	-6718
报	-6719
机	-6720
来	-6721
求	-6722
测	-6723
确	-6724
第	-6725
置	-6726
能	-6727
设	-6728
试	-6729
过	-6730
返	-6731
녕	-6732
안	-6733
～	-6734
Ä	-6735
à	-6736
õ	-6737
ɐ	-6738
ʞ	-6739
ˈ	-6740
б	-6741
с	-6742
下	-6743
个	-6744
交	-6745
使	-6746
典	-6747
兼	-6748
分	-6749
创	-6750
功	-6751
加	-6752
后	-6753
四	-6754
固	-6755
天	-6756
度	-6757
建	-6758
当	-6759
径	-6760
很	-6761
据	-6762
掉	-6763
控	-6764
提	-6765
方	-6766
根	-6767
每	-6768
率	-6769
生	-6770
直	-6771
相	-6772
短	-6773
种	-6774
细	-6775
芒	-6776
表	-6777
认	-6778
路	-6779
通	-6780
都	-6781
长	-6782
默	-6783
📋	-6784
🧪	-6785
¬	-6786
°	-6787
»	-6788
ì	-6789
ğ	-6790
ō	-6791
ɹ	-6792
ʇ	-6793
ф	-6794
ч	-6795
→	-6796
☻	-6797
⛿	-6798
✓	-6799
っ	-6800
と	-6801
の	-6802
イ	-6803
万	-6804
五	-6805
仅	-6806
代	-6807
值	-6808
入	-6809
公	-6810
净	-6811
列	-6812
动	-6813
区	-6814
单	-6815
原	-6816
台	-6817
同	-6818
址	-6819
城	-6820
域	-6821
多	-6822
失	-6823
好	-6824
存	-6825
学	-6826
少	-6827
彩	-6828
必	-6829
才	-6830
收	-6831
放	-6832
整	-6833
有	-6834
止	-6835
段	-6836
洗	-6837
流	-6838
添	-6839
清	-6840
现	-6841
睡	-6842
码	-6843
禁	-6844
积	-6845
站	-6846
简	-6847
纬	-6848
线	-6849
经	-6850
结	-6851
统	-6852
色	-6853
苹	-6854
规	-6855
警	-6856
话	-6857
详	-6858
语	-6859
败	-6860
转	-6861
输	-6862
还	-6863
连	-6864
金	-6865
面	-6866
音	-6867
须	-6868
ꯍ	-6869
«	-6870
Á	-6871
Â	-6872
É	-6873
Ó	-6874
Ø	-6875
ô	-6876
ą	-6877
ż	-6878
ǐ	-6879
ə	-6880
в	-6881
г	-6882
д	-6883
ж	-6884
з	-6885
й	-6886
л	-6887
м	-6888
н	-6889
п	-6890
т	-6891
ь	-6892
я	-6893
က	-6894
∞	-6895
☃	-6896
お	-6897
く	-6898
し	-6899
も	-6900
り	-6901
ァ	-6902
ア	-6903
ェ	-6904
カ	-6905
ク	-6906
チ	-6907
ッ	-6908
フ	-6909
ブ	-6910
ル	-6911
ー	-6912
业	-6913
乌	-6914
互	-6915
任	-6916
体	-6917
便	-6918
具	-6919
况	-6920
函	-6921
前	-6922
匀	-6923
医	-6924
华	-6925
占	-6926
含	-6927
响	-6928
啟	-6929
块	-6930
型	-6931
基	-6932
处	-6933
头	-6934
如	-6935
安	-6936
完	-6937
官	-6938
寧	-6939
将	-6940
就	-6941
州	-6942
工	-6943
带	-6944
广	-6945
強	-6946
影	-6947
情	-6948
意	-6949
或	-6950
户	-6951
所	-6952
承	-6953
拼	-6954
持	-6955
指	-6956
换	-6957
支	-6958
效	-6959
料	-6960
新	-6961
晚	-6962
替	-6963
期	-6964
极	-6965
柏	-6966
样	-6967
次	-6968
母	-6969
深	-6970
滤	-6971
潘	-6972
玮	-6973
白	-6974
盈	-6975
益	-6976
盘	-6977
目	-6978
磁	-6979
秒	-6980
称	-6981
端	-6982
箱	-6983
类	-6984
继	-6985
自	-6986
英	-6987
觉	-6988
解	-6989
設	-6990
象	-6991
贵	-6992
超	-6993
进	-6994
道	-6995
錄	-6996
银	-6997
開	-6998
闸	-6999
附	-7000
限	-7001
需	-7002
频	-7003
黑	-7004
세	-7005
요	-7006
하	-7007
🂠	-7008
